/**
  ******************************************************************************
  * @file    emotion_model_data_params.c
  * @author  AST Embedded Analytics Research Platform
  * @date    Wed Mar 27 01:47:31 2024
  * @brief   AI Tool Automatic Code Generator for Embedded NN computing
  ******************************************************************************
  * Copyright (c) 2024 STMicroelectronics.
  * All rights reserved.
  *
  * This software is licensed under terms that can be found in the LICENSE file
  * in the root directory of this software component.
  * If no LICENSE file comes with this software, it is provided AS-IS.
  ******************************************************************************
  */

#include "emotion_model_data_params.h"


/**  Activations Section  ****************************************************/
ai_handle g_emotion_model_activations_table[1 + 2] = {
  AI_HANDLE_PTR(AI_MAGIC_MARKER),
  AI_HANDLE_PTR(NULL),
  AI_HANDLE_PTR(AI_MAGIC_MARKER),
};




/**  Weights Section  ********************************************************/
AI_ALIGNED(32)
const ai_u64 s_emotion_model_weights_array_u64[4171] = {
  0xb8c900bbb8cad18cU, 0xb8c55f1ab8c72feaU, 0xb8c1bd78b8c38e49U, 0xb8be1bd6b8bfeca7U,
  0xb8ba7a35b8bc4b06U, 0xb8b6d893b8b8a964U, 0xb8b336f2b8b4487dU, 0xb8af9550b8b16621U,
  0xb8abf3afb8adc47fU, 0xb8a8520db8aa22deU, 0xb8a4b06bb8a6813cU, 0xb8a1d859b8a2df9bU,
  0xb89dbf6db89f3df9U, 0xb899a682b89b9c57U, 0xb8958d96b8979a0cU, 0xb8928843b8945914U,
  0xb88f6835b89174abU, 0xb88b4f49b88d5bbfU, 0xb887365eb88942d2U, 0xb8831d71b88529e8U,
  0xb88110fcb88230ecU, 0xb879f021b87e090eU, 0xb871be4cb875d735U, 0xb8698c71b86da55eU,
  0xb8657384b86754ccU, 0xb85d41b2b8615a9fU, 0xb8550fdcb85928c5U, 0xb84cde01b850f6efU,
  0xb846a61eb848c517U, 0xb8409340b844ac27U, 0xb8386164b83c7a58U, 0xb8302f99b834487fU,
  0xb827fdbeb82c16a9U, 0xb823e4c6b825f76fU, 0xb81bb2fcb81fcbecU, 0xb8138112b8179a04U,
  0xb80b4f43b80f6839U, 0xb80548c1b8073654U, 0xb7fe0901b8031d7dU, 0xb7eda548b7f5d717U,
  0xb7dd41bab7e573a6U, 0xb7ccde01b7d50ff0U, 0xb7c4ac11b7c93426U, 0xb7b44852b7bc7a46U,
  0xb7a3e4edb7ac16b8U, 0xb7938105b79bb2ffU, 0xb78b4f40b78f1a0cU, 0xb775d76cb7831d59U,
  0xb7550ff6b76573cfU, 0xb7344836b744ac0bU, 0xb71b7960b723e4c9U, 0xb7031d45b7138121U,
  0xb6c4ac08b6e573e1U, 0xb6831d61b6a3e4a8U, 0xb6031d4db644ac08U, 0xb5831d5bb5c5f537U,
  0x35831d4500000000U, 0x3644ac0836031d5fU, 0x36a3e4ad36831d56U, 0x36d3f82436c4ac08U,
  0x37031d4e36e573ddU, 0x3723e4d43713811dU, 0x3744ac0a37344835U, 0x376573d437550ff6U,
  0x3775d753376cb6cbU, 0x378b4f3c37831d52U, 0x379bb2ff37938105U, 0x37ac16c037a3e4edU,
  0x37b4485737b0757fU, 0x37c4ac1137bc7a40U, 0x37d50fef37ccde01U, 0x37e573aa37dd41beU,
  0x37f1d2db37eda545U, 0x37fe090237f5d713U, 0x3807365a38031d7dU, 0x380f6833380b4f4aU,
  0x38179a0538138111U, 0x381bb2fd3819981cU, 0x3823e4c5381fcbeaU, 0x382c16a83827fdbeU,
  0x3834487f38302f90U, 0x383a46ca38386165U, 0x38409340383c7a56U, 0x3848c5183844ac29U,
  0x3850f6ec384cde01U, 0x385753d738550fdeU, 0x385d41b2385928c3U, 0x3865738338615a9fU,
  0x386da55f38698c75U, 0x3875d7353871be4cU, 0x3879f02138780285U, 0x388110fc387e090fU,
  0x388529e838831d71U, 0x388942d33887365fU, 0x388c589a388b4f49U, 0x388f6835388d5bbfU,
  0x38938120389174abU, 0x38979a0c38958d96U, 0x389bb2f73899a681U, 0x389e80c2389caff1U,
  0x38a1d859389fcbe3U, 0x38a5f14438a3e4cfU, 0x38aa0a3038a7fdbaU, 0x38ad074838ac16a6U,
  0x38b02f9138ae231cU, 0x38b4487d38b279baU, 0x38b7ec2d38b61b5cU, 0x38bb8dce38ba6ddeU,
  0x38bf2f7038bd5e9fU, 0x38c2d11138c09340U, 0x38c672b338c4a1e2U, 0x38ca145538c84384U,
  0x38cdb5f638cbe525U, 0x38d1579838cf86c7U, 0x38d4f93938d30364U, 0x38d89adb38d6ca0aU,
  0x38dc3c7d38da6bacU, 0x38dfde1e38de0d4dU, 0x38e37fc038e1aeefU, 0x38e7216138e55091U,
  0x38eac30338e8f232U, 0x38ee64a438ec93d4U, 0x38f2064638f03575U, 0x38f5a7e838f3d717U,
  0x38f9498938f778b8U, 0x38fceb2b38fb1a5aU, 0x3900466638febbfcU, 0x3902173739012ecfU,
  0x7586836f7b675f87U, 0x644e704f7b4e7045U, 0x59647c6b6b535579U, 0x59597052896f7049U,
  0x8d4d49746f665d95U, 0x448570685d7e705aU, 0x66966d767572647dU, 0x4e64706089697050U,
  0x727079717b747482U, 0x597b73628c46704fU, 0x6b684c6a7c507c8dU, 0x5b7573696b7b7059U,
  0x7157846a7a406348U, 0x5f6a705589677085U, 0x535a8c67755f786bU, 0x4f497074727e7046U,
  0x7e5d8f6672507964U, 0x4d47704a8f677069U, 0x4c8f7c697869698bU, 0x515b70505685707cU,
  0x6f7e5e647d857547U, 0x386b705f70767079U, 0x579298617d745a49U, 0x476a706f6b66706cU,
  0x50705d667c827a72U, 0x6075706b988f7072U, 0x898d757078404481U, 0x627c704e717f7053U,
  0x7d855b737d5b3c7cU, 0x557370607d61705eU, 0x737874747e693b7dU, 0x4f837051894d7064U,
  0x4e41866a7d43587bU, 0x2a85706468647064U, 0x638d6366794c675eU, 0x357a705384637047U,
  0x5b704d7a788d6345U, 0x4157706f4c8a7066U, 0x7395496b7578537aU, 0x3d627072785b7068U,
  0x6181746c7667717bU, 0x576f70668b8e7062U, 0x5d5b507d7b826f8bU, 0x5269707b8b78706bU,
  0x6b7568747b6b4696U, 0x4f6d706b564f704fU, 0x724c6862764e717cU, 0x4087706772727066U,
  0x8b558c6176577460U, 0x3882705a758e7061U, 0x8d908f6f76507271U, 0x6386708574817063U,
  0x8f7272727585836cU, 0x6287707150577069U, 0x6b68766c79875a52U, 0x53567064676d708fU,
  0x78704671798c7b69U, 0x517e708570707055U, 0x955651827a7b6a4eU, 0x63597072786c707fU,
  0x638d87857b7c5350U, 0x6f9f706d71647071U, 0x86696963787f675bU, 0x4f69706c57727087U,
  0x634e9076785e7461U, 0x686970767178707aU, 0x796c6271795a8651U, 0x5b60706f7650706aU,
  0x738f5a6d786b6756U, 0x5174707c8f957078U, 0x7f7583677260786dU, 0x688570725856707eU,
  0x794f8178737b7586U, 0x525d705f63687059U, 0x8f8756897675897fU, 0x6498706c696c705bU,
  0x4c8f5f6f76727281U, 0x688a70669868705dU, 0x5f8d927c734f8c98U, 0x705b70856d94707dU,
  0x4e8e7f81746a7c59U, 0x626f707881737089U, 0x5266677d765d924dU, 0x5f82706b92487093U,
  0x67527b6c755a7f85U, 0x5a55706f645f7078U, 0x6f55788679566767U, 0x7d857090584e708eU,
  0x7e748e747a528e90U, 0x535870526a6d7067U, 0x866687797a82816dU, 0x5b7a7081797e756cU,
  0x506c96767a6c6075U, 0x7672709659527169U, 0x8d8b707673735e50U, 0x62637066745a704dU,
  0x52636d83768c9068U, 0x6ca7707d5183707aU, 0x748d6c6a756f7082U, 0x568e7078567d7078U,
  0x8e62867f755f7387U, 0x5e737056934c7086U, 0x8253596676858557U, 0x5956707a4d847072U,
  0x5b67857576857f7aU, 0x6181707e954d706bU, 0x72866976757c7a73U, 0x676070748a5f7059U,
  0x9679728778578e87U, 0x6664707e66667072U, 0x60727e6b7a7b7a51U, 0x3b7b7069596f7076U,
  0x6f68485d7a8c8d84U, 0x648470967f6c7053U, 0x5a5e7c707972734fU, 0x8d6c7073556d7053U,
  0x9770977c7a599082U, 0x6d5870584e8c7073U, 0x63685d837a8e8267U, 0x567e708d73877076U,
  0x767c596b758e496bU, 0x667f706363717058U, 0x4a50517c765f528cU, 0x757c70827259708eU,
  0x797693787a7a6a94U, 0x618270795a637087U, 0x866c7e6476817d4cU, 0x534d708793557071U,
  0x8a87725d745e5582U, 0x587f705e8a68706aU, 0x668a736a75925789U, 0x6284708c6c847047U,
  0x9290597b79687d87U, 0x687070954f5a704dU, 0x507e847f7861735aU, 0x6772705f57927093U,
  0x7155696778697b60U, 0x47787060926b7047U, 0x6d687f597a8a7284U, 0x6876706850627046U,
  0x835f9057746a7669U, 0x64837056664a7079U, 0x5790796774716f6dU, 0x64717071698a705aU,
  0x83958163764e757fU, 0x6682707b908e703fU, 0x69837a717a578479U, 0x504a70697d907081U,
  0x507d736f7d5b7060U, 0x4f6c70527c6a705aU, 0x6457726879595e5bU, 0x5967707161727074U,
  0x938f6c727678787eU, 0x666a70745f7b705dU, 0x4a5a64767b4a6967U, 0x557470616c857070U,
  0x5b7c876f7d576660U, 0x4f677051707a705aU, 0x8766475e7c6c8a6cU, 0x386b707c87687060U,
  0x7c6a864a766c7247U, 0x437b706f5e64706aU, 0x6c78575f756b7956U, 0x41687059558a7058U,
  0x677b74617a5e4a6cU, 0x455870577f5a704aU, 0x6d7f845d7d487452U, 0x348770626b757066U,
  0x8e4658667e725883U, 0x2d607053926f7045U, 0x706c766a7c4e7560U, 0x2b74705e6f7d7068U,
  0x956a5368797b4d55U, 0x337470536c6d7055U, 0x60797064784e6772U, 0x2f68705b8967703dU,
  0x4e7f535b78674f72U, 0x415170577d85705fU, 0x878a4c57787b6d64U, 0x31627073898d7040U,
  0x4c52534e744a4957U, 0x2b5d706669527058U, 0x8a7b606175756856U, 0x326b704e93537045U,
  0x4f5a676073565f86U, 0x354070665a7d7048U, 0x83586b5e797b5989U, 0x3f457055665d706fU,
  0x90537a697d5f7355U, 0x437a706853867061U, 0x748a906f7a676169U, 0x4658704d70557048U,
  0x947c83697d70865aU, 0x296270675d797063U, 0x564c5a597e866259U, 0x3e7c707b578a7045U,
  0x96825e707a705e63U, 0x487e7069765e7059U, 0x59587f6a7a787b61U, 0x247b70565f81707dU,
  0x59686472787d7e63U, 0x435a706b69517073U, 0x587a927d7a71795dU, 0x358d706897567078U,
  0x5346896f7b725b67U, 0x3a6070744d72706fU, 0x956d5b6b79615169U, 0x3c51706f7c61704fU,
  0x6663816b7957817aU, 0x334e7056696a705aU, 0x8d6b6d7a786c6971U, 0x565b707263567079U,
  0x836060757a79926cU, 0x2d73706f50727061U, 0x6753607079939e67U, 0x3d5b707a6b697067U,
  0x604f527e7a897b5fU, 0x5083707f8c517084U, 0x7d526f737e6b6860U, 0x3c95706a526d704fU,
  0x78875f677c726a68U, 0x317f705b7a8e7038U, 0x5b5b70717a578364U, 0x448370746353707cU,
  0x515b90677a8b7875U, 0x348170728d687064U, 0x7b90606f7a627e76U, 0x3b6b707274497068U,
  0x5a67515f79607e8aU, 0x436d7062697f7047U, 0x8f726f647878758bU, 0x4678706351897068U,
  0x846b5a7076714a55U, 0x437e706b5969705fU, 0x64518a69747a6b62U, 0x1b7d705778677053U,
  0x6879746974707a4cU, 0x376970677c627048U, 0x4f92576f726a4f89U, 0x5f64705f6f537071U,
  0x5055996474558187U, 0x4983706a666f7053U, 0x82637a537448695bU, 0x37577056855e7033U,
  0x6f4f7e5d785f715fU, 0x3e6170508a97704aU, 0x8a5e865a76447263U, 0x3c5e70625b707062U,
  0x58746d5d7568665aU, 0x515970515092704cU, 0x578a616671716b7cU, 0x494c7051667d7063U,
  0x9d66606f757f745bU, 0x4e52706b85567061U, 0x836f5f6972616393U, 0x616c7056646d707aU,
  0x98865d6c74466a57U, 0x59527073758e7041U, 0x598c9075795f8362U, 0x5d5e705886597072U,
  0x98814f6f7a59717eU, 0x5182707461627050U, 0x5b7455797b6a5655U, 0x6c7d7083827b706dU,
  0x8d5f6d627c92797dU, 0x3d64708b50557071U, 0x70596766797a8789U, 0x605a706774537047U,
  0x6d897e7b788c4d5fU, 0x707f706f64927055U, 0x6487627678578c76U, 0x4c6670538546706fU,
  0x827a867379577850U, 0x528570817d7a7079U, 0x57524a6f748a4c7dU, 0x597d70607b5f7050U,
  0x894e4a76746f7a8eU, 0x5b57706766687051U, 0x7a8486767376695fU, 0x5d6b707b898c707eU,
  0x476d846a73908762U, 0x4a83706084607074U, 0x465d6f82758a5189U, 0x5a6b7063766a708dU,
  0x8c4c756778767070U, 0x58857090848c706dU, 0x6a7a637f74769e58U, 0x787f70747e527085U,
  0x5f55436f717b627fU, 0x747270588175705fU, 0x8b57528774665d72U, 0x6486705d6d7c7089U,
  0x5873767d74746d7eU, 0x6f8a705b83677082U, 0x7f59697d75848f74U, 0x5f70708c824c7061U,
  0x675279717260744eU, 0x6890708d73497086U, 0x8a67457c75534d68U, 0x4f8d708987867052U,
  0x7b83846d75518586U, 0x565070795f45705bU, 0x578e817074847e69U, 0x41817070738c7051U,
  0x7561836f748b7d53U, 0x5d8b70937a62706dU, 0x6c554f76736f924fU, 0x7a5a7061695e707cU,
  0x62515e7873708283U, 0x609070758e69704eU, 0x937d7c6f736d6175U, 0x576970766a837057U,
  0x4e537b7a755a767aU, 0x6b8f70588d787055U, 0x6f686d76725d5875U, 0x46557076906a7048U,
  0x728a5b7b74797076U, 0x5792705d63537068U, 0x94744a7b747b7f75U, 0x4a58707f8f7e7061U,
  0x6c824a6a76666155U, 0x3a8e707b5e6d706cU, 0x62667f6775648148U, 0x587d707090697060U,
  0x924d4a6f787d5d4cU, 0x4c81705e69537053U, 0x4f6c4e66757a527cU, 0x27867062588d7076U,
  0x5f74716474556b87U, 0x2b5e706c6287704cU, 0x9686507575735e5eU, 0x3b89706b5848706fU,
  0x6f45567176826481U, 0x3270705760697074U, 0x858e5b697482747aU, 0x3f5f70688a74706cU,
  0x7274685f73856a84U, 0x2a6b706d93837067U, 0x504981747657746dU, 0x4474707255927072U,
  0x924950737b766657U, 0x495e70794e727066U, 0x57578a69818a6084U, 0x4770706a9481704fU,
  0x6f7460787f6f5f83U, 0x3c6170724e667056U, 0x6a7b66697f72685eU, 0x2667706284677061U,
  0x76896d707d6a4d4cU, 0x3d6d7076585a7060U, 0x90724a5d7973505bU, 0x505b70687b4c706dU,
  0x675d6f597f607a79U, 0x488470626490705bU, 0x794f616f7a685856U, 0x4956705a58637047U,
  0x6d635f66767b6448U, 0x247c705f585e706aU, 0x859859627382788cU, 0x227e705b6f967045U,
  0x97535a7176787885U, 0x435170745769704aU, 0x6972556c78566181U, 0x2e58705a5a6a706dU,
  0x846a5f797b784959U, 0x2d6a705976577060U, 0x667e82737b5b705eU, 0x3161706f5a617047U,
  0x6457567a7978567aU, 0x4776706981627064U, 0x594e7c8175524856U, 0x4692706853757085U,
  0x637a7b6c74845951U, 0x4894706d55897075U, 0x7e568b7a788a7a45U, 0x32957075667d706aU,
  0x706f4f7a785a8457U, 0x378c7085746a707eU, 0x8c737e7c766f6b57U, 0x5560708a625d7072U,
  0x6c8c84757659737eU, 0x6987706853597047U, 0x757e626f74815155U, 0x4a83704c7647707aU,
  0x7f5a876b768e794cU, 0x5882705a73817062U, 0x8262636b746b7b44U, 0x4c92707a714c706fU,
  0x79686a6b766da070U, 0x5a87708e5d8e704eU, 0x56638769758c7584U, 0x609370606d4a7081U,
  0x686f757575645772U, 0x637c70737058704dU, 0x5972948475828681U, 0x7c7f705b6974705bU,
  0x8589488278648370U, 0x5898706c7363707aU, 0x6a595a6a70628289U, 0x4979707d7b627057U,
  0x858f83706f6d7c4aU, 0x637e70568a4f7066U, 0x75786869735a7d74U, 0x3f6670898a56704eU,
  0x5a5d4c79757b8c60U, 0x62877082795e707fU, 0x678e8c7a7968737fU, 0x689e707d995f704fU,
  0x56566a7379995f5dU, 0x5f6070747f607085U, 0x617f898378767494U, 0x797470695b857089U,
  0x7467517f765b6159U, 0x6da06f8c947c707aU, 0x566c528475748b64U, 0x7b86705f7975708fU,
  0x87817e89717e7263U, 0x617270578e41706bU, 0x8a86497f726f6c5eU, 0x718770618a7b7067U,
  0x8771506f6f878f53U, 0x566470648d78704eU, 0x46958c7075866a82U, 0x4d8f70835a4f7056U,
  0x89708d667d6a7a79U, 0x536770684756704fU, 0x6a9e6b667d74766cU, 0x677a70997c96707dU,
  0x4e756b797c86846dU, 0x5e4e70637e9c705bU, 0x7a697d70796f6450U, 0x68877072565b7072U,
  0x667e5d7d7a6c6d99U, 0x6878707c867a708aU, 0x8f94936b7c796a5fU, 0x624f708b6051704fU,
  0x728b8b767d878e6dU, 0x6d7070745e7c704dU, 0x7f6b55797e825951U, 0x6c6d70637b5a704fU,
  0x7a7c53747b747c58U, 0x6359706a5868706aU, 0x597c8d6f7b7e538eU, 0x4e707059924d705fU,
  0x987c5670798b5b63U, 0x5a8c708263987058U, 0x858b577d7c4a6b84U, 0x4f6f705951797055U,
  0x6a7c797c7a645952U, 0x5e7970767d7d7063U, 0x6f5e507179695d55U, 0x466470616786704dU,
  0x664e94707a69708bU, 0x535f70666d85703dU, 0x8f6c5e7f78936651U, 0x668f707c5a73704dU,
  0x51647b5b7861724cU, 0x4c7e708362817068U, 0x995d8f6375848482U, 0x6182708275727075U,
  0x615d7d6478857952U, 0x6272706d958a7058U, 0x708b56837a757095U, 0x8967706c7c8b707cU,
  0x5062738279827f5bU, 0x6392705a8b4f7062U, 0x5959647874747882U, 0x4c56706f62487071U,
  0x6a8f7871737f8b76U, 0x554970638a847044U, 0x81607b5f7a7c796fU, 0x466270647b787075U,
  0x8d5f64627c61597eU, 0x5382707b53677055U, 0x6f9273677a635084U, 0x5b72705d61847075U,
  0x6b6b5f6a7a7a577fU, 0x5a7c707f59857047U, 0x865e67687a76698aU, 0x59687078745b706cU,
  0x765e4f677a558375U, 0x5d83707f60797058U, 0x7a5d667879596970U, 0x6f78708a9358706bU,
  0x5e60637d7c845690U, 0x5293705d925a7055U, 0x898e82727a7c584fU, 0x465b7081688d7066U,
  0x6c626b78796f907cU, 0x616070699647708bU, 0x94826b697c765f7aU, 0x5959708d6b767060U,
  0x687969737e648a49U, 0x5390708b7c4e7055U, 0x6f4d4e6a7d78537dU, 0x3f8170706b7d7073U,
  0x909c004c5bd6b67dU, 0x9f8170d094757073U, 0x957c85646a86825bU, 0xcc7a708f2e33707cU,
  0xa271437b64858990U, 0xc43e706c41277089U, 0x828f7d7458a2b78dU, 0x997e707578897059U,
  0x878f497253a69269U, 0x6938668f668e70a8U, 0x7a3a7d72567fa835U, 0x9f52698b5362709dU,
  0x567057755a7bbb85U, 0xb194709c9b787086U, 0x43a199645aa99d53U, 0xa437707c8274705aU,
  0x766c33745d688271U, 0xb65d7070a77c7041U, 0x347b4384536a9ba7U, 0xc95170a1242f7056U,
  0x2635937a4d7c6fa6U, 0xaa4a707e9f99705aU, 0x337ea87553634564U, 0x929e7082966d7059U,
  0x786673765e94793cU, 0x866770556c717066U, 0x4455ae6f62acaaa0U, 0x978470816233707bU,
  0x939f617b5986355aU, 0xaa6c70814397707cU, 0xa50c367c557c41b2U, 0x6f687066a5457066U,
  0xac636c725a838a6cU, 0x6482705148497064U, 0x4062626f5a907f73U, 0xa97070923c7a70aeU,
  0x865ba763555581aaU, 0x984d7067a1a67053U, 0x3a727178605a5190U, 0x875a7079333c7046U,
  0xa42caf64615e793aU, 0x6b4f708e57937089U, 0x495a7c6f607d84a9U, 0x982f708c532e7046U,
  0x7c21928b62495aa8U, 0x9f6a70853e967093U, 0xb17b56616348635aU, 0x9b3d70637a627059U,
  0xb644405d62454eb1U, 0xa43c7073256d706aU, 0x4e9c447562495e37U, 0x8a62708b7a377094U,
  0xa02e7b6666626790U, 0x7c797089579b70a5U, 0x9d9d644e59585eb0U, 0x714870567c317082U,
  0x6c8a66595e3778b0U, 0x973c705b617c7076U, 0x2d8fa47063518258U, 0x8d9c7076525b70a1U,
  0x4c3da767668e4c8aU, 0x7b8570747eb07050U, 0x7b76698468745ab3U, 0xa269708a69af7052U,
  0x2468737862796db7U, 0xa27b707298817049U, 0x99856c69595b4566U, 0x7c587062509d7078U,
  0x5b9c9367624e6451U, 0x857670693e5d706aU, 0x62489379645272a5U, 0xb97270692c4c7090U,
  0xa87840695e7f7357U, 0x97857067968370a5U, 0xb35f614f59483c8eU, 0x793d705624a27079U,
  0x9b953b6959896aa9U, 0xb350708346997059U, 0x964aa87d5f6b7432U, 0x9da170636c857051U,
  0x4549987166724936U, 0x682e7064818d7074U, 0x7ca28a6f6a557e43U, 0xaf507079aa6a7063U,
  0x409e4e8b6b5b794dU, 0xca6870754cba707cU, 0x7e534778617f714eU, 0x748770827b817079U,
  0x3a5399665a716a46U, 0x9d6c706d79737069U, 0x72684c7456703f7bU, 0x99857068313a5aa4U,
  0x8e9f696b52454892U, 0x8a45708627816f73U, 0x8b89b15b66897ba9U, 0x796d70795b2a7076U,
  0x81978b535b6f467fU, 0x9f6f708b7e52704eU, 0x268e8376643e3b40U, 0x963a704a57ad70acU,
  0x9c3e7b686a4771b2U, 0x7a72708467997070U, 0x76963672696f83aaU, 0x9b52705321327089U,
  0xb2645d71679792a5U, 0x782f7078af5b7082U, 0x8e9f8d6d625a5599U, 0x6a2e7061217b7048U,
  0x3786945b62816c99U, 0x853670848431704eU, 0x3e53695f6178979cU, 0xa17f70925d4c708fU,
  0x706148665d68383cU, 0x9684705fa5827092U, 0x525b57625a832e60U, 0x64787068af487090U,
  0x865f46695a5395aeU, 0x9e2e7052734d707fU, 0x49a1b0756159928eU, 0x7f6c707e6499704dU,
  0x4c363481733b5baaU, 0x816c70839e7a705aU, 0x9b419d70705d6474U, 0x737270977aaa704eU,
  0x6d6c44666d8938b2U, 0x784d706c9b507095U, 0x737a46726d93923cU, 0x8f6d70a0928c70b5U,
  0x6aa468607174ae92U, 0x713b707150b070a8U, 0x5e826a5b6aae5f29U, 0x6f5b7075b866706fU,
  0x374061615f479543U, 0xa05f706b735e7076U, 0x4c76a8705e63a44fU, 0xaa817084909b709fU,
  0xaa8f31825a5f4541U, 0xa74770752f4d7072U, 0x4c903d865d64789eU, 0x83c3706aa89770a6U,
  0x7d7f608a68677068U, 0x766770612d8e709eU, 0x847c9c706997bf6fU, 0x6837709e9552707fU,
  0xac3c875b68a75d5eU, 0x6f89706356497059U, 0x8c5e24575e81892fU, 0x8351707b66947045U,
  0x6249945e5f67958eU, 0x978670836881708dU, 0x356a7f75674e8e86U, 0x7e33707c579f70a6U,
  0x70a7577a616a7557U, 0xaa6c7058963c7053U, 0x2b8690706283a45fU, 0x7d7370729d527076U,
  0x8c752667637f8498U, 0x8d4c70a435937099U, 0x986656696361499fU, 0x922c70665db3707cU,
  0xb74c92646862664cU, 0x8c557098453d706cU, 0x909f3a735b8796adU, 0x97a070866c517095U,
  0x9f4c5a745b46855aU, 0x9046708b564a705aU, 0x1ca7556f60788ca1U, 0x8e9b70505876704fU,
  0xa678797961934168U, 0x827f7069606770b0U, 0xac8b277567907a69U, 0x995270857c5e7053U,
  0x6b619f896971c32cU, 0xb95e70ad35be7084U, 0x294e8b8167a6b15aU, 0x8a5670666f687058U,
  0x24a7b07e6a869076U, 0x82ac707a98a070c4U, 0x7b92697f726f8a84U, 0x8db5708234457070U,
  0x8c5d3c9370a08f90U, 0xbbbe708aae6a7096U, 0x602d7c8c696b9658U, 0xb69370a27b46706fU,
  0x4fa17f90736b9b38U, 0x9c9970607da07071U, 0x8d679f927469b349U, 0x8a997095379570b5U,
  0x473d8b836a67782cU, 0x97577076646970a4U, 0xa686987f6c9f977dU, 0x816c709e75b17081U,
  0x5b702b866a969e9fU, 0x835670a9234d709cU, 0x51976292678f7678U, 0x9b707087a0ac7083U,
  0xad7f387b649c7031U, 0x8293709e79577095U, 0xa092a46b6082769bU, 0x9851709855857086U,
  0x26765a786d84576fU, 0xa27b707e4c94708fU, 0x2a7c98746f4e9087U, 0x939470664462706fU,
  0x8f62af6f6c489968U, 0x7f7270742b7d707bU, 0xaf5f7d68677892bcU, 0x9953705a963f7053U,
  0x6da2298268865f73U, 0x94a1705b935770bbU, 0x876b607368335e40U, 0x7284707a73357053U,
  0x56ae7b746c38787cU, 0x8d92706b3ca97092U, 0x4471a18773558d5fU, 0x9d3e705e7346708aU,
  0x9da490946f695b2aU, 0xa193708657327071U, 0x9344a28e6b94a72fU, 0x8182704d614d7073U,
  0xa150727e6b986655U, 0x76c0709024677068U, 0x96382774727cad6dU, 0x7d4f705da281707cU,
  0x4f40707870ad7ea5U, 0x94a070a6a08a70baU, 0x907f5e706d966194U, 0x793f70742ba6707aU,
  0xae2f44866daa6f7bU, 0x6874705f689470c1U, 0x347e8c8c6cb2a426U, 0x848f70a046667090U,
  0x64313a7169999daeU, 0x69827064a57a703fU, 0x867c796f6b564d7bU, 0x96967053af707094U,
  0x75a9215b6b759294U, 0x786a70974864705eU, 0xa16067556d66922cU, 0x6c9b70798c3a707aU,
  0x22532c74705b59aeU, 0x7e81708a436170b2U, 0xb3a4b78270b0867dU, 0xb0a9709b51677083U,
  0x4c784e7d649e904dU, 0x849b7058213d704fU, 0xa74c8f6b69588a9dU, 0x668270715d99709bU,
  0x703c8e7f697c89a1U, 0x7669704da27f704fU, 0x4eb183707375b87fU, 0x769770a719967078U,
  0x933d1b676d878e99U, 0x7f947050a14f7086U, 0x664e8a82765a739dU, 0x8b3e707ea07f7068U,
  0x3b5faf9575ae6d58U, 0xa67870582ba6708bU, 0x3e7d7e7d71b2957bU, 0x8770707e78a8705bU,
  0x1d61b2796b844d79U, 0x967f707f72a570b5U, 0x3c8353666953a67fU, 0x6a987094b66870acU,
  0x3a762c92666c3759U, 0xb1af7056a44e70a7U, 0x446c958b6a93a05bU, 0x8b9970983e2f709cU,
  0xa0638f82673f7272U, 0x92c1705975a17083U, 0x849b4a946a7d9760U, 0xb58f7095963a70e4U,
  0x687aad836685373cU, 0x7e5f704d6c6070a0U, 0x8a839b816a7e7295U, 0x7d7d707f2d557073U,
  0x7895458369b0b995U, 0xa07f708576ac708cU, 0x9e695b796a8bb244U, 0x8189708a24277053U,
  0x3750af7c6f855250U, 0x826970687d6370c0U, 0xa4bb6d6367828482U, 0x8fa7707332907047U,
  0x84a45b85627d8648U, 0xb6b3706aa23e704aU, 0x826964736793aa97U, 0x5856704429a97062U,
  0x68b38e8c6b7b946bU, 0xb04a70b8ad49704cU, 0x37b6409d66ac9e7bU, 0x927c706983867060U,
  0x2c43447c6baf6d94U, 0x7c597081b0b57073U, 0x82b0436d6957b536U, 0x78797082495a70a9U,
  0x8c702e7a71499f92U, 0x72a870478da0707bU, 0x386f6c9b6b597a4cU, 0xa2627099507070bcU,
  0x998140836a7e7938U, 0x8b79706b984a70d3U, 0xb56a465a6b75bb5bU, 0x8da2706b81637074U,
  0x97867b6067798f56U, 0x8f98706741337084U, 0x899d5e736674a52fU, 0x92a1707552607058U,
  0x313b388c66b25175U, 0xaf6170b08d85708aU, 0x7f9d478c67525baaU, 0x7f82707558ac70daU,
  0x97368c76686aa15eU, 0x7c4c709d8b667070U, 0x76a46190688ab334U, 0xa75370743c4570acU,
  0x41a96d766b6f5986U, 0x71a67050267070c3U, 0x6031a8706bafa451U, 0x7c9f7070b2757075U,
  0x2246797163a17952U, 0x8740705eac347099U, 0x664da7686296acaaU, 0x83a0704c849f70acU,
  0x3c5e246f607cb18eU, 0x8e417097635170a0U, 0xaf34408960586f73U, 0x9e56709798b67084U,
  0x275b928363647e62U, 0xa79470924e4d70cdU, 0x66b0848764758a9eU, 0xac8f707472b57074U,
  0x6493698c6d6b5f3cU, 0x75a470503b5a7089U, 0x2b17b0636b59a2b0U, 0x5b687051687a706dU,
  0x4d5952676372a464U, 0x9ba870674e6670b3U, 0x2d79497d61484daeU, 0xc29970a57853707eU,
  0x9523927e67766298U, 0x609b7045a93d70bfU, 0x7f55376d636a649fU, 0x737b7086932570b3U,
  0x85987c69606b99a5U, 0x97ae7050567070b5U, 0x9c86a65d5a8a5d9eU, 0x958e70555793704aU,
  0x3e9c8e755e4c7656U, 0x744d702f7c327087U, 0x57b0598f6b796f43U, 0x737d70679b637086U,
  0xa578a7745e928966U, 0x864f70b23a997089U, 0x534d466d64687f20U, 0x9379709ba42b7055U,
  0x6a89247f66797324U, 0xa1b670848a347060U, 0x9ca05a69698c8c96U, 0x7d94706741877071U,
  0x9b92a7786970a71cU, 0x936870a18a337071U, 0x3d67878c70b9a73fU, 0xae6770a672577090U,
  0x20977e696876c33cU, 0x86577087a1907070U, 0x4c6f8a8a6b728492U, 0xa49070748c3370b5U,
  0x693f346b68878358U, 0x7a7a706f4351705dU, 0xa06b3f7d6c617495U, 0x994670798a597067U,
  0x2e4c5a9c6d9b4d7aU, 0xa9a4709d815070b8U, 0x6faf759f6b999c41U, 0xc58570732d3870bbU,
  0x3d5d4ca7696472a8U, 0xd08b707d5ab170ccU, 0x737d449c6a5b6b8aU, 0x8d86703f846970d1U,
  0xa0468298674dae34U, 0x8e8a70577aaf70d6U, 0x7f4541956a8bbf96U, 0xa7bf7063a525708aU,
  0x5a6a8f85697b9041U, 0x797f7076817d706dU, 0x48338e706fba8d4fU, 0x9e5070be4e2770beU,
  0x923e8e765e7832afU, 0x9883708b48327056U, 0x714d857f64a2678eU, 0x7fa17085857c70c4U,
  0x445e577a698b9556U, 0x9b7070663a927096U, 0x5599857a6395a69bU, 0x9b61707d9662708eU,
  0x8a3f768f5d97966bU, 0xb18270b88f687082U, 0x237152957394b931U, 0x935d70928da5705fU,
  0xa5763b5e72a58c3fU, 0x7b6b70a747a4708fU, 0x24938f7966b670aaU, 0xc473708b57617069U,
  0x3d277b8369815b7cU, 0xb1c4709276a07090U, 0x758b2e9469975067U, 0xa99270615b48709bU,
  0x82649e99695b553eU, 0x8fce707a9f2a70bfU, 0x454f7484698c6b58U, 0x8b9770962d4770c8U,
  0x456f966b6293849bU, 0xad73729590b37081U, 0xaa8331686889be70U, 0x8a877075243a703dU,
  0x3f50ba7b73a29eaaU, 0xa85f7086277f71a7U, 0xb0ae33866d8d4a32U, 0xa8797070b9bb7189U,
  0x3b562e89707d5955U, 0x93c5707ea2a870a0U, 0xb3a8747266a8c29eU, 0xaa9d709e4e8a7053U,
  0x404f45845d604e68U, 0xbc9d70a53ba170b9U, 0x40a18d865f4d966bU, 0x8fa1707d8ca570beU,
  0x766a26766490a52bU, 0x949c70aa959870a7U, 0x5f9e826b668d6323U, 0x79677081616b7069U,
  0x5594435361707b7cU, 0x9089709e46a47064U, 0x2fb06675599d5351U, 0xc5a7705e5b627089U,
  0x8972a8605b2b9d71U, 0x71757063483d707fU, 0x3162846d5e72634fU, 0x92877052709e709fU,
  0x9d8ba46f608f942eU, 0x9944706fb15870aaU, 0x2f5d505a5f407f92U, 0x8795707e972e707aU,
  0x5e72577361a169b1U, 0x8b7470525b767068U, 0x8652897b61673640U, 0xb0517087b2b17067U,
  0x2747b376638a69a7U, 0x7d837066ac7a707bU, 0x413d47666248953bU, 0x894d706a1d647074U,
  0x8f3c9d616158b98dU, 0x816c7090644e7085U, 0x7f276d5d625a9669U, 0x6c8f705b6297706bU,
  0x7ca12d5f64a0a85eU, 0x986b708664597087U, 0x2db6906f62616873U, 0x992e70a2b33d7071U,
  0x558a688762483eaeU, 0x96c0709b55b770cdU, 0x53588a745fac73a0U, 0x6f487075a7bc7047U,
  0xb2b6946a62a68b6fU, 0x708c706d3a8e70b3U, 0x322f387f69518b55U, 0x9b3d70a88c3570b0U,
  0x3773a78966948461U, 0xda6a707fa15a70b8U, 0x4d376a7f64687849U, 0xa48a70579d7970c5U,
  0x43639e7562686c4cU, 0x9c5d707db05b7055U, 0x1d8cad785fa29075U, 0x9c55709b48a77063U,
  0x478d8b715b8e6d4aU, 0x9056706086517092U, 0x842e406f5b97588dU, 0x898e708a8f7f7094U,
  0x7287517d57529095U, 0xa660708d745b706fU, 0xba81437c5da1ad3aU, 0x979570614d8c7053U,
  0x44734d895a9ccb95U, 0xa15870793ca670b2U, 0x845d3d8c628d8975U, 0xb3517095466270c9U,
  0x5d688d8b64af8aa8U, 0xc2967087c05070d0U, 0x3a4c9e8d628fad7bU, 0xa457707481a070bfU,
  0xb7923aa06481af5bU, 0xba8770645e4170b0U, 0x3f7a4dba63acaeb7U, 0xda9d70b53a4470ffU,
  0x74848172765b5d63U, 0x69637066677b706dU, 0x61865675785f6c68U, 0x665f707c7f5a7085U,
  0x5a7387737a7e7a6fU, 0x5d7870746b6b7086U, 0x628276677a75677cU, 0x6678707a7a7f706dU,
  0x6872877a787c6c63U, 0x735b716a6d6b7075U, 0x625b7d6c76747467U, 0x5a71716a867e706dU,
  0x6679596d766d6c6fU, 0x5e85707c7d757063U, 0x607b676f76875f6aU, 0x698270768d687082U,
  0x6c597d7376617369U, 0x6969707260877067U, 0x7d84717b79637875U, 0x746070718d7d705eU,
  0x6f6f747278617c60U, 0x6c6a70707b537063U, 0x5f73577875586462U, 0x68827061816c7062U,
  0x68537e7874756a5dU, 0x648f706355557071U, 0x6984747074726a6dU, 0x5e8370696482706dU,
  0x786b615e75666f72U, 0x577f706a84827074U, 0x6f8e7e627883697dU, 0x6b5f707b795f7068U,
  0x7064766b766b605bU, 0x706970747f89705bU, 0x7583616f76756082U, 0x6361707f68787071U,
  0x69697078767f7a5bU, 0x6c74707c7f667086U, 0x6f6d8a6b7378845dU, 0x617970765b607059U,
  0x70587a6d71606476U, 0x67647060646a705fU, 0x7e7289767370605fU, 0x696c706766537072U,
  0x846d6a66746a6a6fU, 0x6478705b795a705dU, 0x625a6d6674687a7dU, 0x4e5d70627e737058U,
  0x517082687478737fU, 0x5366705f786b7070U, 0x7d8c7c6874726f4fU, 0x686f707981647069U,
  0x857f666c737a5a55U, 0x6b6f70686b7c7068U, 0x7b89636c75727d5fU, 0x625670685e56705aU,
  0x747b736a7369585fU, 0x606d707a6c697079U, 0x6258716d76716f83U, 0x676c70718c8a707dU,
  0x5e7e6d707a606a63U, 0x6f5970665b5a707cU, 0x8468756a7a59557fU, 0x5966706171537063U,
  0x797870677a706268U, 0x5670706b796f7066U, 0x5d7b586679675f85U, 0x6475706a6a8a7052U,
  0x69605b6b7876768aU, 0x5d7c707069817076U, 0x855b786d766d4f6bU, 0x647270695e6a705eU,
  0x6053606b73476074U, 0x507e70645762706cU, 0x8659596a735b5e79U, 0x4d78705d63757076U,
  0x6b5d8660725f6281U, 0x4a63705f8552705eU, 0x5389635f73597164U, 0x5963706073597060U,
  0x5f6a815574646c69U, 0x534a7060846b704dU, 0x5e92625576747175U, 0x564a70687a857051U,
  0x7f6b595b78606776U, 0x5b6070675e81705fU, 0x6164896679564f5bU, 0x664a706c7a7f7051U,
  0x837e6b6c7a4e4d83U, 0x5263705b5f877062U, 0x625a646378634d7fU, 0x50697060857d725bU,
  0x7b52666175596172U, 0x4f57705f5b5f7063U, 0x735b6d617264617fU, 0x5a6870637a577057U,
  0x8e6868697267615eU, 0x505f706181667061U, 0x70565e6073566385U, 0x4a7170608d5b705dU,
  0x59675f6273666a6fU, 0x4e5670688d5e7061U, 0x826b645a725d4f85U, 0x4850706b635f705bU,
  0x87865f59716d7157U, 0x526070635b817062U, 0x6757606272596f7eU, 0x5f59706d68747062U,
  0x7c7e606c73647068U, 0x536270706f5e7069U, 0x867d896b73707653U, 0x4e6b70725e587067U,
  0x83676f6c71815d63U, 0x637870715a78706fU, 0x676a5a6d725d678cU, 0x6f6c70667b537079U,
  0x8a74867576687267U, 0x5889706178637073U, 0x697264797c676f5eU, 0x4d6d706b71557082U,
  0x7350726b7c798385U, 0x4f6d70736f837066U, 0x707d746f7983626dU, 0x6778707e7d72707eU,
  0x857d5a6b786d7a6cU, 0x6b79706a527f7056U, 0x8556716d785d6b68U, 0x636370675b557069U,
  0x6f58686d765a6972U, 0x595b70607b5d7060U, 0x81526d6c78737674U, 0x4a787063666c7062U,
  0x6b694f697b847363U, 0x4c7970727e79705bU, 0x6c755d6f76645e7cU, 0x5b5a706a6d81706dU,
  0x536a78607562695dU, 0x5360706a5166705aU, 0x715a6f6a75586378U, 0x5a5670696a867069U,
  0x6b6664667472605fU, 0x5169706b5972705bU, 0x7978686a73707164U, 0x5564706a7464705fU,
  0x82746a6c7267727eU, 0x567c706c66767058U, 0x746f6663745a7c82U, 0x5968706f5f727072U,
  0x6b648768755d7062U, 0x5e56706c7989705bU, 0x5a866d5e745f6d72U, 0x5f5070686f68706aU,
  0x7167815f737b7d7eU, 0x5d67707263867052U, 0x728b7863745b5881U, 0x52637070705f7070U,
  0x66736467786d6b5eU, 0x555f70708772705eU, 0x647f7b6c796c7070U, 0x5e5d7073828c705dU,
  0x5b73626f756c5e89U, 0x695a7079825a706dU, 0x725b817075726a87U, 0x5e7870617273707fU,
  0x666962607866675fU, 0x487f705f76607062U, 0x8b6285607664787aU, 0x555870617266706bU,
  0x557b717176666082U, 0x68587072765f7075U, 0x756c5975725d7860U, 0x6284707a75677072U,
  0x70826971737d8274U, 0x61817069786f706aU, 0x6b748a727483735fU, 0x696270647e687082U,
  0x6c617e69755f6668U, 0x5d7f70755a5a7071U, 0x6c6a897372835b70U, 0x6f597071837d7073U,
  0x676f867272677a6aU, 0x5b62706376737059U, 0x7f576169746c7f5eU, 0x526b706c6d64706cU,
  0x81826b73747f6a6cU, 0x677e707b8479705fU, 0x6a6f6b7675708389U, 0x677c70755881707dU,
  0x5f635b7d75706863U, 0x608b706d577a706cU, 0x6a5d5d70756c7a85U, 0x6286706d6a57707aU,
  0x7c758a6874666383U, 0x646b706a81897058U, 0x6869795f75717278U, 0x5a52707281717067U,
  0x7686716f755b687cU, 0x6463706a5a8a7072U, 0x717b6b73757d637dU, 0x5a67707183617072U,
  0x7378617372707d5fU, 0x6768706d5b677075U, 0x646a647672758979U, 0x62717066667c7069U,
  0x72568e79756d7f63U, 0x6374707a6a85707aU, 0x6a6069767660625aU, 0x5a8f70698a6b7082U,
  0x785a597276836c78U, 0x6368707b6b6c7071U, 0x735e607875768e8bU, 0x6f6270867473707dU,
  0x6d567f7874678e5bU, 0x686770756b69707cU, 0x856a8b7370797562U, 0x5f6f70677a59705fU,
  0x5664857271648b5aU, 0x746970738d667074U, 0x5d72717e73818285U, 0x70737083715f707eU,
  0x735d5f7672707683U, 0x68827087698a7079U, 0x7e63676d7181717eU, 0x666a70737059707eU,
  0x786d726c73856d87U, 0x6871707a8d677076U, 0x705b697473708564U, 0x7468707a7c7f705aU,
  0x8a75726c737b6d85U, 0x7182706d5f6b7066U, 0x748c5767726f7d60U, 0x6a70707471847073U,
  0x6c6d697172815b7aU, 0x646f70718c647076U, 0x67855b727381675fU, 0x606f70757876706bU,
  0x667e6d7873797d87U, 0x6a73707979757062U, 0x597b737670716d7bU, 0x727570757284708dU,
  0x6d6d5572706b795aU, 0x628370698770706cU, 0x7561816c717d7d79U, 0x597a70795d73705fU,
  0x618c846172796b7dU, 0x5b4e707879897057U, 0x8468566973746981U, 0x6b7b706d8e607055U,
  0x59895a6b73726756U, 0x6c5f70795e89706fU, 0x6b7f74766c787887U, 0x748b707d69727084U,
  0x6d7b677e6f7f6c71U, 0x766370716b607064U, 0x676a608170856892U, 0x638c706f67627090U,
  0x837b5f7871827669U, 0x506b707261527078U, 0x6d81626f6d897d5fU, 0x4f7370705b637062U,
  0x8271576b6f6d6a82U, 0x5a72706b57767074U, 0x816b5f6c71718559U, 0x647a706f57867066U,
  0x6a6b8667726c7660U, 0x5773706a7581705bU, 0x8c6c7071716a5f86U, 0x5f6170746c727062U,
  0x5e675874737b7b8aU, 0x6074706b7069706cU, 0x5b676c6d72687260U, 0x635f70637e7d7073U,
  0x56507268716c587cU, 0x515f70617c7e705aU, 0x6f527d69725b686fU, 0x517370607383705eU,
  0x7e62536a73706659U, 0x4c6f7069796f7066U, 0x5062715f71716273U, 0x457a706861727064U,
  0x5a644f627176616dU, 0x5d74706b67687053U, 0x5e5f766a73587062U, 0x535870697a627068U,
  0x7089586b746b6855U, 0x496d706866827067U, 0x64746d70736c7178U, 0x5e7d7071747a707cU,
  0x7864586871787872U, 0x597a70705981705bU, 0x8c7f7a6a717c6370U, 0x6464707a6d5f706dU,
  0x636f8c73707a7981U, 0x6683706a846a707bU, 0x5f797b6972745b79U, 0x5058706873597062U,
  0x7d866063726a686aU, 0x5b5f705f695b706bU, 0x796157687469687aU, 0x556770668358705bU,
  0x5a6b7a73747d765eU, 0x647f70695f7c7076U, 0x6b677878727e6f7fU, 0x607a7074767f706aU,
  0x7f797578706a7a73U, 0x627070765a7b7071U, 0x5264787571737383U, 0x667f70625a597064U,
  0x7a708274746d687eU, 0x568670626b747063U, 0x7a688267755e8357U, 0x5a7370817f82706fU,
  0x5a83676a75677c6dU, 0x6775706d5f7a705dU, 0x7352636f7256586bU, 0x676d706886697069U,
  0x78725066715f515fU, 0x615d706a82717057U, 0x7356816870746b7fU, 0x536f70746076704fU,
  0x8a8d7b6774646f68U, 0x626870667d6f7063U, 0x7b73587a735b857bU, 0x6d6f707d5e597066U,
  0x6f628675756b6d71U, 0x6c74705f75577061U, 0x70827f7375617d6dU, 0x6f6670747285707eU,
  0x89537a727472756cU, 0x66627066616b7079U, 0x5f898472736c8571U, 0x6a8370787b5b7073U,
  0x79646d687379785fU, 0x768470847e7f706dU, 0x608b736f72707f81U, 0x756a706c7a647066U,
  0x816b68747371766aU, 0x666870617676706aU, 0x857e866a74796963U, 0x5a8170836b68705aU,
  0x69975e6b74677c68U, 0x795e707470667072U, 0x7e725d6c756a8171U, 0x76747079687e707fU,
  0x817a627973707f6dU, 0x74697076618b706aU, 0x7c505f72747e725fU, 0x647c705e7e677066U,
  0x79845a6a747a7a73U, 0x687670727c5f706fU, 0x7e747d6a72787462U, 0x715f706461587055U,
  0x608574727660748aU, 0x728670628c857086U, 0x7270647e74768360U, 0x7873706a5874707bU,
  0x8d5a5f7d75788b6dU, 0x697170695d7f7083U, 0x68747e7973758b72U, 0x7076707a64727070U,
  0x5762857473787c6dU, 0x768b70898c5a7079U, 0x86876c6971856281U, 0x6d64707b79627067U,
  0x8e837178736f815aU, 0x727c706b5883706dU, 0x78826d7674646c7dU, 0x72737076665e7059U,
  0x5d7b7c82788b717dU, 0x7a81707c6b6b706fU, 0x626b637374606375U, 0x6b76706c6c7f7083U,
  0x8d75816c716a697bU, 0x677b707b588b7053U, 0x85695d727071755bU, 0x67817079595b7056U,
  0x6a60697b71637285U, 0x697170797074706bU, 0x866b707e726c7b7aU, 0x7570708686647064U,
  0x7673667a736a7d69U, 0x787d70828578706cU, 0x5766697a716d7971U, 0x687a707585647071U,
  0x8189617873625f7cU, 0x6c66708262707060U, 0x73676d7572646d7dU, 0x628170718a6a707fU,
  0x5783716d78827382U, 0x648570708c6d706bU, 0x577d69697479817dU, 0x72817079705d7060U,
  0x6373877272626f67U, 0x766d70796d7d707bU, 0x7257676f72586a59U, 0x6f6d70797d557079U,
  0x7c757f6c72637563U, 0x637370716f8a7081U, 0x6f61836671587170U, 0x636d706c8c60706fU,
  0x66815d7670846c70U, 0x7b7b706c706a7062U, 0x7263716b71736a59U, 0x555e70678450707dU,
  0x7f6c7e7172768568U, 0x6b5e706f5e68706bU, 0x6c82577672667176U, 0x766a706a615d7082U,
  0x7b61627471667d5eU, 0x6a74707c6d7f7076U, 0x86715f6d725b727eU, 0x677b707e5a85705eU,
  0x8778846773736062U, 0x676a706a6a647051U, 0x5e5f786b737d5e81U, 0x707f706d85687055U,
  0x7f5e5d6f725f6862U, 0x6d627066607a7072U, 0x5763877572825d60U, 0x79827064607e706aU,
  0x8a4f686c707d5164U, 0x5e837074706b706bU, 0x7c73746c72625f6aU, 0x6184706172757063U,
  0x815f8666737b7b5dU, 0x605370647372704aU, 0x666a756474716476U, 0x686b707a8375705eU,
  0x728a5d6874596367U, 0x617b706161787052U, 0x66618d72757f7f59U, 0x795b707a705a7068U,
  0x5b75707975747a89U, 0x6b66706b5b82706cU, 0x83737b6f767c8363U, 0x616370695273707dU,
  0x677f617476665b6dU, 0x7369706173897086U, 0x53587064765f8375U, 0x615f706b82597067U,
  0x845581787578586fU, 0x6887705a5867705eU, 0x7e7c6b6d76816d70U, 0x5f8b70647e66705bU,
  0x865a5d68747d6d5dU, 0x5e84707384717066U, 0x6363856d75766a69U, 0x6056707a6082707bU,
  0x6c5a7170745f8b5eU, 0x6f8a707e815a705bU, 0x87676c6f76646f5bU, 0x5f5f707e52677075U,
  0x745d7c6d788a936aU, 0x6c86708556757074U, 0x5f5f8d7a76706c7fU, 0x8378707c5a607064U,
  0x87635e68745d607eU, 0x618670735684707fU, 0x6c7c55677251518bU, 0x6881705b64767067U,
  0x7c7a836074676070U, 0x5a60705287577060U, 0x6a5b797276757d85U, 0x717a706968827055U,
  0x6d68837c76597e58U, 0x7474706278857068U, 0x7b86697275676a74U, 0x717170627378706cU,
  0x5985826873857189U, 0x68727073857d7081U, 0x687d6b6b78726c6dU, 0x6b79706769767060U,
  0x58646269795f5d82U, 0x5a7e706681817056U, 0x6c7b7b6376686f72U, 0x5b6270596a5f7057U,
  0x74696b647661555fU, 0x6a5e705d69877059U, 0x6c67717076756b66U, 0x6053706270587061U,
  0x677d8a6b766f635bU, 0x648570677159706fU, 0x69758e6876666d63U, 0x6a7a70677278706fU,
  0x67617d7078675e63U, 0x666870686d87706aU, 0x5e8a8966756c7f6fU, 0x586b7079757f7074U,
  0x6964745e727b6864U, 0x6275706d5e687075U, 0x5f816b61727b7a63U, 0x646b706762627067U,
  0x6b75606872725b79U, 0x615a707471907062U, 0x855b93597382535bU, 0x566870686089705fU,
  0x877b8e6c814e6663U, 0x857b7061a2a47047U, 0x7a5f5d767d44467eU, 0x5b5e70604845708cU,
  0x7d685a6a7f4f3e8eU, 0x44827058698b7045U, 0x59649e5f8160526bU, 0x504670645f4c706dU,
  0x60569860833e6043U, 0x5a5a735a4e8f7070U, 0x4690935f825a516dU, 0x444f726b7a92705fU,
  0x494f7e5d7b556f89U, 0x564f7061766d7050U, 0x8d4a8364794a5b51U, 0x584a706a96597048U,
  0x6f715971765e4579U, 0x615270634655705dU, 0x696b89787a5e7f7dU, 0x6166706a46757069U,
  0xa1595f6f815f7644U, 0x4687706ba071706dU, 0x8f99635e837f796aU, 0x4e5870728c55704dU,
  0x4f5d9d637f69687aU, 0x6b3e7073728e705dU, 0x557848647c677887U, 0x62757061955e7055U,
  0x5ea083697d64684cU, 0x607570739255707cU, 0x6f92617083734a55U, 0x687c70675d597082U,
  0x7f3c7074824e4c63U, 0x5993706778747063U, 0x495e73747e715150U, 0x568c706a8e59706dU,
  0x92414e6c7d7d7f6aU, 0x528e706d5f8c7057U, 0x695e405e78625761U, 0x556a70698f92705bU,
  0x7c9881627859598eU, 0x577970624c72704eU, 0x8c95736979608340U, 0x576270673d97706fU,
  0x6f6f576b7a55715fU, 0x64617068796c7061U, 0x4d4d6b6879587e4aU, 0x537870629d607052U,
  0x61688f5b7a504868U, 0x404470579d5f705aU, 0x75638a517b685a57U, 0x5178706d9b96706bU,
  0x5d839b5f7960524cU, 0x624f70694f4e7051U, 0x736170647869588dU, 0x6344706c52587072U,
  0x4d90976b75745256U, 0x575e706785507071U, 0x40578a7679825f74U, 0x627470668b5b7082U,
  0x638674797d67745eU, 0x5d72706069587094U, 0x90667c597c785e56U, 0x385670696955705bU,
  0x3b977f577a6d7482U, 0x468370725e5a7060U, 0x4c73845775758d6bU, 0x6145707181857061U,
  0x8c676a616f4a6790U, 0x5a4e70646a7d7053U, 0x5869476d6b7a439cU, 0x5d81705d7e517075U,
  0x686c6c766d417459U, 0x577c706a7a737086U, 0x95587e7c72736898U, 0x5771705a6961708dU,
  0x5384907176795b50U, 0x535d705d937f705aU, 0x6043867974925e4cU, 0x638d707951797078U,
  0x618b587c7571a066U, 0x686a70765e847087U, 0x58669673797d8386U, 0x5e83707f66937079U,
  0x9b59586678848e64U, 0x5e5e70796b3d706bU, 0x848c8c6775767a4dU, 0x6b74706971967062U,
  0x8b664a6072666a89U, 0x554c7060496f705bU, 0x6f8a3c647253637cU, 0x634470677e997871U,
  0x5259556c7553708aU, 0x6a4d705d6c5d7175U, 0x955a596c727f7c8dU, 0x516670696481707dU,
  0x4d58717d75798782U, 0x5764706a688e7081U, 0x8b465d7276677e75U, 0x5e85707f447b7084U,
  0x986d578372536398U, 0x7b5f7063908e7083U, 0x48856678757e7356U, 0x5a6a705b737f706bU,
  0x83537d6d785d6c50U, 0x5a7d70613e7f708dU, 0x81a07c5d76798c50U, 0x564c707d9e86705bU,
  0x8c7b87697860843dU, 0x648270815f4f7079U, 0x6c6948737b5e834aU, 0x6374708590567057U,
  0x758a857b7a9e5d4cU, 0x726d707c49a07084U, 0x50768c76757c744fU, 0x76a5707e47937075U,
  0x58453f75797d9273U, 0x5d6870628d8d708bU, 0x835e8d68798a528aU, 0x577370726289706aU,
  0x67508b7074644f53U, 0x6d84707d68597061U, 0x998b957a75736a4cU, 0x784e70854f997071U,
  0x6b5e6473757f7f97U, 0x6d5870826476707aU, 0x6394747674686698U, 0x785f706b4645706bU,
  0x923e4c7270606256U, 0x696d705b7e3f7050U, 0x4e676753726b537eU, 0x3f6870647e897045U,
  0x876f764c78505b87U, 0x4e7370618793703eU, 0x468e625d765f623dU, 0x6b497070618a704cU,
  0x9293725e746a538aU, 0x5d33706a8e6c7041U, 0x5758926c7c6d6863U, 0x7843707462867067U,
  0x635e4e69767372a1U, 0x569270685d477047U, 0xa0607063726b6274U, 0x5143706f7087707cU,
  0x7866577274646479U, 0x694d7064447c7061U, 0x5a825f767b53575fU, 0x5d9970634090705eU,
  0x81517d687d597566U, 0x477170687e857074U, 0x838a68597c62785bU, 0x534870759b61703dU,
  0x4f856d677c737681U, 0x6b6b707b7b737053U, 0x8a644775815d7194U, 0x708570727a507061U,
  0x5048557b8268607aU, 0x528670674a8a7089U, 0x7b405d8483687256U, 0x4e89707689417092U,
  0x957f616c7c74688cU, 0x4c7070695a70707eU, 0x945f66617c697d7bU, 0x5078706f51407070U,
  0x8e746f677f6b7862U, 0x5d7e70628d6c7079U, 0x6f5b606682816a79U, 0x4a75706d6848707aU,
  0x5f93825f7f8c743dU, 0x4449707453507056U, 0xa08e5e6a7c67607fU, 0x5d7b70798f5e705dU,
  0x4f62787c7c767a76U, 0x667f70768c53706dU, 0x68534c7f7c7a7263U, 0x5f6a70754e837073U,
  0x635048727b636c81U, 0x5e8c7071858b7075U, 0x7c4f7c687a757c45U, 0x5d58707b4e7e7072U,
  0x7d966f6475785e52U, 0x61667074895a705fU, 0x5374577674698647U, 0x5f8d70707574706aU,
  0x7078857c6d67867fU, 0x637470737d8b7087U, 0x40725d7470716f92U, 0x5d7170713c8f7067U,
  0x72838a737894795fU, 0x5593707694837060U, 0x41555376767e8d94U, 0x68837069786a707aU,
  0x596643707a8e9566U, 0x617170797d697070U, 0x4c95836d7d8d7a7fU, 0x6261707247607060U,
  0x405898737b68867eU, 0x645b70707c567078U, 0x7352666879627d7eU, 0x5790707478647066U,
  0x9b8595697276724dU, 0x666f706c95707078U, 0x625f447175677d4dU, 0x608d706744937062U,
  0x76646c6b766a8c58U, 0x516f7074675e7068U, 0x5f5d5d687363865aU, 0x5f6b706f5659707aU,
  0x8c61756a736f8d49U, 0x5b7a70686683707fU, 0x975a4f6f766b798dU, 0x5990707455997072U,
  0x496750737b798f72U, 0x5a8370764c8f7078U, 0x9e8b58727a8d8b96U, 0x6a86707b49687056U,
  0x447652817b7d7ca1U, 0x6f96707567647064U, 0x863f927882696095U, 0x5b8e706f61817067U,
  0x9b72706c7a6b7c68U, 0x575d707b786d7062U, 0x668d8c74787d7944U, 0x697570715564706dU,
  0x506b5f6f7c7c7d52U, 0x5a7370723d767063U, 0x638699757e837b58U, 0x5e90707468827069U,
  0x927b6b6d7f8c7268U, 0x6383707c5687705eU, 0x62598e677e817546U, 0x5d517076534c7076U,
  0x9d7f4d647d837251U, 0x607a707b4a9b7070U, 0x47447a6b766c6795U, 0x615870728474705aU,
  0x716a6b7b73635e75U, 0x697b706a4c6a7071U, 0x6689717b725b7878U, 0x647d70665f4d706fU,
  0x4e8f757b756f6343U, 0x5f8f706c9b73706bU, 0x514f8f7376609071U, 0x558b707c85997068U,
  0x45994e7f7a6b646cU, 0x708370735e71707bU, 0x9663828578695556U, 0x789d70709b847084U,
  0x8764937e796c7c9cU, 0x718370736d8b7076U, 0x4379766f74765a67U, 0x537c706b4f8c7073U,
  0x7e5d616779796b71U, 0x5959706f9f557053U, 0x769b466b73766a62U, 0x757f707b9575705fU,
  0xa0724e747362825aU, 0x767f70715a997076U, 0x6166628272616b5eU, 0x755f7074475a707aU,
  0x9755837b76938b8fU, 0x5f5d70747e58708bU, 0x4f49607b7a62748fU, 0x6f627082606c705eU,
  0x5d7569707e7e6293U, 0x6062707b958c7058U, 0x706b5f747b865d82U, 0x756470826a607062U,
  0x758f7579798c7097U, 0x766f707994457075U, 0x7c6c727179957190U, 0x5f6c706d7f4f707aU,
  0x947875707b5e9259U, 0x6a5d706b7f47707cU, 0x70a08c737c566666U, 0x715670649f86707aU,
  0x5985667b7c879772U, 0x646c708462827076U, 0x83725d767a7c9e46U, 0x695d708a7f5d7069U,
  0x575d707079647349U, 0x758e707997827062U, 0x449e9c897a6d4f48U, 0x7c9770624e4c708dU,
  0x764968717b6d6d59U, 0x666a707c6286706dU, 0x9d9c8d7a7696708dU, 0x8b6f707b6b507083U,
  0x44605f6f7267894eU, 0x698b70579c79708aU, 0x676957747573599bU, 0x6893706a8d4d708aU,
  0x4998977175635f87U, 0x6f82707a95907071U, 0x788f7f7479737e81U, 0x7155707d897b708fU,
  0x6976567375816f75U, 0x7f6d708699937085U, 0x819d44717566896bU, 0x6a7b707e439b7081U,
  0x97684f70766d9695U, 0x69827074618c7073U, 0x797a637a76867c60U, 0x5f58707c846d7075U,
  0x6899767678878470U, 0x675d708767817090U, 0x5062758279878f56U, 0x875e708c78497076U,
  0x5f517c85799c9863U, 0x7ca270877a9d7069U, 0x519d86897b82937fU, 0x736670954a7a708fU,
  0x99859d927c7a954eU, 0x7e7670864e817087U, 0x5874798479726d67U, 0x6f78707a697b7081U,
  0xa289457f74796c4cU, 0x6c7e70733f89707eU, 0x9e9f878371869f7eU, 0x64957086936d7087U,
  0x7c534c7e766f9f55U, 0x69867085526c706aU, 0x7699467b7a7f6d66U, 0x6898707f8ca7707cU,
  0x636359847b928a5aU, 0x6b98707e55a27092U, 0x6a73488576716975U, 0x7e6d707d7194708cU,
  0x9376527c7364688fU, 0x6f71706a7d407069U, 0x6d968c6b72845247U, 0x5993706a9f73705bU,
  0x636a3f7371607467U, 0x6b7e708698787085U, 0x4c847a7373839892U, 0x6d83707a7b4c7090U,
  0x8e78606c786d7866U, 0x5a5f70816b52706cU, 0x8286746f7c828983U, 0x666a706c48837066U,
  0xa282577e7b5e6d85U, 0x9061708689837079U, 0x5b465a83797f825fU, 0x8175706851987066U,
  0x75795b8576588558U, 0x6f8e70767285707cU, 0x82876f897b6c687eU, 0x6069706b8e557087U,
  0x944f4f827d927d4fU, 0x826c709460977089U, 0x4c4f947b7694707bU, 0x7b6870767c4c708aU,
  0x9861577b7c839270U, 0x745d70765a627079U, 0x93615879787b897dU, 0x7e68708781587070U,
  0xa07e466679748c79U, 0x60947071406f7067U, 0x686c7970756d8f8eU, 0x7c79708478557064U,
  0x868f9d7c76767647U, 0x8f8670835b4e7084U, 0xa14e4a7d73737252U, 0x726170796a727073U,
  0x86907b8678837f83U, 0x767f707052717092U, 0x6b8f5568787f7966U, 0x607d70748b62706dU,
  0x787c97747c83728fU, 0x6d6c708586927087U, 0x5d53717076729f7eU, 0x7857707f5b997066U,
  0x79835b72717d9f63U, 0x7459707a567e7058U, 0x6f899b83716a904cU, 0x6f8b7070694a7076U,
  0x5e948f7c75905a89U, 0x6372706b456d706cU, 0x7d7f767c75635a72U, 0x7281707a9d59707fU,
  0x63934579767c7484U, 0x7c63706f9c927067U, 0x61878b8276847676U, 0x6f73706957457066U,
  0x9568457b797d7046U, 0x6c74708a627f7085U, 0x4a46977a756b948fU, 0x6393706a6494705bU,
  0x51609c7b76936d40U, 0x7466705f51847060U, 0x738489737471757aU, 0x718770729b73704eU,
  0x46648a7674527681U, 0x6f837079745e7056U, 0x7672827a75769883U, 0x709470706c4e706fU,
  0x8c724c7679a27b94U, 0x667d7085435a7090U, 0x9f71a4746d859497U, 0x7b69708c85877053U,
  0x668245866c6f796dU, 0x815d707f625d7070U, 0x49846f76746966a4U, 0x587970636b6d705eU,
  0x9c82987d7670677fU, 0x766370735960707dU, 0x6495967878896a75U, 0x786b706f479c707eU,
  0x9653676c766f668bU, 0x6d50706c5d7e7069U, 0x81509467757a5647U, 0x677c705b50987062U,
  0x75a59f5f757a5f55U, 0x59796f647e587049U, 0x3f6c816b75698297U, 0x7561705b93707056U,
  0x5f897274737e665fU, 0x7289706457717092U, 0x7e789c7572597371U, 0x73667076927f7064U,
  0x858d746a6d69665dU, 0x6f8e7087625d705dU, 0x43588e82746c5948U, 0x765270695785707aU,
  0x6d7e57757c638f64U, 0x6658706c52907076U, 0x947a986a7b5b769dU, 0x6a8a70704c8a704eU,
  0x96848f717a72646fU, 0x638e707c6950705dU, 0x876447747a6462a7U, 0x7262707668827058U,
  0x69796c717a8350a0U, 0x6b5f70615a89706dU, 0x94595b667e864f4dU, 0x6984706c7e467076U,
  0x74864e797e444e83U, 0x827c70649d6a7092U, 0x788f456a7e7c529bU, 0x4d9270598a72706bU,
  0x98717b5f7868725fU, 0x557c707b64497044U, 0x697a7e7179645069U, 0x765370705360704aU,
  0x849d436c7557697bU, 0x6a57705e5f50706dU, 0x974a4c6c767d8390U, 0x598570577c927071U,
  0x62737d76757c587fU, 0x6f8f70755f6a7089U, 0x7a74537d7a7b799bU, 0x607c70626364705eU,
  0x87688d6f7b5d6a67U, 0x616b70868787704cU, 0x6b558e6d78878c92U, 0x665e70827178706aU,
  0x43764d6779725b71U, 0x6d92706da59e7085U, 0x7f4f8f6c7867667aU, 0x699070795d7c7074U,
  0x5a5e445f7a6f605dU, 0x627270628b567069U, 0x4d8c9d697b4663a0U, 0x737b7067666d7063U,
  0x7967786c7c826085U, 0x608670614c61704cU, 0x824a6f6b7a63818dU, 0x6d6f7072929d7086U,
  0x784c85647551758dU, 0x5f56706a5093707eU, 0x9e895e617c78704fU, 0x5d8670565d7d707bU,
  0x664e856b7e4a7a96U, 0x5b5d707a55847045U, 0x709597677c7a647aU, 0x5350706aa064707aU,
  0x628c49677d834f82U, 0x5f8d70639e82706bU, 0x5d4a9b707e855843U, 0x705570746048705aU,
  0x4d947b757e5e767aU, 0x62597062768b7072U, 0x817048687c67626fU, 0x5584706899797075U,
  0x9d5b715e81677660U, 0x4d79705843647074U, 0x7e6c705e7c814f70U, 0x5a56707275477064U,
  0x8a7b63767a725e44U, 0x757270747d517086U, 0x55538a757c8e6962U, 0x6884706c4e76708eU,
  0x697485747e859384U, 0x569270727287708eU, 0x75a1a65f7e757b4aU, 0x465d707e8c61704cU,
  0x5e746d706770516aU, 0x715a706a6090706bU, 0x687b95716d645f62U, 0x7679706b6687708bU,
  0x574f666f71587e85U, 0x7d5a706d84697067U, 0x8f52846c7162837eU, 0x7b7370706658705bU,
  0x576385736c666987U, 0x757f707d8f7d7069U, 0x507386756a73735fU, 0x82557075555a7064U,
  0x72668c746b697c8dU, 0x875a707858837069U, 0x6d7557736d857e68U, 0x8d6170786f627069U,
  0x8a69526d7064745eU, 0x7f7b707b7171707eU, 0x738361706f6d6d58U, 0x847970786d8a706bU,
  0x7c5553676c675f83U, 0x7d56706981677064U, 0x6f856b6c6b6a667dU, 0x837970727d6c7073U,
  0x4c86866f6974768cU, 0x797d706f875d7074U, 0x505b82696a756a7fU, 0x787470786f7d707cU,
  0x866b6d6c68637355U, 0x876d70728d717063U, 0x79745d78666a6f5dU, 0x84837076528c7083U,
  0x874a4c7468625e73U, 0x857070724e4e7067U, 0x6d796a716c4f6384U, 0x795a706f7e497070U,
  0x6d6975636f5a6a5bU, 0x706b707385757068U, 0x6864786a706f625bU, 0x815b707d8a67705aU,
  0x836071636b5b636fU, 0x8756707e7a837073U, 0x8d71565566597451U, 0x855d707387827060U,
  0x6c89896366585f6fU, 0x8c60707451797069U, 0x645b636a6764725dU, 0x8159706d738e706cU,
  0x4a6c8e5f68517185U, 0x7255706185677058U, 0x8186606868645255U, 0x7e5e706d5267706fU,
  0x6b627e6c6a6b645aU, 0x7c707063484e706aU, 0x7f6b796368796f8cU, 0x696c7066608a7069U,
  0x8b626f6769725283U, 0x765d70768560706cU, 0x5b558570696a8585U, 0x816470684d8f707bU,
  0x648f4d666a5f7374U, 0x787170758c507073U, 0x8a7e726d6a5a5b74U, 0x846a706a8b847067U,
  0x8d727363686f6879U, 0x71577069877c706aU, 0x87668c676a5f787cU, 0x724f706b57587050U,
  0x8c6d4d6f6b707a53U, 0x794f70707f4f7078U, 0x606952726f646a69U, 0x76687071838c7082U,
  0x697c846f6c5b7e84U, 0x7c5d706a72847075U, 0x64877a6b696d5a83U, 0x6f70706d7d6c705bU,
  0x8e5566696a636967U, 0x6b69706c786d7081U, 0x6d7982686c717d75U, 0x6f8270715383706bU,
  0x519385626f5b5e68U, 0x7b6c706a84847074U, 0x837079636c575e8aU, 0x7c5970788f81706cU,
  0x5d7489646f716478U, 0x7a73706f6257705eU, 0x524c90686d676d8aU, 0x7371707257527073U,
  0x688251696b665656U, 0x7f7b70738660706fU, 0x846b61636b6c7455U, 0x6d5670648985707fU,
  0x6c665a666d644e61U, 0x694f70698b877068U, 0x76757b626f5f6c6cU, 0x6b67706c5a61705fU,
  0x4d7f8d5f6d6d6773U, 0x754470785f597056U, 0x685e7672717b7250U, 0x8c7a7073938c706bU,
  0x5a94697f6f737a81U, 0x8e6670717a59707eU, 0x947e73756f6f6f5bU, 0x7a78706c7e61707aU,
  0x5d6f51686d756758U, 0x6c787073798f707eU, 0x7686636d6d617b58U, 0x7d7e70707d727083U,
  0x9478696769737e86U, 0x8364707978907068U, 0x586d5875695e5f68U, 0x8d51706d638e7079U,
  0x7570527b695f7064U, 0x7b6670786881706dU, 0x735d837969766c5aU, 0x7a6a70766b66707fU,
  0x596c636c695b587bU, 0x747a707361737083U, 0x795e85676b646966U, 0x7661706d6a767079U,
  0x8e5d536a6d757c55U, 0x7e58707162517064U, 0x53746b696a695e6cU, 0x7c647067606d7075U,
  0x70867b6d6a536157U, 0x7a7a706a66757079U, 0x7f7a69736f647885U, 0x747670677e89707cU,
  0x677c717c7162755bU, 0x816f7070748c706cU, 0x4d81837970626489U, 0x786b7075728c7083U,
  0x8369536c6d748e86U, 0x7162707379607063U, 0x825f766b6c668152U, 0x7a7b707568747072U,
  0x68848c7a6b597375U, 0x926c706b89537087U, 0x5e6784786a6c6c57U, 0x72757068536b7090U,
  0x827252786c6f677aU, 0x688f7069876c7063U, 0x747e83706c6a6c8eU, 0x747c70688261708cU,
  0x7687676f6c8b705eU, 0x6b7c707f5156705bU, 0x5250736f6a7e6c8bU, 0x7e7a706468907076U,
  0x8378587269617386U, 0x7f6f70786d64707eU, 0x835193726b668e5bU, 0x6c7570768a5f7083U,
  0x72716f716d66944fU, 0x726370707b5f7068U, 0x68826f716d757b7dU, 0x745b707a7a717089U,
  0x967d516d6c628673U, 0x7c50707a6b79705fU, 0x7e525d6f6a625073U, 0x81847067598d7060U,
  0x5a5d5570716c6385U, 0x7185706a5a867087U, 0x627b6c766f6d606fU, 0x7d6d707466867095U,
  0x744778716a61786cU, 0x6d6d7070796a705dU, 0x69737d68695d6f58U, 0x6861706d8a57707bU,
  0x69504c746b635981U, 0x7a737075836f707bU, 0x82718a786c70784eU, 0x846d706b678a7067U,
  0x576a85736c83705eU, 0x7d89706162717066U, 0x835989706d64647dU, 0x707970636a497079U,
  0x6d825e71706f6050U, 0x6b7e707566847084U, 0x528d8b6b717a8982U, 0x727b7071688d708cU,
  0x69565d6d6f8b6b7dU, 0x7d61706974587076U, 0x7f788f6a6b5d707aU, 0x7b81706682667086U,
  0x7371796b6d738761U, 0x718470747b75707fU, 0x51557d6b6a698453U, 0x7263706b57947068U,
  0x6b8a967066758555U, 0x7b74706a59607075U, 0x637b857c68696c5eU, 0x7385705d627b708aU,
  0x5969697268556d84U, 0x5e79706a74587090U, 0x72718d686979856aU, 0x578270695d68707dU,
  0x908578606c7b8379U, 0x6b6a706d5d64706cU, 0x617852646c796f74U, 0x7d51706c876b7066U,
  0x6d5f66706c7b8770U, 0x7f7d706b87607060U, 0x555f797368756d8bU, 0x7d8b707f835a707dU,
  0x875b5873676d6169U, 0x756b7069677c7066U, 0x847f9571667f867dU, 0x6b5e7069605d7086U,
  0x817c626b68717069U, 0x76757070825e707bU, 0x7e556762687b6362U, 0x6163706872687082U,
  0x508467666a726663U, 0x757970706f6c7071U, 0x8f738d626c5a5a66U, 0x725270706268706dU,
  0x5172845e6a705b5fU, 0x727370636c647055U, 0x7471646a68767576U, 0x7d767060627f707dU,
  0x5b645d6f69637b73U, 0x7b6f7072907f707eU, 0x76715b6d6a5d795fU, 0x7275706b67717063U,
  0x618474706a578585U, 0x8167706c7f617062U, 0x8b6a8472696d685bU, 0x856b70605b4e7069U,
  0x7e7659796b607e64U, 0x6a86706163697073U, 0x8b7075746d7a6c8bU, 0x6778707556497083U,
  0x75747d6f6b647887U, 0x6a5b706a68727068U, 0x5b7d5b716b6f7e86U, 0x8b7c70828e587069U,
  0x7c63726c6a787a67U, 0x7a74706f8483705dU, 0x8359596a6b6c767cU, 0x68797072516b7056U,
  0x559284706b736a6fU, 0x7186706787927072U, 0x6b5b7f6f6a8a615bU, 0x7d7c7072587a7072U,
  0x6a575672677a6a62U, 0x7e5d7070585b7061U, 0x89796d6f67797a5eU, 0x79897066745e7069U,
  0x7c788d71687b678aU, 0x6962705e5b7f7073U, 0x7d636c666c84736fU, 0x5d6470787051707eU,
  0x7e7470666b617562U, 0x7273707161867061U, 0x557f716f6f6b5d69U, 0x7067706c74717068U,
  0x5567846d716f6c7fU, 0x6d5b706a616d7078U, 0x8a5d73676c66558eU, 0x6b697070878f705aU,
  0x7681616d69566157U, 0x7b7a70614e727064U, 0x527984666a5e6453U, 0x686b70699066706aU,
  0x76605a696a526878U, 0x6f59706779877056U, 0x5b708d6f6c76516aU, 0x6c61705f6c81705fU,
  0x487a75686f686353U, 0x697a7078866c707cU, 0x4c5d666d6c557a7aU, 0x7e76706d6f78706aU,
  0x74557e706b5a5a72U, 0x7b7170798c6c7071U, 0x90708b7b6c53837aU, 0x825b707382567078U,
  0x557349706d5d7567U, 0x707c70707b697068U, 0x6a718d636f6a7a84U, 0x684d706482867071U,
  0x5768666b716d6889U, 0x7d4f70628e527068U, 0x6851756b706b6a86U, 0x785a706974927063U,
  0x4c635d766d5e638cU, 0x786d707d6992707aU, 0x7f5a796b6d635572U, 0x678370714f6c705bU,
  0x8e7d56686d6a6651U, 0x724e706674647073U, 0x7b515e676f505e81U, 0x6c5770707d727066U,
  0x76848c6770566d71U, 0x707270718e637064U, 0x666b526c71525b89U, 0x696870665186705fU,
  0x757e79757060825bU, 0x6f5770624d817063U, 0x587174706c5e6c94U, 0x718c70634c6d7083U,
  0x826271706c7f877dU, 0x795b7075628f7072U, 0x525a7a746d5a708dU, 0x8560707a52587081U,
  0x6869876d6f677173U, 0x7b8f706b59517086U, 0x7661896c6f6c7c8eU, 0x7c7470795e7b7081U,
  0x9257626d6f787572U, 0x7c5670748e52705dU, 0x756c90676b61665aU, 0x7259706b7d8b7081U,
  0x4f64865f6a5f5558U, 0x7374707089867062U, 0x5a607d6368604d8cU, 0x7f717067577f7074U,
  0x717562676848526aU, 0x7d5970685b7d7068U, 0x70705a676860647aU, 0x7c6b70626f5d7076U,
  0x9070646b6c706679U, 0x7c7a706f537c705aU, 0x59574f736f695a81U, 0x7956706f7966706cU,
  0x6962856b6c6c6756U, 0x7d6070747d667073U, 0x8278626b694a575eU, 0x8e5b7068676b707eU,
  0x4d5f636268554c84U, 0x8a7170667c597071U, 0x60557e6069625e76U, 0x81417067567b7052U,
  0x8b89785d674a6181U, 0x794470668a687061U, 0x705b66576758686bU, 0x843e706f565e705fU,
  0x708b51636867705dU, 0x904a706d5183705bU, 0x5792866869725262U, 0x8a46706c7f8b705eU,
  0x646776706a5e5f63U, 0x8b5d706d5a707074U, 0x4a575372694d5685U, 0x866a706b4d87707fU,
  0x735e7369686a6b71U, 0x8560706d60577063U, 0x837a5f6b68606c8bU, 0x937570705f6c7071U,
  0x745f7e6c6a6a606bU, 0x895e707179747071U, 0x687968706a5f6a73U, 0x856870715d52707dU,
  0x7d8787696a6c7852U, 0x7e7270726475706bU, 0x78794a6a6b6b6383U, 0x8c7370755256706dU,
  0x597b52716f69746aU, 0x8c5f70744e597073U, 0x8a796c6d6f757868U, 0x946d70786d787079U,
  0x647d85726f746758U, 0x947070765f7f7072U, 0x5a6f5a716f677159U, 0x8e64707581707078U,
  0x566774726c6c715eU, 0x8f63707379617079U, 0x5e675e7e6a695664U, 0x9782706d735e7078U,
  0x5a66687d69707070U, 0x8e75706d735a7086U, 0x558681816a527566U, 0x8c8e706a555d708bU,
  0x507f8c836a576b79U, 0x8583706c787d707cU, 0x61646074697e6f78U, 0x838570744a86707cU,
  0x797b6d716973697eU, 0x8d61707a68597066U, 0x57637e7168796353U, 0x906c706f57617076U,
  0x57768373667a7c74U, 0x8b6a7070795d706dU, 0x8b707470675a845dU, 0x856470675e5a706fU,
  0x678e736366746b78U, 0x7a5a70698b557063U, 0x6b6c876869617882U, 0x7f5a706c5b857066U,
  0x8d7161786c6f8781U, 0x8c6d707c716c7078U, 0x5763897e6c826f6aU, 0x8c66707e50647090U,
  0x578a6f756b68635fU, 0x8c7f707a69707064U, 0x5361926d6d7f8390U, 0x8160706b50617067U,
  0x6f8c5a746f787d67U, 0x8b877076935e7079U, 0x8669837471707b83U, 0x928a706d6667708fU,
  0x7376856f6f67765dU, 0x815a706f87677061U, 0x6c747e706960767fU, 0x7e53707268827066U,
  0x4a6a5e6c6959635eU, 0x7c577072767b707dU, 0x6c6b687367787561U, 0x8284707386707062U,
  0x55846d7967758464U, 0x8a8970765575708cU, 0x82566773696f7883U, 0x8a7d7079816c7085U,
  0x497f517668767561U, 0x976d7175825e706aU, 0x78878678695e737fU, 0x8961706a7673706cU,
  0x864f5f756c677e72U, 0x8572706d626d7068U, 0x5f617c756d606069U, 0x7c8470687f69706cU,
  0x85756a716d6d6d6bU, 0x7d85706d4576706fU, 0x506087756d6a6961U, 0x87867078605f7072U,
  0x877e837968766f83U, 0x8f6c70785f8b7089U, 0x7586517266897563U, 0x846f707486647068U,
  0x797f8270698d847dU, 0x8a5670766169707aU, 0x606b67766b71746fU, 0x8e6a7079667c7085U,
  0x757a526f6c817d73U, 0x7f5970738282706fU, 0x8f62626c696d758cU, 0x7f6870746c6d7066U,
  0x625e5a6d686b7179U, 0x7d68707481927083U, 0x7c5b60736876758dU, 0x937370745e687079U,
  0x5a73617a6a7e7259U, 0x8a6970726c797069U, 0x8a75947a6b78838dU, 0x84637072506b707fU,
  0x578c847b6b62897dU, 0x876f70787f5f7085U, 0x6b8c7c79686d697dU, 0x8d6f707b6987706cU,
  0x7e84747568787c74U, 0x87637072625a707dU, 0x816d76796b7d665aU, 0x8e71707b51727083U,
  0x5092767d69828481U, 0x8b877076528f708dU, 0x5a8a64796c6f6b84U, 0x8768707a6481708aU,
  0x58877d786d826b82U, 0x896c707a5579708dU, 0x86788e756d7a6660U, 0x8572706c73567071U,
  0x617f66756c7f7883U, 0x7c78706a6867706dU, 0x53568b6f6a61857bU, 0x705a70798a747079U,
  0x829362766c85737fU, 0x855f707884817070U, 0x645d8d7d6f796960U, 0x8b7270826958708fU,
  0x4d8b567670828972U, 0x8b787074645e708fU, 0x69787c726c5d8468U, 0x857970716d5d706dU,
  0x837f6d736f87837fU, 0x7e8b707b79607064U, 0x736061726f929358U, 0x8379707086837075U,
  0x8f7a61726d7f7558U, 0x895a706f8e7b7068U, 0x606987726f68875eU, 0x8787707558837075U,
  0x526362736c79765fU, 0x7868706f7b677075U, 0x7c747b6a6a555f83U, 0x757d7064684d706bU,
  0x74757b6b677c6b6dU, 0x7d5170757a86705dU, 0x6a627b7067867d58U, 0x8c76707b795f707eU,
  0x8182696f67665574U, 0x837370748760707bU, 0x6f788f7962506359U, 0x7d69707273497062U,
  0x7272537666607d67U, 0x7e81706b645a708fU, 0x688a70706a768452U, 0x7983707168847071U,
  0x6b715b7f636f6a75U, 0x74b2707f737a70a7U, 0x99586279703f3e78U, 0x7fa0707b8189706aU,
  0x5a6a4f746c537e7dU, 0x869c705f635970a1U, 0x7b74797b69858a8cU, 0x76a570498290708dU,
  0x7e7e557c667d874dU, 0x719c6a764d687073U, 0x94506a6964727b57U, 0xa4a26b63714f707dU,
  0x7e737281687a688eU, 0x8973708d6d527089U, 0x6a616a8768789374U, 0x986b7069894c7094U,
  0x7f727c796c625d6bU, 0x9978705a865f7081U, 0x6d746b6968957872U, 0x8a817067798e705eU,
  0x8d496f7968717c51U, 0x795f7055907e7086U, 0x695046706968966aU, 0x7063707a7250707fU,
  0x847f688369747b7aU, 0x7e6b706d7a61709eU, 0x536a7e8769796a4dU, 0x848470a17b667084U,
  0x58718282687c6a63U, 0x878970818741707cU, 0x785f6b71668c9d44U, 0x7070706959597073U,
  0x7b538666667c687dU, 0x6072706b725e7072U, 0x935b896a678a9058U, 0x7e71707f74747083U,
  0x6a7d566c64928e64U, 0x7c8b70798370708fU, 0x7e876f7468716960U, 0x9d6f70616d5d70adU,
  0x5164488c69848166U, 0x8a8370978b827087U, 0x6260707c6893926fU, 0x839d70626456708aU,
  0x8c515a75677e9976U, 0x768e707a7349709eU, 0x9785598769988578U, 0xa17e708e4c5e7085U,
  0x8b6b6b73686f7d63U, 0x9653708d818d707fU, 0x6d64897b68726f7dU, 0x717b7050616f7096U,
  0x575387706a8ea463U, 0x858370935b8f7090U, 0x686084766461856bU, 0x8a84705f4792707bU,
  0x7f824f7866936790U, 0x7d7670688174707aU, 0x7c708c7f68829e61U, 0x715a707871787071U,
  0x766b7466687b8641U, 0x6d5270638b55708cU, 0x67574e766c86758cU, 0x9b8c707d79767092U,
  0x8f83466d6da7a27dU, 0x876c709d4c6a7058U, 0x785f78756a8e8476U, 0x855e70a97c717075U,
  0x8a8255606a966c7dU, 0x825d70965e7e705dU, 0x9e62647b6c869e4eU, 0x898570945b5870a0U,
  0x5671608a6a5e9c94U, 0xa77e70897e63706bU, 0x755e646c67897559U, 0x819b707b8b617089U,
  0x6f604e8f6a706f57U, 0x787c70835d587082U, 0x847b9473708a7068U, 0x717d7084538b70a0U,
  0x9b799381706f7a81U, 0x855b70a94a507087U, 0x4d6d6d7f6d717c66U, 0xa571707c59597079U,
  0x8e9772946c86987aU, 0x9b7a706b906d7097U, 0x4d86867469797f7fU, 0x627270745292707aU,
  0x8b748b7169828949U, 0x7b9670906a8b706dU, 0x4c698f6b69a89b84U, 0x7a5d7081726f6b93U,
  0x516f4d83676f736dU, 0x8189708c526a6f85U, 0x4d709e8e6c9c5968U, 0x9c9b70736179707cU,
  0x878c8573688d627eU, 0x877c706f51697084U, 0x7c4f71716c869b66U, 0x728b704f706970adU,
  0x71598f6870a58a7cU, 0x5983709f6d757064U, 0x755b6a7a6b7ea58cU, 0x877570a14757709cU,
  0x7684797d6a697b4eU, 0x946a709c615070a4U, 0x857482756c9d7f7dU, 0x7c7470686c817071U,
  0x67568c5b6a7e7486U, 0x598f7086697c7081U, 0x8b6851766896a24dU, 0x994c708767637094U,
  0x52648e7967925f69U, 0x78907085624f705fU, 0x6d926b7168667575U, 0x5f7a707c5386707bU,
  0x836d6b6767898c95U, 0x7a73708c8f5b7067U, 0x5f8592786659894dU, 0x8f94708e576f706bU,
  0x7a644e736a5f6d7fU, 0x8196706f4a727094U, 0x79667f6f6994747bU, 0x6c7970725a5f705bU,
  0x727f6d74647b9597U, 0x8198708c948b707aU, 0x8279677b6a6c7a4cU, 0x797070535e6a7082U,
  0x846d68686faea295U, 0x70637092496d7099U, 0x694f857a6c628e86U, 0x8c8c70827e8a706aU,
  0x57874f7c69508459U, 0x987d708f767f7079U, 0x625069716a7c9071U, 0x8364707d5968709bU,
  0x89737d876b7b7d90U, 0x8b5a708a9966706bU, 0x5d95926f6763828dU, 0x73717066724c708aU,
  0x496183786a847e86U, 0x7a567062906c707fU, 0x4d7699896da79c64U, 0x8d5d708652907072U,
  0x605964816b599550U, 0x8283708d8f5e708fU, 0x51835276686c6753U, 0x787d706297897081U,
  0x7667966a6a697e79U, 0x8993705d4f857072U, 0x8e83718b6c7fa64eU, 0x528c708f5f8f706cU,
  0x956962736f7e746fU, 0x6f59707b4a6c7075U, 0x5e7c787a6c9f6479U, 0x8a57709e7d627078U,
  0x8f5d76756a8d8b76U, 0x937d707549567074U, 0x688f507568755d5aU, 0x8993705b958e7085U,
  0x52564a896c7e8a93U, 0x7971705d8387709dU, 0x6b55526b6a6c744fU, 0x85a470635d87707bU,
  0x4a5a877966697985U, 0x837370817659708dU, 0x4483837c667d7f74U, 0x836f706b8c70708dU,
  0x8e7f676b695f665fU, 0x6c817067965f7071U, 0x61a278756c6b6774U, 0x8695707f6b7270a2U,
  0x946c89646d9d8e56U, 0x766a708d7c677075U, 0x849397616b7a8e4eU, 0x84557076575e7079U,
  0x5a6458796c7b4574U, 0xa85670835b99708bU, 0x6f8251826a5d437bU, 0x96737060646b7071U,
  0x57694a766a477152U, 0x857b706293687085U, 0x5051486a6a787892U, 0xa0867078527e706dU,
  0x725a5166717a6782U, 0x8b5870768196705fU, 0x63569587727f7878U, 0x9586707475847072U,
  0x746c68826d81a086U, 0xae63706a7c5b7093U, 0x527b5b7d7074797eU, 0x927e70926853708bU,
  0x6a9252826b769b87U, 0xa09570984c847081U, 0x61585e7e696c8162U, 0xaf6b708d62677087U,
  0x74a7487e6a949b5aU, 0xa56770817c8c7098U, 0x8660507e69668e8bU, 0xb79270866052706aU,
  0x494f57766f8c819eU, 0x8b7b7083727d709fU, 0x5e8353726c626771U, 0x965b708a8f7e7094U,
  0x926460786a5f595eU, 0x9f93707281527090U, 0x597d707b674f9481U, 0x9b60704f4d877082U,
  0x6b85618169586362U, 0x7f6d707e7f53708eU, 0x6b82616d6a7f7f95U, 0x755870797467708dU,
  0x825e6f836c699064U, 0x815170857a85707bU, 0x8368817b7097627cU, 0x769270826d747063U,
  0x478555736c597c83U, 0x8163707d4c68705bU, 0x74727e71697e5847U, 0x957b70688a8c7066U,
  0x877490746a8b8a66U, 0x7f6470725f84709cU, 0x685f5a716f63877dU, 0x7a6370756c737070U,
  0x7d7a6c856c739e69U, 0x865a707e97767061U, 0x6669666d6ca4978eU, 0x6d76708e635b7060U,
  0x817f4e846ca46a64U, 0x576170825374707dU, 0x6a72938a6c816f6cU, 0x739370785b7d7089U,
  0x8d50647e6b7da849U, 0x836b70945f967083U, 0x787274866c718d9bU, 0x8e6170906c8b705eU,
  0x6c59587b6b717f7aU, 0x875e707c5692704eU, 0x647678666f798a92U, 0x6979709c87677068U,
  0x505a607a6c855b59U, 0x90827083747b7061U, 0x795e67826b66925fU, 0xa0787089945d7087U,
  0x6d7c7673648b7b8cU, 0x6b7a70587e687068U, 0x53608f5a667b714dU, 0x5f927081505f7079U,
  0x615d766c67715992U, 0x7f89707a7a647082U, 0x8e555f7a71647164U, 0x905870856464708cU,
  0x847f51736f507099U, 0x8385704d537a7068U, 0x6a6683687157486fU, 0x6c78704d4f64708fU,
  0x8d8f7f71735a8985U, 0x9684707e954f707fU, 0x7576867979688c4eU, 0x9658708d5567707fU,
  0x508b718273875685U, 0xb56370665a827085U, 0x7c5a7c7371838292U, 0x8a587064406f7085U,
  0x7c6b6d7d6d8e7d5bU, 0xa7867073437b708aU, 0x726459767078a56aU, 0x9595708c6b837068U,
  0x8b5e496b6d8f9585U, 0x9382709555987079U, 0x6b84617c6d767f86U, 0xad8f70758f9d707aU,
  0x4c7067846c7a7094U, 0xad92706c736f7079U, 0x5798698b6d94965bU, 0xa4667098864c7082U,
  0x92958b786b698f98U, 0x9f6870704e737073U, 0x625661836b52607aU, 0xa86f70758a79707fU,
  0x7b57627e6a637e58U, 0xa271705e468270a2U, 0x707a4a6c676a8a50U, 0x8d7370785260707fU,
  0x457e766f684f8b6aU, 0x9579708a706d7098U, 0x897b6a6a6c785b58U, 0x8147706184537069U,
  0x70705d856c566790U, 0x969270707a7d70a6U, 0x924e5d756b719d81U, 0x747f70859050708cU,
  0x5b7474786c908f71U, 0x9b51709f8c82707fU, 0x4f678f7269725f61U, 0xa57a707a757b7062U,
  0x615b8f7c6c5f6394U, 0x8a93707f7490706aU, 0x688e51816a6d796dU, 0x9798705e5572707eU,
  0x646a76736a6b8a6dU, 0x7f4e706467927087U, 0x66998a646d61707bU, 0x7c85706187717076U,
  0x765f476c6f9c9893U, 0x8b7d70757a927075U, 0x5f996a736f5d785eU, 0x834c707062737062U,
  0x55577f796c8a8397U, 0x8d86706b984f7087U, 0x516b706f676d6f52U, 0x7da270726390708dU,
  0x50558176608a5799U, 0x8172708b928470a0U, 0x5a6d71856364438dU, 0x8c8e705d89627076U,
  0x7850696764827a73U, 0x6f707067857e7085U, 0x787a8b5d697f5d62U, 0x8185706b7f757073U,
  0x62585f7168935274U, 0x858f705f75607086U, 0x64497b956a8b9087U, 0xa955706c85537067U,
  0x745b8c7e68798558U, 0x9c62707a408e706bU, 0x788b8a7c6a837f81U, 0x7f7e7061586a7092U,
  0x7a73616f6b856b52U, 0x7c89706f836d7097U, 0x836f64796c93a44fU, 0x826c708b845f707aU,
  0x59568c666b607b7bU, 0x8f62707a868b708bU, 0x488c76756c72976aU, 0x8c4f7084827b7085U,
  0x7b7e4e7a69826a9cU, 0x9681707c735a70a2U, 0x7c59925f645b6651U, 0x836470857b53705dU,
  0x89868769648a767dU, 0x765f705e4a83708cU, 0x50876067617e8166U, 0x8f85707f57707064U,
  0x68974a66616d8c66U, 0xa168706447607074U, 0x676182715f825a60U, 0xb5527068844f7087U,
  0x957e93786183897eU, 0x8d64706248747069U, 0x529b697566605f8fU, 0x7c637075937f709eU,
  0x81984a6b617b4c6aU, 0x905e70817e827097U, 0x5a96625660828775U, 0x845f705f70667081U,
  0x6686676061496784U, 0x9749707c5a5d7066U, 0x728e7e6b636d4990U, 0x977c707a71947072U,
  0x5d754d7964486071U, 0x898c70707a8b7073U, 0x6b846b816a6c7b5fU, 0x9479705a67867081U,
  0x7b68896f697e688fU, 0x7f70708c738c7095U, 0x907d55816a5d6f50U, 0xa67f707276697085U,
  0x49648f666646626dU, 0x716370568a7c7092U, 0x6a7b676a67797879U, 0x736970707a8e708dU,
  0x836b4f696a834c67U, 0x856070837c68708aU, 0x8c97816a676f9250U, 0x7d67707f6d68707dU,
  0x81508e5967617251U, 0x8264706b7f747084U, 0x757d855668737181U, 0x6d557060669b706dU,
  0x939e556d69707963U, 0x6d45707b4d5a7086U, 0x56675d756a927669U, 0x8e64708e649d706bU,
  0x617c6b6f676d846aU, 0x7a827098905e7079U, 0x5167856f6c978790U, 0x8774708b8e587068U,
  0x5a78666a6a787e73U, 0x6a70707272877081U, 0x7178995e6f755659U, 0x588970615382707dU,
  0x989884616d6b7d7fU, 0x707e70685d72705bU, 0x74768d7368687b64U, 0x817070718a797076U,
  0x62797e8467488973U, 0x739270714c7e7069U, 0x4f524c7f758e846cU, 0x858d705b58527079U,
  0x8153966676665b8bU, 0x608e70844661705eU, 0x695668726f8d5f83U, 0x9b87705f49557083U,
  0x7b5697636c4f6c93U, 0x825f707592557087U, 0x84619575694f836cU, 0x7a83705556727066U,
  0x7e4d586f6774624cU, 0x7368705571837094U, 0x8755676967878a89U, 0x6b81707e7a897068U,
  0x636b837e67686983U, 0x87827163939b7081U, 0x7a567d926c627664U, 0x845d707067567085U,
  0x8b6b4c8d738e7651U, 0x957270864e5a7076U, 0x8f71977874897873U, 0x8a7e70a06b61706bU,
  0x618c6a82735f9b60U, 0x8d8f70735f827094U, 0x50668b626a906a94U, 0x8b84707269677052U,
  0x86877b5e627f8d7cU, 0x8c6170864693708bU, 0x69567074645d6d74U, 0x756a70637b627086U,
  0x6985746668849f85U, 0x8b5b7069946b706fU, 0x62728c7469726483U, 0x8a6070876090708bU,
  0x637d7c6f68738e89U, 0x9064707d4c5d7094U, 0x5d5e5282668d8793U, 0x9662705859847090U,
  0x75468e7964597997U, 0x7174707f935d7081U, 0x8c8c4c7c634a6c96U, 0x8d6d70677c827099U,
  0x408c8d7e69639253U, 0x7b587069866b7072U, 0x8376677568715867U, 0x849070708d5b708eU,
  0x876f515f6a596071U, 0x7e70707f51817050U, 0x895770526a707a7cU, 0x7d73707594837071U,
  0x5e524a616b8c724fU, 0x8d7d70788d6b7081U, 0x6976516069617a6dU, 0x8c64708e63827085U,
  0x4c90946468624a9eU, 0x6484707f7f927084U, 0x75469c5667707e93U, 0x6659704385497046U,
  0x5343596663414795U, 0x7a5d70479495708aU, 0x8563556466856d92U, 0x5352704c8d6f708bU,
  0x8249666a6869645eU, 0x606b707c6c56706fU, 0x75506a58686f5a97U, 0x645e70946f9c7057U,
  0x688d705b64518284U, 0x818c70855759705fU, 0x97494f7068608957U, 0x6d4e7076997d7089U,
  0x6d69925a6a596c4dU, 0x846b706b68907051U, 0x7e8e6d5b66843f5dU, 0x8151708981717048U,
  0x79479778665b5da1U, 0x825170626a8f7082U, 0x6456507b686f8294U, 0x935b7066714e7075U,
  0x8c7851766b53516bU, 0x66727061617d7066U, 0x5f8a926b6a839472U, 0x6250707156947086U,
  0x855e7b6c664e8762U, 0x627870635189708bU, 0x4c489368645a506cU, 0x6f60707b8350708fU,
  0x8f62577062847860U, 0x6d867061765f707eU, 0x8685696f67647d51U, 0x8494708c517d7068U,
  0x6457757b688f6283U, 0x837f705b76737093U, 0x93867e7566755f9bU, 0x685a70837f7b7061U,
  0x57848274674a7d50U, 0x7e6c707e4e6d7090U, 0x62908c96689ba49cU, 0x8d72707c64817073U,
  0x386f96a17a827a48U, 0x997f70995f86709eU, 0x849e4e996bb67a5aU, 0x6f87707b6959707bU,
  0x997e758a707ab597U, 0x56bb706d48717064U, 0x8263708476759238U, 0x788d70866c727079U,
  0x996c66857c7f993aU, 0x70b5716376607069U, 0x4e8147767bac6384U, 0x7073718b8c737053U,
  0x734579847b8ba08cU, 0x70a570744c517085U, 0x5785388276797c8dU, 0x5daa70856695707fU,
  0x9e7190796f5b4e46U, 0x5a8d70616140708dU, 0x8a8b67797476ad8fU, 0x4fa070695d9e704aU,
  0x495f997978818133U, 0x7073706f949d7071U, 0x647d7e757494509fU, 0x6068706d6b68709eU,
  0x616458727870618bU, 0x676d707ca092707cU, 0x477a4381758f5e62U, 0x7b5d70597944708aU,
  0xa2837c877b937148U, 0x4f63706f4d6b7086U, 0x705d926d7e817097U, 0x714670756a86705aU,
  0x7983866b7a5e495aU, 0x6a837079825d706bU, 0x6a8657617682863aU, 0x596d706c6c827041U,
  0x75976a7579648184U, 0x7692707056967092U, 0x9e727e6d7a8c4187U, 0x6255708457577046U,
  0x698c436d7c736284U, 0x4d3e70566784707dU, 0x954e5667818c8489U, 0x466d7062a2637075U,
  0x3d49416d7e4c4d78U, 0x4f72704d978b708fU, 0x6c8294667967686dU, 0x4f6b70858d76704dU,
  0x614f726f7b927c75U, 0x6f667082698a705fU, 0x7f4f87667b7c514dU, 0x5e557074468b7084U,
  0x7184455a786a6f83U, 0x5b7a70748194703bU, 0x945870697d74834eU, 0x5d7e70495a62708dU,
  0x749c416d7b79735dU, 0x5a82707d895b7066U, 0x90928b697a646c51U, 0x5f78705e698d708bU,
  0x84753e7e794c6f43U, 0x7573705f8346705eU, 0x9f8b95717845724fU, 0x437b705a35637083U,
  0x9293766d7c799945U, 0x555970797a4d7090U, 0x9d634f677e7a9f8cU, 0x606170897e947052U,
  0x686364667c948772U, 0x6064707e8c4d7084U, 0x40ae4562757d7556U, 0x5b9570796c647049U,
  0x5d75965973496f8eU, 0x567a705aa075702cU, 0x535a627078434466U, 0x669070524e837083U,
  0xa25b6161784e5959U, 0x5387705d759d7075U, 0xa76c4e6678526355U, 0x506b70636294704eU,
  0x4d868f6f7a4d6845U, 0x53737062af5b705aU, 0x7c6993767b62667dU, 0x566a70675876704dU,
  0x4753467379634e55U, 0x4d8a70695f867070U, 0x61859f727a6d7978U, 0x665870748a737068U,
  0x6470706b7a5f60a5U, 0x538270637d48704fU, 0x72644a6178517b6cU, 0x4c517071a1437356U,
  0x958c74577959438eU, 0x4f50706a44457037U, 0x899e8d5f7847584dU, 0x4d4c705d4c857053U,
  0x456181697d5a4547U, 0x4d5d705e4f7e7048U, 0x5a4e9463714d5a94U, 0x467870606a747056U,
  0x45608f6c755d7e4cU, 0x4a7370677b3e7057U, 0x5a599c70795e3775U, 0x4c937061528e705eU,
  0x957c6d757b6b4048U, 0x517170637192707fU, 0x87539f5b7c536f8aU, 0x3e527067556b7071U,
  0x5f6953708382718eU, 0x36527066a1827057U, 0xa5636b6685836193U, 0x3651707467527074U,
  0x5272527184646c5eU, 0x6889706c5a67707eU, 0x3e5786717f6c6a44U, 0x624f7055844a7068U,
  0x9e5e60717e727861U, 0x44837055a448707aU, 0x625d5f637d847d95U, 0x338370644e3f7041U,
  0x3e795d6b79757d6fU, 0x4a8770645f99705bU, 0xa8585f797d627882U, 0x509d707a6b6a706fU,
  0x957c5275818d525eU, 0x5b90707f3f83707cU, 0x8352927a738d564dU, 0x6364707e537f707cU,
  0x588e487c71739d9eU, 0x5a9970798a537074U, 0x7f9b9c7a7373814dU, 0x59a9707355997078U,
  0x43844c7e75768c5bU, 0x6893707d5a9d7087U, 0x6a75758974645a66U, 0x8276707b7da67078U,
  0x92724e7d75866389U, 0x568d70796f8c7064U, 0x466a9d7979955548U, 0x62a770679667705eU,
  0x68575e707579628cU, 0x66997085a559707fU, 0x4496667475849699U, 0x57a07072a13f7056U,
  0x7243487275876d78U, 0x6f99707a4c8a708bU, 0x739972727b857858U, 0x4359706b8596705eU,
  0x84588d647b8c6183U, 0x516d70786d4d7074U, 0x69925b61757b8a50U, 0x756f706aa8797037U,
  0x55966775725b8a5fU, 0x7286705fad75704dU, 0x467e527475737d50U, 0x6386705287637087U,
  0x6a90487976785072U, 0x4e8e706b755b7062U, 0xa9997c7c7a5e578aU, 0x5366707e5743708bU,
  0x4aaaa67572575962U, 0x72a570614e677063U, 0xada0727375755581U, 0x6b7e708761627050U,
  0x6647527c79756c47U, 0x6c8c707441707070U, 0x95a0537b7a57756dU, 0x7d6470947c4d7095U,
  0x607f8f6f788b7e79U, 0x6b787052458b708dU, 0x9087a0737644458bU, 0x566b70575a607072U,
  0x748a627a73715694U, 0x63a0705d5d937063U, 0x8296697e718c5073U, 0x716170624396709bU,
  0x9f9886736f5f8640U, 0x6a8470629785707fU, 0x554c8f6d70a1724eU, 0x675e707967787052U,
  0x859b6b6b72869933U, 0x4e8d70667260707eU, 0x637638797669687eU, 0x608b707a719d706fU,
  0x5d8193816f846a55U, 0x826c7090503a708dU, 0x9c3d93786d68703dU, 0x8784706b868e7083U,
  0x6f3a477474797635U, 0x5d8c7066827a705dU, 0x714d826370986d5eU, 0x638c70709696705dU,
  0x7a5b7e6671599e4dU, 0x817b70754170704cU, 0x675f8c7f7684576bU, 0x7c7c707593867056U,
  0x4d797372769b7240U, 0x5a57707f96927071U, 0x41a6707d7990ba9bU, 0x5f6770755e457074U,
  0x7c64507a7189573cU, 0x745a70707147708aU, 0x95679f7d766d9476U, 0x6f747063783e7096U,
  0x6d456274796a6d52U, 0x7058708489787049U, 0x9e817f727a3e4c52U, 0x5b927048953f708bU,
  0x5a8c4167756d5f97U, 0x4e5d704d8c4d707fU, 0x59966b7275745b66U, 0x638d70628b6b7047U,
  0x95959e6b73718a5aU, 0x488770686c897073U, 0x798d73616c4f4a6bU, 0x578270763b3f704cU,
  0x3787827870834e52U, 0x6f63706c37597048U, 0x8f7f9670748c617dU, 0x5f78706c98827067U,
  0x8e7fa16a73557540U, 0x5d6870604e947066U, 0x6f5e637170577e43U, 0x764a70708f667069U,
  0x85704c5a73644e6bU, 0x5569705f3c6a703cU, 0x994f9767756c822fU, 0x578c705e87817086U,
  0x5fa1476c748a6b90U, 0x6c817089a2667086U, 0x705e5e567264483eU, 0x6d6170796a5a7072U,
  0x8b7c706072788194U, 0x7189705a98a17067U, 0x5276786873796497U, 0x46727067726f7052U,
  0x62758e6f78596a8bU, 0x5648705e48847084U, 0x8a8e417a73815249U, 0x7572707e58877055U,
  0x60815f73757f5b7eU, 0x5d99707089837043U, 0x8b7c4d6b7676419bU, 0x505370707955705aU,
  0x9990706c7f5d4f57U, 0x638a706d6c8d7038U, 0x86878c737f668b37U, 0x5f8970679741706cU,
  0x466a8f6b7f578a83U, 0x6a6370855094706cU, 0x437b8376706d453fU, 0x8f75705b63797048U,
  0x6b8c7d7c71508a78U, 0x685b70614f90704fU, 0x7b789b7d7057973dU, 0x518d705f4e8e7084U,
  0x646959727090728cU, 0x4c9270754479704fU, 0x7d6a617c747f6061U, 0x6d52708f5e407063U,
  0x937d3e747583798aU, 0x6b8170825b837052U, 0x6f7f8e7a72686f4fU, 0x6f5a7059a589708bU,
  0x5b75795d7368483eU, 0x3c5f70597b58705fU, 0x5547a245746c4d85U, 0x3f76707040907053U,
  0x4a5d496979484695U, 0x5d4c70636a667058U, 0x6c5f63737c718285U, 0x6798706d7b7f7069U,
  0x927c9b7a796a6292U, 0x578f706a757c707aU, 0x5d6749667276865bU, 0x3d6b7071715f7082U,
  0x6167876b755a7c6fU, 0x508b70726471705fU, 0x9d905a70785a7698U, 0x4a9470716646704fU,
  0x9d7d4069785e698bU, 0x486c70727f5f704dU, 0x9785447175528455U, 0x605970726f6b705aU,
  0x5d64626a796c6b61U, 0x4d667067747e7075U, 0x3d5a3a7f76768498U, 0x5d8b705d7b5a7061U,
  0x62509f66725e6c5eU, 0x317670584670706cU, 0x5f79566971696267U, 0x587b7079528f7050U,
  0x8764966b71606c5eU, 0x557370733e48706bU, 0x7676a15e734d5b6bU, 0x577d705f9e457053U,
  0x74459b6b764c4f86U, 0x6160706f5b56704aU, 0x8a6260747c6f6f8aU, 0x528e70625a767062U,
  0x94823d727b73925eU, 0x3473705d76727074U, 0x8c4d736078698e40U, 0x2a817076a2647058U,
  0x496c7a5b755f533bU, 0x4f78707251927064U, 0x508f6f5776606674U, 0x497870676366704cU,
  0x9b5885697d416859U, 0x454170575d8c706dU, 0x7e4055597a3d4370U, 0x3845705a6a567060U,
  0x9848525e78623e84U, 0x446c704740407068U, 0x6245455976576760U, 0x3a5b704f9c3a704eU,
  0x67557a5579684d82U, 0x196c704c7897705aU, 0x647b7d5f7b635e7fU, 0x383c705f713c7050U,
  0x9d8b98677f3b6a51U, 0x3f4a705a72447046U, 0x69735b5778664aa0U, 0x3860705f63607058U,
  0x6a598261793b6b63U, 0x2c527041925a7040U, 0x7c7464557d795785U, 0x217870616f7d706bU,
  0x8479665e7d57504dU, 0x2c4a706096787046U, 0x7352675a7a60894fU, 0x3d627074758d705dU,
  0x7f6c8b437a7a6832U, 0x3e3e70693d6f703bU, 0x59667a577e67495fU, 0x4064705d669c705fU,
  0xa2673d5a7e366194U, 0x326670504e517066U, 0x59577050793d3f79U, 0x226970586f7d7036U,
  0x9346714c765d5d7fU, 0x294c705a5d76704fU, 0x8970485b79735858U, 0x414070645d977051U,
  0xa48d43697a796149U, 0x3b787060767c7059U, 0x99693d5d7a766d7eU, 0x204870617f737066U,
  0xa962945a796c6066U, 0x5143707049927048U, 0x479d5b5372646168U, 0x5b4c70595a8b703aU,
  0x67758a5b7f5a6a78U, 0x4c597057518a704cU, 0x7a5e9e5d7e5d7f79U, 0x383c705d4f537044U,
  0x4a81aa5979515872U, 0x3f7c706c4f9f7047U, 0x63574e5672474876U, 0x2d6f705a8e7c7064U,
  0x639e6a4878527548U, 0x2c57704d78797029U, 0x5295835b78586775U, 0x4478706a8aaa7041U,
  0x4d8b717379577b6aU, 0x565f706950837060U, 0x558c67577a7b6092U, 0x3143707569847064U,
  0x8e535d697a6c866dU, 0x557e70754e83703fU, 0x8666905f76463c49U, 0x417e7048598a7079U,
  0x9566904f76767981U, 0x253b705d43417067U, 0x3f64684c754d7083U, 0x2c76706f958e703aU,
  0x8d6b5955766f6798U, 0x3757705f9e5f7062U, 0x8b4746677b4e6b70U, 0x3a6a7072465e7076U,
  0x84873d617d6a643eU, 0x2e8970569563704eU, 0x51834f50793a4d45U, 0x2a5b70604d647051U,
  0x5b53906078587897U, 0x4e8c7073996c7076U, 0x33616a6073827e5eU, 0x4548705694497064U,
  0x98937451745f5b74U, 0x2d7a705f6a627061U, 0x473b70577a787462U, 0x407d70618a4a7031U,
  0x84588d5d794d4479U, 0x375a705e66967075U, 0x698b756876587189U, 0x5250705b7f9b7075U,
  0x853a44667949449cU, 0x3b667053436b7052U, 0x468b9b73787f7d70U, 0x455a70639e3a7082U,
  0x7a45617a7a977a8cU, 0x4f537051967e705aU, 0x635784617a6b7e82U, 0x31747074676b703aU,
  0x7e505f64767f6086U, 0x49727067596c706aU, 0x58973c5e76796b38U, 0x414c7056634f7070U,
  0x7f858c6378614846U, 0x4a72704c5d4e7069U, 0x6f3a866a75515674U, 0x4d5070467c977056U,
  0x6c52965d7b66853fU, 0x2e786b5f649b7036U, 0x848187647d6c4456U, 0x4c8670607a9b704eU,
  0x495379767a584670U, 0x4f6f706b4a856f87U, 0x499b5a7a79748a8dU, 0x587070766d596f85U,
  0x4d597f6f75768a95U, 0x4f7670768e897059U, 0x75594e71745b7958U, 0x5772706fa264705fU,
  0x895a8a5b7b708a78U, 0x3b4f706858597044U, 0x3b744f5a7e7d4f95U, 0x2a7d706a4d3d707aU,
  0x513f94627e5e5997U, 0x3382705f7d7c707eU, 0x449386597b6c607bU, 0x375e705a796b706dU,
  0x7e7a996b7b527e4eU, 0x5079706f9f727063U, 0x3c4689697e535290U, 0x4a83705a484d7047U,
  0x6881726979764a66U, 0x5171705d5b957070U, 0xa489506879676082U, 0x3c977057a1717040U,
  0x5e5f996c766d556fU, 0x3f4c7059603b706fU, 0x83863f73756a5361U, 0x447570524079704aU,
  0x8d899d64746a6c4eU, 0x358f70625381703bU, 0x734a416f76a47d70U, 0x368b707944477052U,
  0x765e827179968173U, 0x4c8b707b7256707cU, 0xa17b437278897f98U, 0x409870708b937085U,
  0x495852697c7b8569U, 0x43557070619b707bU, 0x433f4571794f6868U, 0x5966705f476f704eU,
  0x8436497574406fa0U, 0x3e9c705e6f847073U, 0x407e6b6c7674576dU, 0x2d87705a8e5f705fU,
  0x798970647a788389U, 0x417c7067714f7055U, 0x9045587a7f946378U, 0x4e5b706a7f617082U,
  0x6161736c7b716c68U, 0x3266707b7d3f708aU, 0x71666d5f73897682U, 0x4c84706f82467072U,
  0x5f83667371937c74U, 0x505670788275706cU, 0x4982327a768b755fU, 0x4d84706f8e787070U,
  0x6b3e6485746c5b48U, 0x5b82706b57787084U, 0x786f5d85756c615fU, 0x4f7d7071973c706dU,
  0x9c75606d7a6a8762U, 0x457c707c478f706dU, 0x3e5f9e7d786aa18bU, 0x69737076678c706dU,
  0x466c86827a825f4cU, 0x6d6c706b893f706fU, 0x7d6f89787a7a735aU, 0x5685707453687053U,
  0x9c7e7864816b6d7bU, 0x4c6370589e4f7081U, 0x944c825884754d35U, 0x406b70596d837035U,
  0x466f496b8b6c648dU, 0x59727063728d704eU, 0x525d59768f737a94U, 0x7698708974747044U,
  0x7f8e528285927650U, 0x66a1707e46577055U, 0x9c1d4c767d5d3a94U, 0x4a86705b4971704eU,
  0x676b9060669c946fU, 0x7b4f707e6185708aU, 0x837d8e6a726a926dU, 0x9e6c7081599f7053U,
  0x585e74726d8da24cU, 0x9870707f56677059U, 0x56685b7167909350U, 0x8e7470895b59707cU,
  0x6f8b6869618b6997U, 0x89826b7b676a7090U, 0x7481567c5f595f79U, 0x99706c707468706dU,
  0x8f5a9b6d6455927dU, 0x747f70674a55707fU, 0x709390666a5d8d89U, 0x85577073954e7089U,
  0x589972746b748f62U, 0xa079707f8f867078U, 0x589f4f7967634f5eU, 0x9f957084687f7068U,
  0x5e5f766a637a7558U, 0x7e5a705593577096U, 0x637a607168679690U, 0x7656707a4e7b707dU,
  0x6662856d6c97795aU, 0x7072707a5f52709fU, 0x755f6d736c97617dU, 0x9255709c8a627085U,
  0x5b84817c68565195U, 0x9f60707f4872707eU, 0x697e6b74627c8387U, 0x789c705d74737086U,
  0x89636d72636b5f58U, 0x6f5e70696773707bU, 0x927e9070677a7d69U, 0x7d9470826948707fU,
  0x838c936a66517851U, 0x705d705f64467064U, 0x59578a726970998aU, 0x7082705e6b87708bU,
  0x4c8453706a9d8676U, 0x79687068704a707dU, 0x83948c66698c6275U, 0x835b70726085706bU,
  0x86567171697b5883U, 0x7b7e707d608e706bU, 0x7d465e726b7c8d69U, 0x877670764a50709cU,
  0x827a4e6f68704487U, 0x82587063978e7067U, 0x696862746868936aU, 0x7b86706161497073U,
  0x8c528f796b6a7869U, 0x7259708666477070U, 0x975a677d69816950U, 0x7c8e70847964706dU,
  0x867a487f6b677c78U, 0x87697076878d7061U, 0x51814d7f6d767496U, 0x936470727c587085U,
  0x8a4586746d60945eU, 0x6b6070824d6f7075U, 0x81757d79708a8289U, 0x864f706d8c6f7093U,
  0x8169566a6f636369U, 0x716f707b6a747081U, 0x618d7f6a6c709662U, 0x7a55707b756b708aU,
  0x6d5f92636d8e666dU, 0x854d707f6d977052U, 0x475a72726c685e51U, 0x976470765e9d707dU,
  0x7b6b577168718a59U, 0x995a707e746f707eU, 0x6979637466756c95U, 0x8e8570787a727063U,
  0x785d60756781647fU, 0x8d6670735a927066U, 0x7872557e6c6f767aU, 0x8e92707c6a6d708bU,
  0x687e5e766b5d6f82U, 0x876b70845f7c7068U, 0x924f84696b698c53U, 0x8a5b70736373705fU,
  0x695989716b8b7887U, 0x84527076894e707fU, 0x756b596d6b567a81U, 0x716c707e734d7083U,
  0x685f64736c7a7f71U, 0x8683707e538b708dU, 0x649083786b6a7e7eU, 0x7c67705e624f6671U,
  0x7d79797c677f6898U, 0x7e7a7068556a6f78U, 0x86567a7d6b966478U, 0x817e706c817a70a8U,
  0x47675d7c66687a52U, 0x8763706d6987708bU, 0x987d6883694f7b56U, 0x7686707f52637073U,
  0x816f74736c618d51U, 0x7361706f7d4a7083U, 0x716f90816b90736bU, 0x8a56706d8c717094U,
  0x8c5261736b927048U, 0x688170837064706fU, 0x865744766d6b6f7aU, 0x708b706c62827072U,
  0x5e824e636b898540U, 0x798170956b5b707bU, 0x844e7c7c6993768fU, 0x9e5970627c69706fU,
  0x925a71786b7c8786U, 0x769e7058418d707aU, 0x9085726d6ca07e7eU, 0x4590708760797087U,
  0x647f53646a9b7c71U, 0x8373707e4a6f705fU, 0x738c5d766890856dU, 0x938d70695f697068U,
  0x63737c836c5a8285U, 0x7c61708a666c70a8U, 0x8a7652716d647c75U, 0x5f9670707e5b7086U,
  0x8d6f5b6b6b746c59U, 0x707a706f7c837075U, 0x5992937b6f878389U, 0x726670627f48706cU,
  0x876447787174a08aU, 0x686d7089617f7086U, 0x4a874f706d756c6dU, 0x708470834e7d7071U,
  0x948387756a5d837cU, 0x79907072458a7092U, 0x796b8d7a6b90944eU, 0x896870845396708dU,
  0x7e4e4a7a6d848b84U, 0x815b70936d83706aU, 0x815b7e7269a08e46U, 0x6f6a7076967d7056U,
  0x686374756ca18f5aU, 0x7661708652687064U, 0x5b9682716c939e52U, 0x847b708d85997070U,
  0x5296846f6c969992U, 0x745a708569647060U, 0x4a9858616a6f6881U, 0x8b86708c4d737087U,
  0x556f63766a8d9578U, 0xa96870705e57708fU, 0x5a7966896961607aU, 0x9493707c876b7099U,
  0x55637087675a816aU, 0x82a970558f7a7084U, 0x8a647a7c69707d9eU, 0x7397705d72787072U,
  0x4a837b786a839782U, 0x907b708f44727073U, 0x9460577d6973835eU, 0x9261705a94557092U,
  0x684f6f836c908352U, 0x7c98707a7d4d7094U, 0x4e8a4c796771645dU, 0x8683708b6256706cU,
  0x795d7a75666b5e93U, 0x8d67707d97937093U, 0x8e53956f64865562U, 0x726770747d8b7063U,
  0x708a7472645b5f85U, 0x745570785e4f705eU, 0x6b575a74686d7c73U, 0x8a617068877b708bU,
  0x8652616d6b684a66U, 0x7f6d70877c987062U, 0x72785f616a637557U, 0x6c70706b756c7069U,
  0x5e445f6f6b72674cU, 0x635b70627b537079U, 0x5b59596d6f8c8645U, 0x68927060906f7066U,
  0x997f6a746f99706fU, 0x925770954e707072U, 0x95645a7a6c5f558dU, 0x8f6670714a697061U,
  0x8750967c708d8958U, 0x6a597066645a7096U, 0x828a8b7870697347U, 0x668b7092848d7074U,
  0x6b6d536d6b878f7aU, 0x754f7067789b7081U, 0x985f74736f8f8a6aU, 0x734c708b82a0707cU,
  0x9071507a6f67974aU, 0x6b84707255637067U, 0x67965f68696b8456U, 0x6f6370866983708cU,
  0x585996696678515fU, 0x715770624d6c7087U, 0x6a734e6a67596a6cU, 0x7e71707270827082U,
  0x5155646f6f5e5a8fU, 0x835f706b85837064U, 0x769264676d4f5897U, 0x7061706d58997066U,
  0x5f8479696a5f5b7dU, 0x71697066577f7095U, 0x708957696a666982U, 0x716f70638194707cU,
  0x7276726c6d4a3767U, 0x8569706860597066U, 0x677182706d4d2b5eU, 0x8a7d705f7871706aU,
  0x81796a6f70344c56U, 0x8a70705f514f707bU, 0x4d5b516c71486b97U, 0x857f706464477061U,
  0x51667e6b70725e86U, 0x9668707095647078U, 0x827997827066606bU, 0xa47c707b44617078U,
  0x784a678573828b76U, 0x9d74706d70487089U, 0x50505173728c755fU, 0x8e7670815d567094U,
  0x928b7b7d6f8a9881U, 0xa772708e498e7086U, 0x5a8481796d846669U, 0xa87570857f7c7070U,
  0x61738d7b7064794dU, 0x927e7072676a7090U, 0x6b62627f705d7c82U, 0xa48e708470537094U,
  0x596d7e7d6f7e5b70U, 0x998d70735289707cU, 0x7d7d607870837c7dU, 0x97647070684a7071U,
  0x4d8d5d726d6d9561U, 0x9c7e707d4c587075U, 0x795563756c935589U, 0x895d70718452708eU,
  0x505d7f7b6a795561U, 0x8a6070646b607074U, 0x7f47537f6a6a687dU, 0x9594706b7f5b7085U,
  0x8369487867637c60U, 0x8a7f707450687086U, 0x87569275686f578dU, 0x796f707b67817087U,
  0x81955f6a6983788bU, 0x686a705a7b597059U, 0x7b564d686c936244U, 0x8276709283567053U,
  0x7557607269648795U, 0x896470678c697061U, 0x6c9448866d71834aU, 0x766b7067718b707dU,
  0x8f8e8e7e706c5b69U, 0x75707072944f70a1U, 0x50738c6a71598b52U, 0x6793706a6058708aU,
  0x418f6a6f6d67628dU, 0x8295707f6a76706fU, 0x81833e596a586a7aU, 0x6275706485667068U,
  0x9385906c68835d69U, 0x8778706b76517056U, 0x854452726b766a71U, 0x738770618a6d708bU,
  0x8c688a6d6b8f5a56U, 0x695b70814e507057U, 0x707967716c71856dU, 0x8972707f6c4f7068U,
  0x8f757b706a78536fU, 0x7d8a708a4a92705eU, 0x605e5f8a6f5f9d48U, 0x867b70623d6a7066U,
  0x85748b7b6d627d7fU, 0x728d706a89817063U, 0x7c82586d6f6b967bU, 0x6b97708c5d7e705bU,
  0x8c818a7870897448U, 0x7b8770846951707aU, 0x6b5e7e646d797089U, 0x748270969566706bU,
  0x957e5e796b8e634aU, 0x84517068908f7089U, 0x594f5970706a868cU, 0x60607061685d7078U,
  0x554f4a76729c7a79U, 0x8684709769907057U, 0x7e4389796a6a6a4eU, 0x79817055785b708cU,
  0x5e8962746c836f8cU, 0x5d7a707969927075U, 0x858d7a676c905b8dU, 0x68837060504c707aU,
  0x979786716d5f6146U, 0x7f53707f625d7066U, 0x575a508568595e95U, 0x87787074785d7061U,
  0x476686796a6a7d7dU, 0x8d5f707c7f48708fU, 0x7b8b786c6c6c6466U, 0x9b6370797e6c707cU,
  0x9070826c6c737294U, 0x8c5570725f817066U, 0x788b45786c6c7b72U, 0x906b706c48767074U,
  0x8f4e607c6c6f9384U, 0x9659707f55517094U, 0x6a4e4c7f6f768e74U, 0xa05d70847a6a707dU,
  0x4f7a84716fa1ac51U, 0x8d7f70925387708cU, 0x637b5b856b9d6c84U, 0xb76d709564937078U,
  0x4e676c95698f747bU, 0xc48f7075936670adU, 0x78697282687e6b5dU, 0xaa7d706f58687097U,
  0x6890557c6487607bU, 0x996c70665a8c7086U, 0x8f6d897d66749897U, 0x93837069736b707eU,
  0x64954a6f666d628dU, 0x986b70795a737089U, 0x477a7370686f6c6aU, 0x9273707b476b7084U,
  0x97538c706b646184U, 0x8c57707d5b76706fU, 0x83937a786c769078U, 0x8a59707b8473709cU,
  0x7d674c766c6b4d95U, 0x868d70785e5d7092U, 0x84507d6f675e8462U, 0x7d7870697e997079U,
  0x4d585b7b63966996U, 0x9782707149517096U, 0x4a84948c638e8d62U, 0x9e6b708c6086707dU,
  0x8e717e7868957e7eU, 0x729270587f8f7087U, 0x6c8c857868795152U, 0x7f92708958647084U,
  0x93585774695d696dU, 0x9c6b706f8b5e7095U, 0x61935f74687d7262U, 0x957e708b647f7085U,
  0x8a706b7b697b4f61U, 0x6687704e81947094U, 0x7881606c6f848f8eU, 0x5d957071867d7064U,
  0x59908a6b688b6b63U, 0x767670827847708eU, 0x6a5a7a6a695b5b64U, 0x8460707b448e707dU,
  0x726f857f63835e6aU, 0x8e68706876927083U, 0x8683517367535683U, 0x7d727071535f7076U,
  0x7346497c687d7271U, 0x848b708368597072U, 0x786a87816a8d9b59U, 0x895e70755a8d708fU,
  0x4a7f626267716c73U, 0x6b837083818d7047U, 0x616b867369837d70U, 0x869270636c47707cU,
  0x7b4f6657696c8c7eU, 0x7671708179667053U, 0x8e5f7b666b6f6d87U, 0x9061707f8d617052U,
  0x8363597f6a727597U, 0x9d7d70835b74708aU, 0x6b8a627b6662747dU, 0xa25f70716158708aU,
  0x517a817b665b5d74U, 0x9e937085558c709bU, 0x5d8d977f63617f6dU, 0xac9c70695376706dU,
  0x64855f8b6678665bU, 0xa98d706c6170709dU, 0x7d636187687b635aU, 0xa07d706d85817097U,
  0x7a856175685a5753U, 0x8e7a70815d8f708fU, 0x75906974696b8e8aU, 0xa26870895a4f706aU,
  0x7086476f67757487U, 0x8f5d705d4a55705fU, 0x8f516f746975688bU, 0x925e70607856708eU,
  0x7e8b956a665b6460U, 0x9079705549637081U, 0x68466a62644f534dU, 0x7d6b70738f817072U,
  0x55906c756260866bU, 0xa0707086557c7067U, 0x71738666685e8e93U, 0x796b705373727068U,
  0x936f84646b636b68U, 0x6b5370785d587062U, 0x9074827068719293U, 0x8e577075589c7059U,
  0x73578f6368508987U, 0x7d8270727f4d708bU, 0x676c537067796168U, 0x8d44706b6b737079U,
  0x5f87827368608153U, 0x7972706b95587098U, 0x9646746a68726b5bU, 0x6f63707b79767052U,
  0x6b736c6a677f6675U, 0x8249717466567076U, 0x9c737861687f7972U, 0x6f51708698687089U,
  0x708d61636c766369U, 0x874a70786b86708cU, 0x6a635e6c6c7c699bU, 0x747170585a667069U,
  0x6f6748726f557d4fU, 0x73837055827f7070U, 0x594994706a855f86U, 0x82757082756b7081U,
  0x507d907a63718761U, 0x8c5f70827a8f7089U, 0x988a5b74646c6a76U, 0x745870536f7c7072U,
  0x7d5f8567645d5d5dU, 0x7663706876747074U, 0x7d945d6d66697b7bU, 0x7f82705d8f597059U,
  0x565b4e6966637894U, 0x7a5070786b8c708eU, 0x4f68637e636c5d82U, 0x8782707a9051707eU,
  0x8d3f7c6f697a795aU, 0x626670755368707bU, 0x7e51766f6a8d7c67U, 0x7e8c70835d59705eU,
  0x595e8f746d7a8b8eU, 0x8e737083724e7081U, 0x63698a766a696c5aU, 0x836a706a78667099U,
  0x505f7a826968924eU, 0x875b707c578d709fU, 0x8a525d7969746794U, 0x969070866f48707bU,
  0x85666c7a6a6f8f97U, 0x817a706681687093U, 0x7167816d6b846c48U, 0x7f9070798c797096U,
  0x52836d7367837581U, 0x7a96707b6f81709dU, 0x7586706c69977160U, 0x7a8770814a727058U,
  0x668f7b6f689e864cU, 0x8952708a527b7062U, 0x5153747c68908382U, 0x9d94707f6b74706aU,
  0x4c73838a6885728bU, 0xa489707e858e7098U, 0x4066707d627e827dU, 0x8f6170847387706dU,
  0x8e7a8675629b8e81U, 0x905170823d66706bU, 0x665a7078688b9b87U, 0x93587086595a7067U,
  0x5e867c7d6a5e5b63U, 0xa485706d8763707fU, 0x577b737967698a6cU, 0x9e8f70828d877099U,
  0x51974d6c668c6155U, 0x9b7470627b78706fU, 0x60615f78677fa459U, 0xaa5070836f5b7062U,
  0x53787881688e6972U, 0x9f5f70867b8f707fU, 0x7b69708368796b83U, 0x8b9970815e8e7097U,
  0x5a72488266759390U, 0x9767708a627f709cU, 0x556a8e7e665d5f99U, 0x9863707273907076U,
  0x64936b8761948f75U, 0x939b70788c7570a2U, 0x83816b7d646a8184U, 0x8ca1706982827073U,
  0x926751746782735dU, 0x8267708f53527060U, 0x7c52727366a08372U, 0x7b55707190907064U,
  0x64616f736695758bU, 0x86597073495d707fU, 0x828e4d8264aea17bU, 0xa664708e517e7073U,
  0x41e53d6d40cd9413U, 0xc02bd49a3fff106dU, 0xbf91d3d8411d494cU, 0x4119320040e0dc23U,
  0x3f41fa393eae45d8U, 0xbf11afcf3ed3b783U, 0x3f723c65be5e1f81U, 0x3f62223bbe3494f3U,
  0xbf973dfc3fb11e07U, 0xbe992f843ff5533dU, 0xbf78f4943ef6b991U, 0xbe4ed928beda7b9bU,
  0xbee3173c400cc145U, 0x3f8dcd79400f6cd3U, 0xbfcd6687bddf5338U, 0xbef48def3f645a1dU,
  0xbd54263a3fb63c89U, 0x3ed75e2bbf967575U, 0xbfb42c46bfcccdf0U, 0xbf84bcf23fddc5a9U,
  0xbecc0373bf25a311U, 0xbc2a79c9bfb0fdc1U, 0x3f6d4405be530896U, 0x3f4e266c3f3acc20U,
  0xbec152263f91d645U, 0xbf1e5abfbf5b6021U, 0x3e721363bee98999U, 0x3e24f7743e1d6e7bU,
  0xbe54ed0c3dbc8784U, 0xbce21d16bd8a5a0dU, 0xbd9690b9be2a53b7U, 0x3e63f6273d359016U,
  0xbdd11f28be5e4d89U, 0x3e634d463d549fb4U, 0xbd164a4e3d37cbeaU, 0xbddd25aabe17a75aU,
  0x3d7c33dd3e64d7d3U, 0x3e88ac8abdaf7fb1U, 0xbc938f4f3c21322eU, 0x3e25dbf0be30ea75U,
  0x3e4bf9e2394e217cU, 0xbe581db73e4e81beU, 0xbd21115bbe8a73f6U, 0xbcfa15d13e59bde8U,
  0x3da8ea693e497ef2U, 0x3e65d4523d5430bcU, 0xbca702413e243af9U, 0x3e82cd2dbd3438abU,
  0xbe2175cd3d253139U, 0xbe79e2ffbdbfe74aU, 0xbde495babe01c9c3U, 0x3e84c535be7e300aU,
  0x3ab9ce7abe3f7abdU, 0x3e3a5e6c3e15ad4fU, 0x3cb518bc3c86a2f5U, 0xbd86f6143e174698U,
  0x3e220f223e0da1ffU, 0xbc751eb6bd8a609cU, 0x3e34e1e4bcc2ea4dU, 0xbe11cb13bd8fe79bU,
  0x3d65f5b03e702168U, 0xbe54bcb9bdeacb80U, 0x3e8392093e10e587U, 0xbe64111bbc6f1652U,
  0xbe750813be21e3e5U, 0x3e3e11723e44074dU, 0xbe17ffc53c307f9dU, 0x3cc1c54f3c89b668U,
  0x3cb5e5743d08dbd3U, 0xb95c392b3b07b706U, 0x36c51a39bbff3813U, 0x3a5f3650bbf25a81U,
  0x37a304873c8e58ffU, 0x3a62263d3ba278afU, 0x3da398f43c519cadU,
};


ai_handle g_emotion_model_weights_table[1 + 2] = {
  AI_HANDLE_PTR(AI_MAGIC_MARKER),
  AI_HANDLE_PTR(s_emotion_model_weights_array_u64),
  AI_HANDLE_PTR(AI_MAGIC_MARKER),
};

