/**
  ******************************************************************************
  * @file    emotion_model_data_params.c
  * @author  AST Embedded Analytics Research Platform
  * @date    Mon Apr 22 15:08:40 2024
  * @brief   AI Tool Automatic Code Generator for Embedded NN computing
  ******************************************************************************
  * Copyright (c) 2024 STMicroelectronics.
  * All rights reserved.
  *
  * This software is licensed under terms that can be found in the LICENSE file
  * in the root directory of this software component.
  * If no LICENSE file comes with this software, it is provided AS-IS.
  ******************************************************************************
  */

#include "emotion_model_data_params.h"


/**  Activations Section  ****************************************************/
ai_handle g_emotion_model_activations_table[1 + 2] = {
  AI_HANDLE_PTR(AI_MAGIC_MARKER),
  AI_HANDLE_PTR(NULL),
  AI_HANDLE_PTR(AI_MAGIC_MARKER),
};




/**  Weights Section  ********************************************************/
AI_ALIGNED(32)
const ai_u64 s_emotion_model_weights_array_u64[3363] = {
  0x3d38de00be8b07e5U, 0xbd86e7e4be1f31e3U, 0xbe12b01bbf718e31U, 0xbe542b29bdfa79bdU,
  0x3e850e713e92deebU, 0x3e964b833e9095c3U, 0x3ea1f0cebf317b53U, 0x3e9e17be3ef0990aU,
  0x3eabe6a73ee1da1dU, 0x3e918daa3ef30a0aU, 0x3e4478fdbf7ecf49U, 0x3eb385633e37a567U,
  0x3e932b7c3f068d4dU, 0x3eed60523f04de51U, 0x3f0a7a79bda6c625U, 0x3e900c853f168b5bU,
  0x3e8dc6473c41e54bU, 0x3e83bef23e9674f9U, 0x3e8f7e56bef5f6fcU, 0x3eb16b463ebe4b88U,
  0x3c6a6a613caf8b80U, 0x3d3b2bb73e25fdddU, 0xbf4d050fbf57a576U, 0xbf819977bf39d8dcU,
  0x3f4d00cd3f57ed11U, 0x3f8171a63f39d672U, 0xbf51a00e3f51a133U, 0xbf0e1091bf31047fU,
  0xbebe8fefbeed3cf8U, 0xbe4704eabe90fe44U, 0xbcb6cbd7bdddbd75U, 0x3e1992a33d823662U,
  0x3ea5bad93e718358U, 0x3f02ccac3ed547e3U, 0x3f3b3ed93f1b9adaU, 0x768757666677a9a9U,
  0x55547699baab9a68U, 0x7867767777888767U, 0x6676889998a9bb9aU, 0x8798a99a78677677U,
  0x767799a99aa98978U, 0x7877778898a99a78U, 0x9a68777766456575U, 0xa99b8967676698baU,
  0x98aa998978677698U, 0xcbccbccc9b9a8898U, 0xbc9a7955545486a9U, 0x87878787a9cbddcdU,
  0x5476a9aa9a788878U, 0xbabbbaabaa9a8956U, 0x5565a8cbdcbcab99U, 0xcbccbcbb9a787756U,
  0x6676aaa9999887a8U, 0x86aa9aa9cbccab78U, 0x7987a8a9ab896765U, 0x7777779898a9a989U,
  0x678899cbbb9a7866U, 0x77989a8978676666U, 0x8877767777879887U, 0xaa89886798999988U,
  0x88778787687799abU, 0x8687a899caeebd89U, 0x88999a8977665554U, 0x7799989a99998a88U,
  0x7776999879776777U, 0x667798a999897877U, 0xa9bacccdaa785555U, 0xaabbbaaa88789899U,
  0x77666676baedddbcU, 0xdccccdbb99897778U, 0xa9a99a998889a9caU, 0xa9cabcbcbb9988a8U,
  0xcaededcdabab99aaU, 0xbaabaa99a99a8987U, 0x8888788899888899U, 0xbabba9aabaaa8898U,
  0xb9bb9a99aaabbabaU, 0xa9cbddbcab788798U, 0x89a8886867456577U, 0x6667877868666786U,
  0xbabbccbb9a776765U, 0x99ab7876775686a9U, 0x7856547698999989U, 0x5465989977779889U,
  0x6576676666878867U, 0x8899a9aa9a998767U, 0x9a88998977565566U, 0xa9bb787667668689U,
  0x454465b9cbbcabaaU, 0x7877a8cacdbb7957U, 0xa9aaaabbaaaabb9aU, 0xbaaa88999a89889aU,
  0xaa99989aaa9aa9aaU, 0x8aaaa8bbedeeccaaU, 0xaa78889ababbab9aU, 0xcadccdbcaa99a9bbU,
  0xa8a9ba8987677798U, 0x9999cadcddab8988U, 0x88999a8888888888U, 0x8877788778786776U,
  0x67455576a9bbccabU, 0x877787879a998788U, 0x785755557798aaaaU, 0x786665567778ba9aU,
  0x7677878888666766U, 0x7777776745566676U, 0x8878888777668878U, 0x9a78566666666677U,
  0x8788796787a9bbaaU, 0x7788979a89777787U, 0x7886887777665565U, 0x5455555676a99aaaU,
  0x9999998967666646U, 0x9a4723337597aa89U, 0x777787a9ab9aaaaaU, 0x99aaaaba99aa8988U,
  0x9888989967658788U, 0x335477a9ccacaa99U, 0x98aacbddbd8b4634U, 0x7777868877666777U,
  0xa9aaa98888878888U, 0xaabbaa9968655577U, 0x77888956555487aaU, 0xab8a886777667777U,
  0x45656656546687baU, 0x8977766697999967U, 0x665576678799ba99U, 0x55867899ab786666U,
  0x3623888768462353U, 0xbaab797667769877U, 0x9a89787846546587U, 0x9898897887879888U,
  0x887776666688998aU, 0xa989778888888879U, 0x877879776676999aU, 0x6766675555767777U,
  0x7756659789788878U, 0xaa89677698baba9aU, 0x77777887babbcbbcU, 0x9a67553432536576U,
  0x6855557797babbbaU, 0x6567667677a8aa99U, 0x9999897957444355U, 0x7798bb9a78778898U,
  0x8898a99a68566587U, 0x9988673443446697U, 0x8797683433538588U, 0x7677999888576577U,
  0x5554655644335566U, 0x4465777788879889U, 0x8977877877664544U, 0x6477785656669799U,
  0x6588babb9a685554U, 0x9989888878463344U, 0x3243546577777597U, 0x6677878978665534U,
  0x88989a9988987888U, 0xbabbaa8988898767U, 0x76a9aa998997a9aaU, 0xaa9a988978797776U,
  0x6565666666566698U, 0x8778666677787757U, 0x7676777767665688U, 0x5746356577778877U,
  0x7877767768777667U, 0x5545544566665566U, 0x5676664465767766U, 0x7566563524344344U,
  0x7756756688887755U, 0x3243547687888999U, 0x5645445524131221U, 0xa978674444657577U,
  0x88aacbab897798baU, 0x889a684423123164U, 0x77666676989a8887U, 0x44556486b9ab8a67U,
  0x8856456576766655U, 0x7787a98866446477U, 0xaaaa9a7878989879U, 0xbcab898878676687U,
  0x664655667677a9baU, 0x8898889888787666U, 0x9a88769899777888U, 0x113285a99abaaaaaU,
  0xbbaa889868452412U, 0xaa998978886797a9U, 0x5567767898a9abaaU, 0x8887998978675644U,
  0x7855548687888887U, 0x6766767687989999U, 0x7676666666778767U, 0x8777565554555566U,
  0x4434444455666675U, 0x3332438698998a67U, 0x5634638677789957U, 0x4354769879776767U,
  0x7887574544443322U, 0x4466775544556677U, 0x6555646677674443U, 0x6676564543434344U,
  0x6675888788564445U, 0x5633335366655544U, 0x8788786544758777U, 0x4485878957556666U,
  0x7867878989895633U, 0x77777788989aa999U, 0x8867566677788777U, 0x56346497bb9a8887U,
  0x5555767666665665U, 0x6856567677676756U, 0x5466766756648688U, 0x7777777746434443U,
  0x6765875744446476U, 0x2312426477888877U, 0x678789aaaa8a5744U, 0x7877763544436466U,
  0x7486673443436587U, 0x5644544523323344U, 0x5445556688987877U, 0x77a8bbabbbab6855U,
  0x6576877866776778U, 0x8899989857332223U, 0x656687ba67667598U, 0x8a68565565866766U,
  0x9a8978767767989aU, 0x43458699998987aaU, 0xa9aaaaaaaa896846U, 0x57577645447597a9U,
  0xbcccac8957555565U, 0xab9a9a88667688a9U, 0x7798aaba9a99a9bbU, 0x8976776645435455U,
  0x887866768788a99aU, 0xa988776755777788U, 0x997976869889aaaaU, 0x8899babaaaaabbaaU,
  0x9989786745658787U, 0x76878898aa9a89a9U, 0x7598998877775656U, 0x8799aa9989887866U,
  0x68777777889a7867U, 0xbaab9abbccccbb9aU, 0x9988776765767787U, 0x7877778777879899U,
  0xcb9c786666556677U, 0x988987988888a9baU, 0xaaaaaabbaa898878U, 0xbbbbdcbdab999898U,
  0x76ba9b8877a8aabaU, 0x9aaa9a8988888866U, 0xddbc9b7877778799U, 0x77677899aabacceeU,
  0xbbbbbccdac795675U, 0xbcbacbccbcbaccccU, 0xbbabab9998aadccdU, 0xa9aaebddddedeecdU,
  0xcccdbcbaab887887U, 0xbb899aaaabbbbcbcU, 0x99badcdcababbabbU, 0xaaabaaaaaa8a6676U,
  0xb9cbbb9aaaaabaaaU, 0xbabbbbdbccbb9a77U, 0x65465566668799b9U, 0x86bacdbc79464454U,
  0x666666a8aa795644U, 0x8777788788887778U, 0x9a79454355646687U, 0x33344555457698baU,
  0x8978a9aa79576556U, 0x66667576879a9899U, 0x3376a9a989674465U, 0x6856766755665634U,
  0x3344554543546677U, 0x778798a97a454444U, 0x665567a7ba9a6766U, 0x98bbbb8a78674355U,
  0x7867456488897876U, 0x5465676555767787U, 0x9979664534333243U, 0x98786734446485a9U,
  0xa989563565657789U, 0x7777664645456587U, 0x5655544444546665U, 0x7666666777655655U,
  0x66889aaaa9898877U, 0x5464766666777766U, 0x9a57667565766655U, 0x897745344387cabcU,
  0x77768798baaaaa9aU, 0xaa99777677888888U, 0x78868888989aa99aU, 0x9a99988877768878U,
  0x7789aabacbbc9aaaU, 0x99aabb8a67769988U, 0xa999777766877788U, 0x767788a9cccb8b88U,
  0x8889998888898867U, 0x8778687687887697U, 0x8788787845335476U, 0x88989a9999897766U,
  0xaa9a897766879988U, 0xa9ccbb9b889899a9U, 0xaaa9999a9a997886U, 0x6676564477a8abaaU,
  0x8888aacbbc795666U, 0x789a997756556576U, 0x7777777756445476U, 0x6777777656557687U,
  0x7836445575978867U, 0x345476a9bb9a7878U, 0x88878787b9aa9967U, 0x5655767646336476U,
  0x667788a9cacc9b78U, 0x5645344465675554U, 0xa988797766565565U, 0xa89a89565576a8aaU,
  0xaaa9ab8968865666U, 0xabaa6835345476a9U, 0x8898998898a9baaaU, 0x9989888777667777U,
  0x87989888776677a9U, 0x7688baccac887677U, 0x8989888987765665U, 0x9899998a77879999U,
  0xaabbab8967667687U, 0x777898aa89888787U, 0x879898aaab896777U, 0x897888a999897677U,
  0x9aaa9a97bbccabaaU, 0xccbc89677677a9aaU, 0x65889888788888baU, 0x75a7cadbdd9c6744U,
  0xccddbd6745536777U, 0xdcbc7946334387b9U, 0x89776666877877a8U, 0x456554548899aa9aU,
  0x7899cbcdabaa7a57U, 0xbaccab7966554365U, 0x878988676687a9aaU, 0x4433548667455475U,
  0x9c56767777877857U, 0x6535133274caedceU, 0x8878879989aa9968U, 0xaaaa797744666687U,
  0x7799a99a989988a8U, 0xa9aa684544334465U, 0x7777889878666575U, 0xaa9a9a9867776787U,
  0x99896765557698aaU, 0x6666566777779a89U, 0x9999785676988878U, 0x8799998977667886U,
  0x96aaabaa88775776U, 0x99aa897745243255U, 0xaa79573443648788U, 0x56656777668899b9U,
  0x8878674555878877U, 0x6676768798899898U, 0x7887565455565654U, 0x7788776545546577U,
  0x6624115297bbaa89U, 0x3365879979676657U, 0x7756556688785633U, 0x5634012042859898U,
  0x6656667677666676U, 0x6567768957556566U, 0x6745555665667667U, 0x8778788767657767U,
  0x8968455555454454U, 0x649799778798a9a9U, 0x67889aaa9a783543U, 0x8788987957555467U,
  0x5734647687998988U, 0x9898776655778899U, 0x99babb9b68455487U, 0x8698787766455586U,
  0x5566777667674464U, 0x7766555646345543U, 0x444455778899aa68U, 0x6745233344564444U,
  0x4533443322537789U, 0x4477788799785544U, 0x7677676744332232U, 0x5567654544323254U,
  0x4445556676763442U, 0x5655657646232233U, 0x4565676676898756U, 0x6754554444666667U,
  0x9889344333656787U, 0x5376989a78556577U, 0x8878464454564443U, 0xb99a784444345375U,
  0x5545334465564576U, 0x4633335365677656U, 0x4555776675a8aa69U, 0x7677977756667667U,
  0x8799999a9a675665U, 0x9a79351342545465U, 0x555566555476b9bbU, 0x7888684555544444U,
  0x5464556555455576U, 0x7857989aaa885745U, 0x7666446476889778U, 0x547699bacbac8856U,
  0x6767767776564533U, 0x8957656677778777U, 0x6756766767778697U, 0x668799a89a897777U,
  0x64a8dcdecd994644U, 0x6586987866654554U, 0x8789885776869868U, 0xbbac787765554465U,
  0x55545455669899b9U, 0xaacbac8976877878U, 0x7776786755667777U, 0x6555668767465466U,
  0x77577787a9998867U, 0xa99a9a7867667677U, 0x8967464566666696U, 0x787877786787a99aU,
  0xaabbcbabaa989988U, 0x9aa98a57354464a9U, 0x89788978676697a9U, 0x767787887898a9aaU,
  0x768898bbab8a7766U, 0xccac9a8856567677U, 0xa979877797a9dcddU, 0x666698a9cbccabbaU,
  0x8988888899998866U, 0x667697bacdab8a88U, 0x99baab9a67455566U, 0x9a89887888977888U,
  0x6777785734547688U, 0x5544345466757877U, 0x67888899aaaa8988U, 0x99aa998787887788U,
  0x9999b9bbbb9b9999U, 0x7779775544457676U, 0x8878462343657778U, 0x4355666687a9ab99U,
  0x677798aa9a895633U, 0x7788877846352364U, 0x97aaab7967546576U, 0xaa89778888887787U,
  0x8778775754558588U, 0x667597a97a674556U, 0x99aa9a7778877877U, 0xa9aa896745446587U,
  0xbbbb9978566688a8U, 0x99889888787797a8U, 0x7676b9dcfddebc9bU, 0x887786a8dcbc9a68U,
  0x98aaaa9bbbaa8887U, 0x4564557767464465U, 0x888787989899aa68U, 0xccccbb9978777788U,
  0xbbaaaaaa998888b9U, 0xab99badceeffdfbcU, 0x8989a899888799baU, 0xcbac77454598bbabU,
  0x65656698a9aababbU, 0xdcccccddbc8b4745U, 0x77898987787698bbU, 0x897887a99a998777U,
  0xbcaa8a7767887787U, 0x5565778798caedddU, 0x88aa9abbbaa97865U, 0x9a67667677889888U,
  0x547588786676aabaU, 0x6745657688783543U, 0xbabcbbba9a79879aU, 0x66777766557799aaU,
  0x4544649889897867U, 0xaaaa88a89a8a6856U, 0x69463534445586a9U, 0x464545554475a9abU,
  0x79777798a9aaa988U, 0xbaac787888a9a9aaU, 0x87879898887687a9U, 0x665596caddbb9a78U,
  0xa9abaabbbb898877U, 0x8898988a77767798U, 0x99996686b9ab9a89U, 0x6767677797bbbbaaU,
  0x8887776745455576U, 0xccba99ba9b9a8888U, 0x767799aabbccbccbU, 0x7787999a88776655U,
  0x6735334375867766U, 0x8967546577777688U, 0x87a9aa9b89888998U, 0x7777686745435454U,
  0x6766779889676687U, 0x5576878878464465U, 0xab8a888787897867U, 0x87887766344387a9U,
  0x6567675756566666U, 0x7787987868455454U, 0x7678887787766656U, 0x9979665766765665U,
  0x98886777989aaa99U, 0x7789999988889998U, 0xccab8a9888775555U, 0x3522a9a9787786a8U,
  0x4434548798988958U, 0x99888799cbcdab68U, 0x878878768798aaabU, 0x9998aabaab685476U,
  0x8856445566769989U, 0xab7a666575879799U, 0x576577999999aabaU, 0x556588a9aaaaaa78U,
  0x9999ab9988888977U, 0x9988664466777697U, 0xaa9b788788a9aaabU, 0x77675766666597a9U,
  0x89aa9a7966674565U, 0x6667558688999898U, 0xcb9a676676999989U, 0x9997899998a9bacbU,
  0x9a9978767798bb9aU, 0x9a787777979998aaU, 0xbbbbab8a889999a9U, 0xcbac8966346576a9U,
  0x885654658799a8caU, 0x546588aa9aa99988U, 0x8997989aa9bc8957U, 0xbafdefbd79667687U,
  0xa9dcbcab7a7787a8U, 0xa9ba9a7876787787U, 0xaabbcbcc8a777798U, 0x99aa998967666788U,
  0x88aaaaba99787788U, 0x6687898888886767U, 0x8788899899997856U, 0x3543658688897876U,
  0xaa9bcbbbab9a7857U, 0x76888967445486a9U, 0x7888997777776565U, 0xcc9a574575a8bc89U,
  0x66667687889999aaU, 0x98a9babbbbaa7956U, 0x9a99ba9a89778888U, 0x6578977844869999U,
  0xcbab8a7777886756U, 0x6688a99998a9aabaU, 0x75bacbcbbbab8967U, 0x6687877988987755U,
  0x668799a99a884555U, 0x8999897888898876U, 0x7797cacc9a897798U, 0xa9cabbbbab9a8978U,
  0x9a89887877776576U, 0x8888a899787776a8U, 0x668698a9aaa98978U, 0x86879a9a79474566U,
  0x7877657687777777U, 0x8877777676766676U, 0x6676667786a9aa99U, 0xcbccbb9999776666U,
  0x4656768888a9a9a9U, 0x4553446687897857U, 0x56667597a99a7966U, 0x6767565576989a78U,
  0x565676768799aa89U, 0xcbbcab9a99887666U, 0x76877756565475b9U, 0x346487a999795755U,
  0xba9a583554767756U, 0x46341222437576a9U, 0x5633335476888979U, 0x6756445577777766U,
  0x8955231232444565U, 0x5465777775999aa9U, 0x7787786766666635U, 0x4444444544534566U,
  0x2333536576797656U, 0x8877888899997845U, 0x4433323342768988U, 0xa99a786577776754U,
  0x6556443423547697U, 0x7798886655343364U, 0x6667766665567767U, 0x7755669778776667U,
  0x9879675656557677U, 0x5564554554877866U, 0x5565768777888867U, 0x8778776756754543U,
  0x7677677688776567U, 0x7678667776676767U, 0x5387aa9a88786666U, 0x6644556466553322U,
  0x4433336556768777U, 0x6776879979564454U, 0x8767675434548667U, 0x8977777667766786U,
  0x8777465577a9ccbcU, 0x9998679744536677U, 0x8968766687a98a88U, 0x77876778887887aaU,
  0x557598aa8a787879U, 0x78556577a8babb8aU, 0x99aa9a785687b9abU, 0xaa796755667887a9U,
  0x6644437598989999U, 0x7877667677675676U, 0x8867667799aaaa9aU, 0x9a89877866769889U,
  0x4543758757868888U, 0x7788999998888867U, 0x7978686744546577U, 0x9878786745768788U,
  0x7788995833337578U, 0x7666778889887787U, 0xbcab798888887787U, 0x777766444475a8dcU,
  0x79674687989a9878U, 0xbccbbbbbbc998998U, 0xbdab7835557699baU, 0x9a98a99aaa88a8dbU,
  0x6867777798bbbbaaU, 0x857899babbbb9b89U, 0xccccbbac8a887754U, 0xb9cbbcab989899baU,
  0x68778898a99a8998U, 0x9a88888898998a88U, 0x9c77565586a9ba99U, 0x79776787a9ccddcdU,
  0x8a8787a979978989U, 0x78677688a9bbccbbU, 0x98bb9a878889a9aaU, 0x988888b9aa887677U,
  0x888787a9baaa9a99U, 0x98a8aaa998887777U, 0x77888a9977878888U, 0x887788a99a9aa998U,
  0x999aaaaaaaaa8988U, 0x7877899aaa896776U, 0xabaaa9aaab897798U, 0x6866668799babaccU,
  0x997887a99aaa9a89U, 0x77a99acabcbbababU, 0x8899998888779888U, 0xa98898aaaa9aaa9aU,
  0xcb8a87a9dcddaba9U, 0x98a9bbabab9977b9U, 0xaaaa89687686b9aaU, 0x7897aaababbbbbcaU,
  0xbbbb997878767687U, 0x9b8777998998a9bbU, 0x99cbddceccbcabbbU, 0xaabb9977887775a8U,
  0x79a9babb9a676687U, 0x8977555576769898U, 0x9a78565565988889U, 0x888877877877a9abU,
  0x897966658699aaa9U, 0x5643447687788898U, 0x66568697cadcab79U, 0xaaaaaa9989787756U,
  0x56768878665465aaU, 0x9889566597ba7957U, 0xa9cbcdbc79668877U, 0xaa99888967556585U,
  0x9899aa8a77778898U, 0xbcbba98877777797U, 0xaba969455586a9ccU, 0x87786688998998abU,
  0x89787777a89a8988U, 0xbc9a786798a9aabaU, 0xbabb9a56455476a9U, 0x5656767788988989U,
  0x8898aa9aaa998778U, 0xbabbabba99775665U, 0x776766757798a9aaU, 0x7799999999898988U,
  0xa988889998986766U, 0x9a79786766668799U, 0x68547677668798bbU, 0x887778779899a89aU,
  0x7866445455557687U, 0xa9baa989676577a8U, 0x9a98897857556588U, 0x564532438699b9aaU,
  0x65658899aa998867U, 0x8877889878896655U, 0x445587b99b685575U, 0x8777555465978956U,
  0xa979876675879987U, 0x8877455565567699U, 0x5654666776666566U, 0xaaaaaa7936227877U,
  0x677777878899b9bbU, 0x7788a98877766677U, 0x9a68564644657687U, 0x7867766788cbdcbbU,
  0x9978878878787878U, 0x565444657688aa9aU, 0x8987776756567666U, 0xaaaa9a5734537498U,
  0x6698aabbba999a97U, 0x3432546656655664U, 0x657798b9bb895634U, 0x5565664534223253U,
  0x6746658777887766U, 0x4355446586a89988U, 0x6766656655454332U, 0x2131547677779988U,
  0x5376c9dceeac4723U, 0x7787778788997846U, 0x7756659799a98978U, 0x7788989988889889U,
  0x9a89787887565555U, 0x88989aa9aaabababU, 0xbbaa99678799aa89U, 0x5545333376a8bbbbU,
  0x99aacbcdab897666U, 0x8966673444657778U, 0x887788a8aa9a9a9aU, 0x877777878798999aU,
  0x787798a999a99998U, 0x3444333375b9ccacU, 0x6756667688886756U, 0x98a99a5844445566U,
  0x8889767877676676U, 0x4655565555769899U, 0x4444668787876766U, 0x6566657697887745U,
  0x6555546576667756U, 0x5565666686887756U, 0x8778898877675645U, 0x7777667778889788U,
  0x87aaaa9989888977U, 0x5576888988998878U, 0x9a787778a89a7866U, 0x675665878898babaU,
  0xaabb899887776766U, 0xabbb8a8867567588U, 0xbbbb9a7977789899U, 0x78678688888899baU,
  0x9aba9b7888989899U, 0xa9aa799889998999U, 0x6745557688a8aa99U, 0x9899997876667676U,
  0x6834336588787776U, 0x45545486889aaa99U, 0x6676555566777868U, 0x6667666667676756U,
  0x8798886746433355U, 0x6746231131434476U, 0x5654657689878978U, 0x6666777745334366U,
  0x4455777877666566U, 0x3433648778674544U, 0x8778576576886656U, 0x98a9aa8967667778U,
  0x8878886855547567U, 0xaabb998878777788U, 0x56644545656798a9U, 0x8898888988664655U,
  0x7877676765557787U, 0x5654675555768898U, 0x8877778988777657U, 0x6496998967668788U,
  0x7988572401001032U, 0x4354767888988899U, 0x3544346476988746U, 0x87a99a8988888a69U,
  0x5655667877676676U, 0xbb8a674544545556U, 0x6745444344346398U, 0x3544534454557677U,
  0x3254879898886756U, 0x8967575534231111U, 0x343354657788a8aaU, 0x889888a889786756U,
  0x8788584445446487U, 0x5645666665767778U, 0x4444555655557656U, 0x5466675666564544U,
  0x8777776755445456U, 0x88a9684533335465U, 0x9878776766777888U, 0x6845343454778799U,
  0x3523336598786787U, 0x86aa8a889a997777U, 0x6667889889575654U, 0x6966678877787766U,
  0x87a99a6854859898U, 0x7898997988676666U, 0x46656697aaaa9a9aU, 0x99889898babc9a68U,
  0x9878676665556586U, 0x7866656676676686U, 0x888788a9babaab9aU, 0x8889989998898989U,
  0x8977784655648788U, 0x99b9bb9a9988aabaU, 0x4475979978667688U, 0x6676a8aabb8a7946U,
  0x879898a9aa889978U, 0x998899aa88677776U, 0x2264b9bcaca98988U, 0xdbddcbabaa895724U,
  0x7988989989777699U, 0x8698aabbbb8a9998U, 0x8788a9cbbc8a7766U, 0x7799cbbc9a8a7778U,
  0x9a67677677778866U, 0xedcdbdaababcbcbcU, 0xabaaa99a8877b9ddU, 0x87889988a9dcdeccU,
  0x9978687787785677U, 0xaaabaaaaa9abbbabU, 0xbbababba9a898987U, 0x798999a99a9a9aaaU,
  0x97b9bbbc9a898788U, 0xcacdccac69465576U, 0xba998787a9bbbbbbU, 0xaaabbcab78678798U,
  0x778778a9aa7987a9U, 0x988898999999aaaaU, 0x9898a89a989a8978U, 0xcaccaa8967668787U,
  0x89897777766766a7U, 0x888799bbabbba99aU, 0x89667698aabbbb9aU, 0xa8bbbbab89677689U,
  0x9999979978565477U, 0x666676465476999aU, 0x7797aaabaaa97968U, 0xcbab685655667687U,
  0x996866878889aabaU, 0x7687a8796697aaaaU, 0x8799777676877877U, 0x8877676766659778U,
  0x98789898a99a7877U, 0xaa9b895645326587U, 0x34446497a9a9ab9bU, 0x88899898988a7855U,
  0x3444758899a9ab99U, 0x6677567687675535U, 0x33435587988a6746U, 0x5577776687775644U,
  0x6745546797785744U, 0xa999887867777788U, 0x6746453443647799U, 0x5545759abbbaaa88U,
  0x9999786734344454U, 0x4553667757454364U, 0x5555557677a8aa68U, 0x9899998899896777U,
  0x5755557587789888U, 0x457688a8aaa9aa89U, 0x77666699aa997856U, 0x8768556567666677U,
  0x8697999879666777U, 0x7799889988675555U, 0x7876777698aaaa78U, 0x8799988967557678U,
  0x7888a99a78656675U, 0x78888898baaba989U, 0xbaaaab9978778877U, 0x9a574454868888a8U,
  0x8856556598aaa9aaU, 0x7697999978878798U, 0x8689999957344354U, 0x5565779879576555U,
  0x76a9dbeebd8a6665U, 0x7887777766777677U, 0x8787776666778899U, 0x9988877746434466U,
  0x55555545547689aaU, 0x7857454476776756U, 0x6577775665767797U, 0x6666544376977857U,
  0x4475899a98777766U, 0x5656668798896746U, 0x8899555566766666U, 0xa9cbbb9a88677788U,
  0xa9baaa8957446687U, 0x5666555464656687U, 0x7887787776777879U, 0xa8aaba9a78556567U,
  0x8767655455447576U, 0x75889a9988888988U, 0x776776a978454444U, 0x99998798aa9a8888U,
  0x77776766779898a9U, 0x5555666656546565U, 0x5566656798898867U, 0x3433335476875766U,
  0x7799888978686566U, 0x3253878877667777U, 0xb9dcfedebc795634U, 0x7777452232234286U,
  0x3242657788887866U, 0x5555764644344323U, 0x2233547688897867U, 0x7698b9bb8a877834U,
  0x9a88675565565677U, 0x5554667667769799U, 0x8799788687997855U, 0x7887778878666576U,
  0x44547588999a8778U, 0x5655556666565545U, 0x7777788777668878U, 0xbcab997866656676U,
  0x99aababc9989daddU, 0xba9b897855757687U, 0x7677685545546588U, 0x6787675766767766U,
  0x9978889988777676U, 0x9978567677678798U, 0x5656779888766587U, 0x7666766766665665U,
  0xaa89673443546476U, 0x6566887889898887U, 0x9a99776787674554U, 0x11101153668798aaU,
  0xab89574453452322U, 0x7877775545658799U, 0xab78555455769899U, 0x998a6866557698bbU,
  0x5577989889898989U, 0x8888889899785656U, 0x9967565465779988U, 0x76999899787787baU,
  0xcbdcbba999898857U, 0x9b685675878897a9U, 0x9889786786b9ccccU, 0xa898aaaa99777788U,
  0x8967777777778999U, 0x8888badcab897899U, 0x6866667798786776U, 0xaa89666655558688U,
  0x6378787787a9babbU, 0x6698aaaa9a674421U, 0xab99786755765755U, 0x867797a9aa99a99aU,
  0x5645343233435466U, 0x7866454564778767U, 0x9788674554989999U, 0x4533446666767766U,
  0x6646658888888968U, 0x889a999878887866U, 0x7687a87856565666U, 0x9878776666677766U,
  0x7755433454778889U, 0x7677664665777777U, 0x6765768899898878U, 0x9a6654546675a888U,
  0x65666644445487a9U, 0x889999a978564445U, 0x8998b9bbaaa99a88U, 0x6677889998aacaaaU,
  0x555567979a9a7766U, 0x6534435576777777U, 0x99cabc8a77776766U, 0x565676979a898899U,
  0x3444457667768888U, 0x6687a99a78564445U, 0x5656667777576666U, 0x66678799a9cbab78U,
  0x7897989879876766U, 0x4423212232436577U, 0x7587887766656666U, 0x5544456465666554U,
  0x5766556687888867U, 0x7776877899996877U, 0x4475988987998979U, 0x99babc9b47121011U,
  0x5756656766656698U, 0x6566777666456587U, 0x9977676554445555U, 0x9878663534536688U,
  0x6576675534324386U, 0x7787775766463333U, 0x4454548677787877U, 0x89aa997866654543U,
  0x7865564454658687U, 0x324365557588999aU, 0x5465665655452323U, 0x7798899899676546U,
  0x5554656798897877U, 0x8967545487897766U, 0x45546587babb9a89U, 0x9877767788a97957U,
  0xaa89776645456587U, 0x45445465658798a8U, 0x5567a8bbab896655U, 0x5665664533434354U,
  0x6687777776889978U, 0x7687989958341331U, 0x4244565565879979U, 0x6576666755344412U,
  0x5534341121312243U, 0x2311113265666666U, 0x6666667787896646U, 0x7877554534235365U,
  0x7777666555758889U, 0x3322323222124265U, 0x5555665523325445U, 0x6676665565776746U,
  0xa7aaba8867565545U, 0x3633437567555556U, 0x6645453453758867U, 0x6676676666766777U,
  0x9978566686887767U, 0x989a684545557698U, 0x7967546577676688U, 0x65664544447599aaU,
  0x6756453344547677U, 0x87887798aaaa8a89U, 0x7788887676787878U, 0x5576675645434465U,
  0x5655657755345354U, 0x6556556666555545U, 0x6566564433444443U, 0x4354666634223255U,
  0x8956344353657756U, 0x8956455455565485U, 0x5534333333538789U, 0x3323335464898956U,
  0x5466453312312333U, 0x4522325467757756U, 0x5476998968546555U, 0x9977465565665656U,
  0x33436598aaaaa999U, 0x4444557657553422U, 0xcccc9a5765876746U, 0x5465989a776665b9U,
  0x5666576578878867U, 0xab99573422114364U, 0x66766667779999a9U, 0x9888676787aa8a67U,
  0x6676866777658788U, 0x676666879a896665U, 0x5555655665667767U, 0x98aa687656445554U,
  0x4455466677779998U, 0x435576889a884655U, 0x7788786767666734U, 0x75676576a9997887U,
  0x4364879a78454555U, 0x7778878988778857U, 0x7867655466677678U, 0x6676765645768879U,
  0x2333435487a98a78U, 0x5656766667666655U, 0x686777a9aa8a6766U, 0x7767656688aabaaaU,
  0x777767766698a99aU, 0xbaab888868667677U, 0x779899887897a9aaU, 0x7788988888888777U,
  0x5565777888888866U, 0x868988988a795645U, 0x88a9ccab78554454U, 0xccddbc8966657787U,
  0x67888878565587b9U, 0xa979887877a99989U, 0x5755444334436488U, 0x6577baaa9a788778U,
  0x98baccbc89576546U, 0x7676777767666688U, 0x7868345487875466U, 0x786677878799a999U,
  0x7778888878889888U, 0x9b88786666878788U, 0xba79465576a8cbccU, 0xa97956234364a8baU,
  0x7867464455657788U, 0x8897887777678678U, 0x99aa988787768788U, 0x5555557698988987U,
  0x9a78786766867756U, 0xaa99684554667799U, 0x764643434576a8aaU, 0x7767778788796766U,
  0x8957352343667678U, 0x66665533445676a9U, 0x3223446587795755U, 0x897798babc9b4634U,
  0x7677676676a9cbbdU, 0xcbabba8b88786777U, 0x77889977777787baU, 0x654465979a897767U,
  0x9978889898998867U, 0x669799787798999aU, 0x76bacbabaa684444U, 0xbcabba9b88684554U,
  0x89989878675686b9U, 0x878799a9aa8a8898U, 0x5577788878667688U, 0x4444659889675554U,
  0x6755342353667667U, 0x8789685655767675U, 0x7687a99989795666U, 0x8777574454545466U,
  0x4523345556766676U, 0x5564666578878767U, 0x7766765655667765U, 0x67344476a8babb99U,
  0x5664868789a98999U, 0x8877789899887766U, 0x557588999a787788U, 0x87b9edffbeab6745U,
  0x676698a989999a78U, 0x5487888788788877U, 0xbbdbedde8a572433U, 0x88786655667699a9U,
  0xa9aa9a9889778898U, 0x899899aa79888888U, 0x9899999a78889988U, 0x9baa7a5566677687U,
  0x778777766787a9a9U, 0x8989664654667777U, 0x437576675576a8aaU, 0x67567697aa896645U,
  0x663332545576ba8bU, 0x54656686a9aa9a77U, 0x98ab9a8867343233U, 0xaa8a575555335576U,
  0x78877776887798aaU, 0x6644657787897877U, 0x8777665576878978U, 0x6645558777788888U,
  0x876677a999677778U, 0x8788998966557788U, 0x66676787cabcaa98U, 0x8a6766565587a978U,
  0x5565657598a9caabU, 0x99a8baaa99897756U, 0xbbbb8a776687a9abU, 0x6677786754447698U,
  0xbaa9a98879788778U, 0x9989989a99796787U, 0x4595dcbcab887778U, 0x9a68564433546665U,
  0x32437588a999b9abU, 0x6677989a99894622U, 0x8698896866778868U, 0x5556777755656565U,
  0x8778776746454454U, 0x465476a879775574U, 0x5745546677878877U, 0x5676a9aa8a667777U,
  0x45556677a9cb7a56U, 0x8777563533433344U, 0x6767779989676676U, 0x6766555577a99a89U,
  0x8898997756545576U, 0xbb8a685634547687U, 0x87a989575565a7aaU, 0x68667698a99a8977U,
  0x8999776666879999U, 0x8899786655657688U, 0xaaab9a8878888788U, 0xaa99777787767787U,
  0x76a8bbbaaa791400U, 0xa8cbbc9a67442443U, 0x8999788777556676U, 0x8688794654667786U,
  0x7746547598996766U, 0x6665565597999989U, 0x8899888789797676U, 0x6565565666767777U,
  0x68667798a9794644U, 0x56556576b8cbac9aU, 0x5545334475979978U, 0x555555568799aa79U,
  0x9999988945345445U, 0x6866456565564375U, 0x44226488aa8a7777U, 0x7688666678979879U,
  0x647698baab563454U, 0x3265a9aa8a673433U, 0xab77787886774634U, 0x89462344337599baU,
  0x6687baa988788799U, 0x998a787777677666U, 0x6687a99a78775686U, 0x9a77667756868856U,
  0xbbbcab9988989aa9U, 0xab68455454657598U, 0x99887766565687baU, 0x9a686567879899aaU,
  0xa99a68335366a8aaU, 0x4475999a676798a9U, 0x8788678799896744U, 0x9799996776775586U,
  0x7777887756344365U, 0xa8a9aa9966463464U, 0x6655657656346587U, 0x34226398ba7a7667U,
  0x5466767776879957U, 0x6755557777576544U, 0x5577897844235466U, 0xa989666666454565U,
  0x6697baac8b8987a8U, 0x4543868887464456U, 0x7578887857557667U, 0x8a77879867444365U,
  0x98796745124397baU, 0x3433335487a9ab9aU, 0x9988777677997946U, 0xa8bbaa5734537688U,
  0x9a78676766667777U, 0xa968455454a889aaU, 0x7878767676667589U, 0x3464886767877776U,
  0x78a8996755554544U, 0x5466788857354386U, 0x6677665645557556U, 0x4533335477775566U,
  0x7777574555665666U, 0x3443344455668798U, 0x4375874612314555U, 0x4533436457342311U,
  0x66444476b9bb8a56U, 0x6735232343659778U, 0x3454447576777787U, 0xa9ab786745324344U,
  0x5544344365444485U, 0x4565868846659779U, 0x7677888798aa7866U, 0x4575989967465555U,
  0x3354757888786677U, 0x55656677a9ba7a46U, 0x998a678799675676U, 0x98a9998856454354U,
  0x5387caad58657587U, 0x775577989a684513U, 0x6697897768668778U, 0xcccceeac79444445U,
  0xaa99788888a8babcU, 0x9a68776655768799U, 0xa98a7777686675a8U, 0x7778676646336587U,
  0x7867657767667678U, 0x74a9cbaa78566588U, 0xa988665645353233U, 0x87a8797745326397U,
  0x7856554456788789U, 0x7846766787999978U, 0x674564455475b89aU, 0x33324475a8aaab98U,
  0x5577564465887756U, 0x8888786786774533U, 0x6666575665768687U, 0x5587998989878878U,
  0x9a88778699896844U, 0x98aa3344757698aaU, 0xaa9a897856456586U, 0xab89565444658898U,
  0x998988786697a9cbU, 0x76aaaba9baaa8888U, 0x676776a9dbac7766U, 0x7877879899a99987U,
  0x6776776777876887U, 0x66879899989a9977U, 0x98988a98a9ab9a78U, 0x88888887a9baab8aU,
  0x7776678788889a88U, 0xaa8898a999986866U, 0xaa8977666687bacbU, 0x8778659799685587U,
  0x6776988899876764U, 0xbaaa8a8788877887U, 0xddcc8b5744436497U, 0xbaba8a47436598cbU,
  0x578798abaaaa9abaU, 0x8a9999aaaa89aa89U, 0x7867656687babb9bU, 0xaa9a9999bacbbb9aU,
  0x7699aa9a79778999U, 0x87bacabb9a786656U, 0xccac897777577777U, 0x79456397abbaaacbU,
  0x7798a9bb9a89ca9bU, 0x9988a9aa99787787U, 0x67767686b8cbacaaU, 0x64a9ddbc89778988U,
  0xb99b99a9ab7a4634U, 0x76676676a8ba8a87U, 0xab79868788999a78U, 0x87988967546598abU,
  0x6777889a9a778888U, 0xaaaaabab89776777U, 0x9898898778778798U, 0x99a9899988676677U,
  0xbbbbab7955547688U, 0x8a6867766776999aU, 0xaba9786755768799U, 0x7796a99a676598bbU,
  0xcccc9a7878778888U, 0x9aa9dbbdac99babcU, 0x77877867656697b9U, 0x889abbccedce7977U,
  0x797799bbbccc9b78U, 0xab9a787877badcacU, 0x78677788998787aaU, 0xaabbbacbddccbc89U,
  0xaaab887888684697U, 0x678799aa9aa9babbU, 0xcdab897987987867U, 0xab9aaa89687697baU,
  0x779899998898aabcU, 0x89887798998a4565U, 0x56456577a8bbbb9aU, 0x66667688bacc9b79U,
  0xbbabaa9a99aabb79U, 0x447698999b8898aaU, 0x658599abaa895634U, 0xbb89989999997877U,
  0x899877567678a8cbU, 0x4543437677566677U, 0x67566677a8ab9a67U, 0x555676665565a9aaU,
  0x7768657677886756U, 0x9988876744447666U, 0x5466768898a99998U, 0x7778888997995744U,
  0xa989575565354255U, 0x7965768798777798U, 0x687566554485dcabU, 0x6677888867668788U,
  0x98abaa5743546557U, 0x6667554533547577U, 0x5634445587aaaa78U, 0x7867667587778868U,
  0x7957547589887778U, 0x66445455557698aaU, 0x7856546688676666U, 0x89a9683444658687U,
  0x6744446577777788U, 0x6855443453758888U, 0x4465657698998878U, 0x113276baab9a6755U,
  0x5587a99989788846U, 0x5498a98a68463343U, 0xa89a895554656734U, 0x3544548689786676U,
  0x66779999a9a99a67U, 0x7698776876888777U, 0x6745558767675656U, 0x776645439b786777U,
  0x7787666767666677U, 0x9889675566547577U, 0x44659798a9897777U, 0x9989887877777746U,
  0x574444444564889aU, 0x7767576687777677U, 0x8889986855556577U, 0x6655547676677687U,
  0x6655566667777667U, 0x6565454456656666U, 0x7866757756545555U, 0x8677465475878887U,
  0x87a9aaaa68667566U, 0x7878876856454464U, 0x4355766755657888U, 0x5477886834534544U,
  0x96cbcdab79463342U, 0xbbdbcdbb8a362153U, 0x978a788877989abaU, 0x8898b9ab9a997877U,
  0x7788786776778899U, 0x879799baaa9a7867U, 0x787788baccaa7977U, 0x8988777797a99978U,
  0xcabc9b5735548688U, 0x7776566566768798U, 0x88a9dbcccc8a6777U, 0x6687889889786667U,
  0x5534445576879878U, 0x8967445575667777U, 0x887788a89abaabaaU, 0x8888676667768798U,
  0x7878676766777987U, 0x7888978877676577U, 0x7766657677675666U, 0x64a7cbcdcc8a8887U,
  0x777798a898573444U, 0x8899aa9a99897966U, 0xabaa998866465575U, 0x9a899878889998baU,
  0xaa8988988a777798U, 0x99787777a8bbaa9aU, 0x9988aaaa79777798U, 0xcbab98a9cccbab89U,
  0x55759798abaaa9baU, 0xddcd9b7887aa9a78U, 0xcb9b9988785787caU, 0x896777b9bababbbcU,
  0x9b9aa99a89999999U, 0x6875677687a9abb9U, 0x6667879899987898U, 0xaa786687b9ab7957U,
  0x44859999787797b9U, 0x667867a8ccad8846U, 0x4566879999787767U, 0x9b79777787777755U,
  0x768787776686b9ddU, 0x88a89a9989887667U, 0x6677675675779899U, 0x6655446397897967U,
  0x9aa999a889796777U, 0x7687987887aaab9aU, 0x8998999989785756U, 0xabaa9a9898bbbb8aU,
  0x768898a9887797baU, 0x999aa9baab887756U, 0xaba9898887788888U, 0x9b89675687caccbcU,
  0xab99a9aabacbbcccU, 0x898888a8badcddccU, 0x99898899baccbb9aU, 0xcabcbcab88778799U,
  0x8a686787989889a8U, 0xbabbaa8a98babcaaU, 0x75a8bbbbac8a8798U, 0xbbaaaacabc793454U,
  0xdbbc897866a7a9abU, 0x99a9ab9a787798baU, 0x888899a9bbdbbdaaU, 0x7846444444759799U,
  0x9999aa9978676577U, 0x9998aabb8a667677U, 0x7699b99b8a788788U, 0x86a9caab69242343U,
  0x7877666667666656U, 0x8878665554558787U, 0x67555576a9ba8a88U, 0xa99a899899a98989U,
  0x9988889999787788U, 0x887675879899bb99U, 0x675667669788a999U, 0x9a676777988a7867U,
  0x556487999899baabU, 0x7788777777347855U, 0xaabbac9968565575U, 0x7678887977757677U,
  0x7745344465776565U, 0x4476677666677777U, 0x7777676666565645U, 0x9988786765768779U,
  0x6677675666667688U, 0x8977566566777967U, 0x353321224376999aU, 0x7677877877777757U,
  0x5665557677878877U, 0x5534333332334343U, 0x5475a9aa89887866U, 0x8787775665656756U,
  0x9899998877674476U, 0x567798a999794585U, 0x556587aa88675665U, 0x5477787787787767U,
  0x6777667788884545U, 0x55566577a9ab8977U, 0x65668698ab897777U, 0x999a897876565576U,
  0x998877667576a8aaU, 0x6597788699789899U, 0x4466978847544444U, 0x6555447587898857U,
  0x54455587baab9a77U, 0x5545658777787877U, 0x8878555565666665U, 0x7765554465767799U,
  0x7766676677868877U, 0x446687aa9a8a8768U, 0x7787796756757666U, 0x5566767788897877U,
  0x5666778899aaba79U, 0x68766788999a8968U, 0x9a998888a9bbab99U, 0xaaaabaccaa9897a9U,
  0x659698ab8a787697U, 0x7866575466666766U, 0xdcddbc9aaababc89U, 0x9a8a897787a8bacbU,
  0xbaab897798aa9b99U, 0xbcbbab5845437698U, 0x887877778798bbcbU, 0x5565767868668789U,
  0xabaa9a9989988868U, 0x88aa99787689a9bbU, 0x8768677699898989U, 0xbabb9b7835335476U,
  0x67565354557698aaU, 0xa89a9b896776a9a9U, 0x8967556577776777U, 0x5645556577a9dcacU,
  0xaa89777687a87857U, 0x96aa797687a9bbbbU, 0x6654445476875766U, 0x9a79778866556565U,
  0x9978788899b9baaaU, 0x6778889988bacbbbU, 0xbcab9a8767656666U, 0x9a9999998a99babbU,
  0x8899a89998a9a9bbU, 0x8889a9cc9a897687U, 0x767787a9dbedddacU, 0x7798aa99a8ba8a78U,
  0xccbbbabbaa898967U, 0x77777778666797caU, 0x99aaaabaaa9a7977U, 0xbcaa786866669799U,
  0x7578a9bb99a9bacbU, 0x87aaaa99a9997866U, 0xde9c685465877766U, 0x65a7aaab8977a8dcU,
  0x565476a9bb794635U, 0x5565546587baab79U, 0x6677867877766545U, 0x8888888788987867U,
  0xcbbc797788a9aa89U, 0x44646667768888aaU, 0x75b8ccddedcdab69U, 0x998988a889584544U,
  0x66565565779999aaU, 0x684666a8ccccab79U, 0x87caccab9a998888U, 0xbbababbaba9a8977U,
  0xbb9a77556477aabaU, 0xb9bbabaa796676a9U, 0x8888777877778888U, 0x547677878789999aU,
  0x7867556566663434U, 0x8688997878779798U, 0x8778667787785655U, 0x87a8998888a98978U,
  0x8999aa9a98786766U, 0x998877668799aa99U, 0xbacbab8966888799U, 0xbabbccab896786a9U,
  0x75778879766677a7U, 0x98baaa7977665665U, 0x9899787688787786U, 0x9a98788777676565U,
  0x78564475879899aaU, 0x7797a99999778899U, 0x7766565556767778U, 0x8977776665668877U,
  0x7777887887878899U, 0x5675878777576567U, 0x558799a999889878U, 0x7757657677565555U,
  0x8967777789a9aa99U, 0x998ab9cbbbccab99U, 0xaa9a77776688a9baU, 0x767687a9aaaabbbcU,
  0x99ab897887989868U, 0xa9aaab9a796686a9U, 0x8978677667657787U, 0x88bacbddddccccabU,
  0x8868565666677687U, 0xbbbc9b8878777687U, 0xba8a67567698cbbbU, 0x777767667788a9bbU,
  0x8888787766776677U, 0x7877786736335375U, 0x5465779789777788U, 0x7677777767443333U,
  0x8957557677897865U, 0x6735323232337588U, 0x6745456587666676U, 0x7867555555769799U,
  0x8878574434436687U, 0x7777666677566587U, 0xaa89454476889977U, 0x5644557587a9ababU,
  0x88778799abbb8968U, 0xbabbaa9987678688U, 0x9abbbaaa886788baU, 0xccccbc9a8989999aU,
  0x77a9bbbcba9aaaaaU, 0xba99786776987977U, 0xa9aabbaa89888898U, 0xa9aababbaa998799U,
  0xbbcc9b8878979a88U, 0x888899aa89788898U, 0xaabbac8977676676U, 0x6656879989777697U,
  0xa999675565769978U, 0x9a888777777798aaU, 0x8877887866769899U, 0x8797a9bbabaa9a89U,
  0x5565877767676566U, 0x99a9aa8a77554454U, 0xaa88878888887777U, 0x8989667786877798U,
  0x9999896766779899U, 0x6867455466b9babaU, 0xbabaab8988777666U, 0x674443456588a9aaU,
  0x7767555554979999U, 0x6566777777666777U, 0x6676767887787655U, 0x6486a9aaab997767U,
  0x8778768889886655U, 0x5666566666555587U, 0x5466778877787767U, 0x667666a8bb8a6755U,
  0x9999aa9958444344U, 0x57344375889a8a88U, 0x7757657787888878U, 0x5544758788776767U,
  0x6656555576886755U, 0x7866444555565577U, 0x6575676776876878U, 0x6735122232656655U,
  0x6645556677768778U, 0x88aaa98966455467U, 0x6787989a68565476U, 0x9887775554777766U,
  0x5655868779879888U, 0x98aa9a9a88787767U, 0x5377778856344365U, 0x8888999988775643U,
  0xa99a797786989999U, 0x3343548689889998U, 0x87a9abaa8a786745U, 0x556597cacdbc8976U,
  0xaacb796665667756U, 0x9899babbbbabaaaaU, 0x75676787a9baab99U, 0x99a8aaaa9a784534U,
  0x7777655566877898U, 0xaaaaaaaa8aa98978U, 0x7776666667567598U, 0x6698bacccc9a9978U,
  0xa9aa885655444465U, 0x446597bbab897786U, 0x6567877856556545U, 0x5645557788886765U,
  0x9878573454646667U, 0x3534445464567687U, 0x89777766a7cbab67U, 0xa979564555656697U,
  0x1221536688cabbaaU, 0x11226497a99a6925U, 0x554475c9dd9c4723U, 0x4565776677887867U,
  0xbbbcab8977785554U, 0x76667877878887a9U, 0x8878555655869888U, 0x88677799babcab89U,
  0xbbaa9aa9babcbcaaU, 0x989899887877a8baU, 0x9999896766a7aa9aU, 0x8989675666565487U,
  0x7867778798899999U, 0x767687aabaaa8988U, 0xaaa9aabcbc9aa979U, 0x99896755455577a8U,
  0x888898998987aabaU, 0x8a77785675777887U, 0xaa795777889899baU, 0xdcdd9b787698b9abU,
  0x54657789777887b8U, 0xcbab886776877857U, 0x9a776787999aaaabU, 0x68576587a9cbccbdU,
  0x86aabc9a78668788U, 0x6466775533333243U, 0xa7bb8999bb9b3542U, 0x769899aa89787766U,
  0x6766666787787677U, 0xa97877bacccdac8aU, 0x7776665643649799U, 0x4476998847345477U,
  0x8979776745242222U, 0x77767686a9aa9989U, 0x7856657577886777U, 0x666577678797998aU,
  0x9a88565565775665U, 0x887876779899aaabU, 0x6545455466778788U, 0x7987455464879857U,
  0x4376778888a99a99U, 0x7778877857545534U, 0x6688aaaa89787777U, 0x77a99a9a9a897768U,
  0xcbbcabaa88996766U, 0x96a9aa9a8a8888a9U, 0x7676564455455555U, 0x89a99a9a9abb9967U,
  0xbbaba99998787787U, 0x8a675576777797caU, 0x769799abaababcbcU, 0x7877886787876665U,
  0x78785775a8999989U, 0x7877668899999979U, 0x7877876755558798U, 0x6845445555678888U,
  0x5466878988a9aa89U, 0x7767677787aa7856U, 0x795777a999996876U, 0x99797788a99a99a8U,
  0x78664454647697aaU, 0x97a9997856355466U, 0x6687888866776665U, 0x99baab6945656777U,
  0xbbccaa99caabaa99U, 0x96aa99676586a8aaU, 0x9a7797aaaaaa6766U, 0x778898bbbaaaabaaU,
  0x7778a8babbbc8a88U, 0xac89677897a99998U, 0x8777665485a8bbccU, 0x7877666688898788U,
  0xbcabaa9a99777777U, 0x97baaaaaaaababbbU, 0x989a99a988666576U, 0x7834124344557677U,
  0x877856767697a9aaU, 0x6657446677889878U, 0x9989778842766677U, 0x8778777888889998U,
  0x7787777755567578U, 0x88999999999a7987U, 0x88787878678799a9U, 0xbbbaab8a65657788U,
  0x99cabbab9a9a9998U, 0x8989788788688787U, 0x8777778888889999U, 0xcbab999977776666U,
  0x999978766678b9cbU, 0x6688ba9b9899aaaaU, 0xcbcbccaa78674445U, 0x7888788878766697U,
  0xa9bbbb8877869999U, 0x8799ab8a77677688U, 0x88687897a98a7866U, 0x766686bacdbcab9aU,
  0xa99a9a6635646778U, 0xaa9a8787a9aa9a78U, 0x98a8a9aa9a786686U, 0xcd8a777677778888U,
  0x55567699aabcccecU, 0xaabbbcbc99576556U, 0x324465c9edddcc9aU, 0x9988b9abaa886613U,
  0xbbbcab9978779889U, 0x77666687aaabaa99U, 0x8976778879778879U, 0x897788b9dcddbcabU,
  0x9a998878999aaa9bU, 0x8888887877777788U, 0x6844445576788898U, 0x97cbbdabaaaaba9aU,
  0xaa98787877776666U, 0x996856667687a9abU, 0x99a8998877769898U, 0x8877453443869a9aU,
  0x666676778877a889U, 0x8787789889685665U, 0x778798a9a9897877U, 0x5655869898a8a979U,
  0x7876776787aaaa79U, 0x66879898a9aa998aU, 0x457697baccbc7856U, 0x7968554545556645U,
  0x6878979a9a8aa9abU, 0xaaaa9a889a9a9987U, 0x5587aaab9a8888baU, 0x98aa898867667657U,
  0x7798bbbc99998889U, 0x99bbab9a78788877U, 0x89a9baab8a778888U, 0x998888677588a9a9U,
  0xedbd8b5734538698U, 0x999988786677a8dbU, 0x97899899aa9a9989U, 0xbb9b787699aa8988U,
  0x8778a8a99999a8abU, 0x9999675555655677U, 0x67564454447686a9U, 0x78888898a99b8978U,
  0x7777786755557688U, 0x5676989a89556577U, 0x7746334376989a78U, 0x87999a6824437677U,
  0x9889565544345476U, 0x445565778689a989U, 0x98899a7945223243U, 0x7776776776776766U,
  0x4465878879777777U, 0x6756768777463434U, 0x4534446566766787U, 0xa9bb9b8998886777U,
  0x9877889a58456476U, 0x66566697cacdab9aU, 0xaabbbb7946345665U, 0x78777766678798a9U,
  0x86888899a9bbaa99U, 0x7768777867675765U, 0x9a79675644456575U, 0x353374666697a9aaU,
  0xab79564465777767U, 0xaaaaaa999a8899b9U, 0x7845446555657687U, 0x5554444465879999U,
  0x6556454475766756U, 0x4264978989786766U, 0x6676789979552322U, 0x6655768898895645U,
  0x989a785634447676U, 0x8799998988786787U, 0x7777777757665576U, 0x6566766677776877U,
  0x9999ca7945236666U, 0x75999a9a788898aaU, 0x5566879988775666U, 0x8967556588775554U,
  0x7687686677777698U, 0x67a8999a78565565U, 0x5555766765667677U, 0x6755443544766665U,
  0xbb8a773643547766U, 0x878878677797bbbbU, 0x4554547776675566U, 0x67464554969a7a57U,
  0x7676879999786676U, 0x8898898977676776U, 0x8689899988786687U, 0x87a9baac9a785754U,
  0x8798996866656677U, 0x64a8ccddbcaa9a78U, 0xbabadcddcd693542U, 0x67988978777787a9U,
  0x98a999babbcbab79U, 0xcbddbc9a67344476U, 0xaa9989a898a8bbbcU, 0x7768566577889999U,
  0x6845546577988899U, 0x86a9aabbabab9a89U, 0x8887888888888977U, 0xab88777776779899U,
  0x8966879899aaaaaaU, 0xa9aa896877777898U, 0x6677777756657688U, 0xbb9a786855435465U,
  0xbbbc795655758899U, 0x5475a8bbaa7889a9U, 0x9a89665555778766U, 0x79999a9999cbdcacU,
  0x889989aaababbbaaU, 0xbbbb9a9899887787U, 0xb9aa9a777798babaU, 0x89a9aa88676797aaU,
  0xdcddcdaaa9aaaa9aU, 0xbacbbcaa99b9ddddU, 0xbbccab898789a8aaU, 0xce8b675585999aa9U,
  0x8756456587dbffffU, 0xdbbb9aa988878877U, 0xa9b99b89888899caU, 0x8989999998a9b9aaU,
  0x9999787788989a8aU, 0x9a98a9bbbb9a7876U, 0xbbdcab9a99888798U, 0x888977675675a8bbU,
  0xbc9b795665878788U, 0x5577678688bbbccdU, 0x6677a8baab9a7745U, 0xaabbaabbbcbb9978U,
  0x8976766665879889U, 0x76768899989aaaa9U, 0xaa8989b9aa997766U, 0x767788987877979aU,
  0xbbbcabab87887867U, 0x989888777799bbccU, 0x65a7aa9a88677787U, 0x9a89778788787766U,
  0x9999ab9a686598aaU, 0x5576a9a9cbbb7978U, 0xa9baccab89995744U, 0x88878798a9888797U,
  0x7666778688897788U, 0xaabb9b9989877868U, 0x7777775554657788U, 0x899868554576a99aU,
  0x557787877887a999U, 0x9888999968463343U, 0x88a99a7865777798U, 0x7845445576889988U,
  0x7788a8aadbeecdaaU, 0x7879777778565565U, 0x6644548698a9aa88U, 0xa9ab896676a8ba8aU,
  0x9899997887777788U, 0x8788674385888888U, 0x99babbab58454465U, 0x88a9aa8977577687U,
  0x6687989aaaaa7977U, 0x9889997867656566U, 0x6646444454659899U, 0x6545557698999a78U,
  0x5565776666574543U, 0x8867554453757867U, 0x7766564433323264U, 0x767798baccbc7978U,
  0x7776664533546677U, 0x5544344344769779U, 0x8a889999a88a5733U, 0x7667676565778898U,
  0x989a896744343364U, 0x8868677687886876U, 0x9a79788787879988U, 0xabaa9a8978778798U,
  0x7755344344435486U, 0x9867675566769878U, 0x7667666597cbcbabU, 0xbababbaabaab8977U,
  0x8855442333548697U, 0x5455778888889898U, 0x88aa999898784544U, 0x9a57131153558687U,
  0x6645446566778999U, 0x5446555565546456U, 0x6677886776564455U, 0x4555767798997866U,
  0x9788776667655544U, 0x6556656767779888U, 0xabaaaa6834234355U, 0x66564644445566a8U,
  0x7666667787886877U, 0x5375a9aaab8a7866U, 0x5464657756654533U, 0x67556586babb7a45U,
  0x6555878868557577U, 0x6866768897777666U, 0xaa99785655555665U, 0x6556546687b9bcbcU,
  0x45454465989a9967U, 0xa9a9897676664644U, 0x667688a99a887798U, 0x76a8cbcd9b685555U,
  0x8787787767665655U, 0x4564656766766766U, 0xcaab897755444443U, 0x45455566777798a9U,
  0x4454768776676666U, 0x8787ba9b67654554U, 0x98aa999978677687U, 0x5666979867666676U,
  0x3443535576879868U, 0x9789887766664533U, 0x6666546656545576U, 0x4476656586999868U,
  0x5554777778776754U, 0x6677775556768766U, 0x8978567677465554U, 0x4512222243768898U,
  0x6846446687896756U, 0x6566777777768798U, 0x5666657687788757U, 0x86baba8a78574454U,
  0x4545333433224365U, 0x21223375a89a6866U, 0xab89784454542322U, 0x795744446498aaabU,
  0x786645111152a799U, 0x6666555586989a87U, 0x8877676776888877U, 0x564444667677998aU,
  0x99bababb9a463355U, 0x7645546576668798U, 0x99bbbbaaaa9a8977U, 0xcbddccac67444465U,
  0xedddbc8987b9bbbcU, 0x9a998878666686caU, 0xb9aa9a8a897898a9U, 0x7788785675677697U,
  0x768788a8aa897888U, 0xcbcbbc9a89765665U, 0x56567677658798aaU, 0x9a88787767566576U,
  0xa8a98a776788999aU, 0x8879675656666676U, 0xcddc9a9a87888877U, 0x546486b9acabbbccU,
  0x999a9a8a77565555U, 0x8978666755447577U, 0xaa99898777556697U, 0x7578786755677697U,
  0x8878776788897755U, 0xbaaa79678688999aU, 0x9897889899a989aaU, 0xaaaaaa9a88787777U,
  0x57566465667688aaU, 0x88667798bacbab78U, 0x8788777787998889U, 0x8a67679798886767U,
  0xa79999787786a9aaU, 0x97a98a7877777787U, 0xa9aa8a4623124244U, 0xba89bcaa98898998U,
  0x6776776766777788U, 0x6866776777878777U, 0x6656344454557698U, 0x5655668777554445U,
  0x6677674443445565U, 0x7867878877876767U, 0x7777777777889789U, 0x5375886745444354U,
  0x6676676535343344U, 0x7666665535434443U, 0x6487a99a99887888U, 0x4254667678654444U,
  0x8978788787573423U, 0x5545554554768898U, 0x3233547699998968U, 0xcbbc99a9aa684434U,
  0x9a897866655576a8U, 0x454444455477a89aU, 0x7767453444655655U, 0x545575879a898888U,
  0x9988a88977665644U, 0x8888677677668799U, 0x5575779789776798U, 0x6744334455776755U,
  0x4454557677977876U, 0x8798897877655656U, 0x8867765556665687U, 0x8878666744445475U,
  0x5555554434437588U, 0x777777989a998866U, 0x6697988878877876U, 0x99aa897867656676U,
  0x5587787756557699U, 0x8999aaab99996855U, 0x6677878856767787U, 0xbaaaab7966776766U,
  0x7778786756557587U, 0x7867556666557776U, 0x887777a9aa9a7877U, 0x9a67456565887777U,
  0x68868899b9cbccbbU, 0x7878778798baab9aU, 0x7677888898999989U, 0x8968668698888967U,
  0x7998998977869aa9U, 0x566677aa9a998989U, 0xcdab794634446567U, 0x66978987a9bbedeeU,
  0x8778779899aa9989U, 0x5555667678776766U, 0x898787a9a99b8977U, 0x6688ba897887a9a9U,
  0xa899baaaab888777U, 0x87babb9977766787U, 0x99babc9a99574365U, 0x677587999a896898U,
  0x9979564486997976U, 0x7777453443547687U, 0x7767878878667687U, 0x87a8bb8a78667676U,
  0x8978887877765676U, 0x887898babaaaab9aU, 0x6866676676989998U, 0xa9aa897878979989U,
  0xbadccc9a77778798U, 0xbbdb8b7756454485U, 0xdcdccdacaacbddccU, 0xaa89a9ab987899baU,
  0xbcbcaaa9abbbbaabU, 0x78878798bbbbbbbbU, 0x99bbdcdeaca99a88U, 0xbb9a887897aaaaabU,
  0xbcbbbbaa9a98babbU, 0x878798aaab9999aaU, 0xcbddbcabaa9a8978U, 0xa9cbeecdab89a8baU,
  0x798788a9bacbdcaaU, 0x899988aaaabbbb8aU, 0x88989a9988887788U, 0x8798998887998988U,
  0xaba9888878887877U, 0x7856446386a9abbbU, 0xa8babcab89685586U, 0x9899787777779888U,
  0x98aa996756345376U, 0x9baa987777878888U, 0x677787aa999999baU, 0x77566587999aaa88U,
  0x99999a9889788898U, 0x7977776565779899U, 0x6566677688989999U, 0x6776879a99785645U,
  0x8788885645456566U, 0xab89457499786666U, 0x884645547698a9a9U, 0x7857656656669899U,
  0x66768797aabbaa9aU, 0x9a78667677879877U, 0xa9a9aa8977667789U, 0xa989688788778787U,
  0x8777677698aaaa99U, 0x8877667757657798U, 0x887856667697a999U, 0x8888775655658788U,
  0x7798998955557688U, 0x8798796745445455U, 0x7877665554456566U, 0x8799aa8967758788U,
  0x7588986923214365U, 0x7755667667784544U, 0x6755457588788788U, 0x7777686766877888U,
  0x5654567588887778U, 0xaaccddeebd8b5665U, 0xbc9b885654558798U, 0x767677a9baaaa9ccU,
  0xaaaabbab99988877U, 0x445576daeeeeddabU, 0xbbcbaaaa9a885724U, 0x8999ab89887898a9U,
  0x8798baccbc9a8888U, 0x9a67666787777778U, 0x7a56446598cbdcbdU, 0x8a786797badbddccU,
  0xaaaaccbc99787889U, 0x7856556588989899U, 0x98aa897877687687U, 0xbb99999a9a997788U,
  0x99889888877788a9U, 0x8897887876666787U, 0x8999896754547588U, 0x8777878978667798U,
  0x988a897978777687U, 0x23336498b9896676U, 0x574574879a674645U, 0x5755657788aabc9bU,
  0x7798baaa89896777U, 0x7697a9bbccac8988U, 0x769787778687a877U, 0x88999a7876555666U,
  0x79566597ba998998U, 0x7699baaaaabaaaa9U, 0xbdab887777878868U, 0x6586a9baaabbdcedU,
  0x87b9aa8867446655U, 0xab9a897745445476U, 0x668687787798b9ccU, 0xbb9b685656556555U,
  0x7777564534436497U, 0x7656557688988878U, 0x7946233264876777U, 0x674664757797a99aU,
  0x6756453244758878U, 0x4444223464678778U, 0x6665767887776746U, 0x8788877957355566U,
  0x4364a7a988676787U, 0x8768465486a98a56U, 0xcaccbb7933326668U, 0x7766555465656788U,
  0x7868563553656566U, 0x9a9a6756345397a9U, 0x888878455387a9aaU, 0x87878888a98a7776U,
  0x8977667688876765U, 0x8a78657787998898U, 0xba8a67555477a8bbU, 0x6767666765667799U,
  0x7687a899aaaa8978U, 0x8799886835333343U, 0x7677878797989a99U, 0x999998a9ba9a8967U,
  0x77777688a8baaa9aU, 0x9867655655657877U, 0x6745657756556498U, 0x898766668799aa9aU,
  0x6587989989989aa9U, 0x8988997866554465U, 0xa8a9897756668899U, 0x6557452343337587U,
  0x6687a99a99787777U, 0x88a9abbc8a672354U, 0x566577988a785577U, 0x7757455464758967U,
  0xa999795654667877U, 0x8898897877556598U, 0x6477877866667688U, 0xbba9ab7934444344U,
  0x77664543345477a9U, 0xaa99794554567798U, 0x89888877677588a9U, 0x7687888877778799U,
  0x8989aabb99988778U, 0x6656655666879998U, 0x87aaaa9a88877877U, 0x98aaaa8968675564U,
  0x8788a89978677677U, 0x6676767888776776U, 0x7878889aaa9a6766U, 0x889988989aa99989U,
  0x9b88674565757798U, 0x3354667688aaaaa9U, 0x2344758799793522U, 0xbbbb9b4733436646U,
  0xccab6734444397a9U, 0x77566555767788a9U, 0x7677565567779888U, 0x7787a8ab9aa99a68U,
  0xaabaab7978576655U, 0x555554657698aa99U, 0x688798baaa697666U, 0x6834444556557677U,
  0xa99a788788999a98U, 0x97a9aa99a99a9899U, 0x9aaa9a7866766786U, 0xa8a9896775667697U,
  0x8799775554556687U, 0x6466979a79655465U, 0x8a78677666665645U, 0x97aa886677778899U,
  0x9989676655657767U, 0x89a9996765768799U, 0x8788896655656567U, 0xb9bbab8956334464U,
  0x5687888868355386U, 0x9879463442767755U, 0x7777777766766686U, 0x8957344354879a9aU,
  0x979978888899aa9aU, 0x4454566786676676U, 0x5445556656444444U, 0x5544446587aa8967U,
  0x1242557756463443U, 0x9888888889674523U, 0x8767454365778876U, 0x5555766677566677U,
  0x7689988957556756U, 0x2333436577987876U, 0x6467677766665535U, 0x7877778777452232U,
  0x6577774644658887U, 0x3364877876352333U, 0x4465998957343234U, 0x4612423342445444U,
  0x9878674634547678U, 0x4465778787888999U, 0x5455655435231132U, 0x5444453333322243U,
  0x2343646666564544U, 0x7877765666765623U, 0x7855333455776677U, 0x3543443424548789U,
  0x8799786767563453U, 0x6656655656555466U, 0x6588776655444466U, 0x7778886766663543U,
  0x4534545535445377U, 0x5576999999998867U, 0x7976674543447666U, 0x98793455668898a9U,
  0x4486a98a57345376U, 0x9957455566766644U, 0x8777575555547698U, 0x8867556556564364U,
  0x675444657798a99aU, 0x8999786665a8ba9aU, 0x6465555454678789U, 0x89aa8a6765565545U,
  0xbc7a451432546666U, 0x567789776677a8ccU, 0x8988665666765655U, 0x6697887977677688U,
  0x5544759899898867U, 0x6456344465556555U, 0x4376caddddab6834U, 0x67777688a9a96944U,
  0x6767767787889889U, 0x8957666655664666U, 0x44868889a8999999U, 0x88989ababa895733U,
  0x7587888877787787U, 0x7845333454545665U, 0x553423326487a99aU, 0x4533446576997967U,
  0x3422426488887877U, 0xaa9a786675667655U, 0x4433334466566598U, 0x7778557677655633U,
  0x5455453333446577U, 0x7897989a79563333U, 0x7767565566779989U, 0x6646354234648788U,
  0x8698aa8946343364U, 0x5476897855455556U, 0x8678675545554444U, 0xbacdbc9a77575556U,
  0xa9a9bb9b88353373U, 0x251121215396a9baU, 0x774533548789aa78U, 0x5356657778767778U,
  0x64b9cb9b77554443U, 0xb99a798789553332U, 0x55557657667678a9U, 0x7787786588988967U,
  0x1211114222212253U, 0x88b9baccacbb8956U, 0x86a99a6846336477U, 0x4444545455775655U,
  0x6876557587888867U, 0x6845446687989989U, 0x7867556697a98a98U, 0xaaab9a8868767687U,
  0x7866667677889a99U, 0x6676566588989989U, 0x6576776756557577U, 0x8998895756655565U,
  0xb9aa99676597a999U, 0xa9786766868788a9U, 0x78666676a8bbaba9U, 0x6587aaaa8888a9a9U,
  0x5666877957443364U, 0x547698badbdcac68U, 0x7745335377674553U, 0x77767688a8aa8a88U,
  0x67656777a9998888U, 0x8967556597a98978U, 0x66a7ab9a788899a9U, 0x5655668788775645U,
  0x4633446587988967U, 0x98a98898a9997765U, 0x78a89a9a89456588U, 0x6597997867766888U,
  0x5555666688675657U, 0xab89673421222243U, 0x7767666666768799U, 0xbbcdac6745769788U,
  0x55758778567588a8U, 0x4544546576676655U, 0x4444447688aaaa78U, 0xa899888878676635U,
  0x9a78674453558788U, 0x878799a9cbccbbabU, 0x5366556477778888U, 0x5587889a9a8a6855U,
  0x78668698ba895755U, 0x5567778878668788U, 0x7778787798774544U, 0x8967556756547676U,
  0xbaac89999aaaaaaaU, 0x9a88886777666686U, 0x33547677767697a9U, 0x9a99889977664645U,
  0x7788887988787798U, 0x78877776b8bbab89U, 0x656566557787aa88U, 0x6877667667655566U,
  0xecdebdab8a777898U, 0x667788a99b8877a8U, 0x87b9babcab896766U, 0x8898998888887989U,
  0xcbaa89a89a999998U, 0x66889977557677b9U, 0x798797aadbbd7a66U, 0x8768664643769899U,
  0x8899a88aaa795765U, 0xa99a797778777987U, 0x9998778778778798U, 0x4445546587a99999U,
  0x5576988988886745U, 0x6655564454555556U, 0x4465879999897877U, 0xa999988857554433U,
  0x88778899676767a8U, 0xaa99674434334476U, 0xdabc553454667898U, 0x77878888778876a7U,
  0x8888788767567687U, 0x6665566676778888U, 0x88a9aa9a8998aa99U, 0x87a9ccbc7a566576U,
  0x8898999999698767U, 0xa98a999978464576U, 0x8788888868678799U, 0xab89675545557677U,
  0x97a9aa78566598aaU, 0x9978b9ccab8a7876U, 0x7688896745557798U, 0x87a8cbccab785755U,
  0x4466a8baa9797687U, 0x4586a9aa8a775644U, 0x6645657699aa9a67U, 0x768886999a9a8977U,
  0x778799ba9b675765U, 0x99a9997777987867U, 0x34445497aa797697U, 0xa8997a6656667756U,
  0x6755758687576676U, 0x5565657588777776U, 0x7935121122548668U, 0x207588aabbdcbbaaU,
  0x9888788766452310U, 0x55544386a9887889U, 0xaa79676665777666U, 0x77664534437699abU,
  0x9899775634335377U, 0x5554554554333364U, 0x7967565565668777U, 0x7587777767659689U,
  0x4465668899995744U, 0x7877677556443454U, 0x5545455556454565U, 0x7686788788887856U,
  0x4454554544545577U, 0x5666678699777746U, 0x7877565667465554U, 0xbb79556567658788U,
  0x987957234364a8bcU, 0x5755777866567787U, 0x6645434465667878U, 0x7767666677666676U,
  0x3444447688a9ab88U, 0x8867675533032122U, 0x4645555566453466U, 0x4353667776777777U,
  0x3434536655553433U, 0x6467878987675546U, 0x6676666665554544U, 0x5655554444335455U,
  0x6577665556656667U, 0x6667677767352342U, 0x7777576586887767U, 0x4554553444556576U,
  0x3412224344545455U, 0xa9bb895644557766U, 0xba99997887668698U, 0x7757443424547598U,
  0x7767776765557677U, 0x446576a999666576U, 0xa89a885676777756U, 0x3365876755544454U,
  0x7678999a79564434U, 0x7797998888674545U, 0x7988573533546566U, 0x4455878778777698U,
  0x8788784523224234U, 0x9877464433435577U, 0x6654555676677798U, 0x65a8aa9a78566566U,
  0x78879a8977573543U, 0x5555453364658787U, 0x1111428699997877U, 0x7767675645645614U,
  0x3244554546546665U, 0x7856353342555544U, 0x9889888846546687U, 0x7766776646223186U,
  0x5455565555657789U, 0x7787999a99784545U, 0x335386caccacab88U, 0xa9babbab78443332U,
  0xabbb796646566688U, 0x78667798aaba89a8U, 0x46345475a8aaaa98U, 0x9a787798aa786666U,
  0x9a8877766577a9aaU, 0x5566565543658789U, 0xbb9a78a89a897766U, 0x684532447699a9bbU,
  0x7776788888988989U, 0x55446685989a9a88U, 0x7877666787887755U, 0x6677779999989a98U,
  0x77655575a9ab9b88U, 0x8888a9a9a9a98977U, 0x8898797766768776U, 0x6566677799aa8a88U,
  0x8956334355666755U, 0x98cbbc8a58556698U, 0x8988786755445465U, 0x567577677698999bU,
  0x4643668799877866U, 0x6757657576768777U, 0x7856455556768989U, 0x3423434522538777U,
  0x4533758699896755U, 0x7746757877676546U, 0x5555555486a8bb9aU, 0x7777668699777657U,
  0xac79678798aaaa89U, 0x78887867667787aaU, 0x7887a9ab89788788U, 0x7677667898989a89U,
  0xaab99a9867555556U, 0x676586aaabbbbba9U, 0xa9bba99998bbbc9aU, 0xa9ababaa9ababb99U,
  0x8889999978777787U, 0x9989687788778878U, 0x67455577a8a99a99U, 0x887797a989987777U,
  0x5645556667877898U, 0x5665667666777766U, 0x77778798b9a9a968U, 0x7666775644546667U,
  0x7688786646546475U, 0x5476564553546666U, 0x3322647767444444U, 0x4464767777676646U,
  0xa8bbab9b999a5644U, 0x99a9775732335466U, 0x6677776856345487U, 0x8878667787886766U,
  0x97dbdcad67445475U, 0x99aa998976777757U, 0x7798797667778799U, 0x9a98989aaa988867U,
  0xb8babbaa9a89a999U, 0x9a58456488999998U, 0x5486a9bcccccbcabU, 0x98ab9a7867778867U,
  0x6766768777778688U, 0x7698baaaaaa98879U, 0x8797785633444454U, 0x55548787889a7878U,
  0x8767563433335566U, 0xaa78352222446567U, 0x66453444547698a9U, 0x5555333334657767U,
  0x4445556656555545U, 0x5377888888785545U, 0x6699896744232332U, 0x5634444444344455U,
  0x323374a9bbab8977U, 0x5476775624113132U, 0x7766567666565555U, 0x7776877777777878U,
  0xccbc896846334365U, 0x777855244496dbdcU, 0x7778878867455464U, 0x8977787777673465U,
  0xaa89675565988999U, 0xa99a6745759899aaU, 0x5565879989665597U, 0x9a67989889786866U,
  0xdd9b87779899a8aaU, 0x766766668798bbddU, 0x76655486999a9977U, 0x6677776744566666U,
  0x6576776666442342U, 0x8867554434536665U, 0x343364777878a999U, 0x7846346578666645U,
  0x455545344386989aU, 0x4455779867675655U, 0x6776564544333433U, 0x8777786766677666U,
  0x7667666756555565U, 0x8698baba99796766U, 0x988a684655665566U, 0x9a67555676778898U,
  0xaabb8b795675a8bbU, 0x6577989978676697U, 0x7676665566763433U, 0x7656769799997966U,
  0x7787778778666677U, 0x4375786856556566U, 0x3342749988765634U, 0x66569799aa9a6756U,
  0x878898b9bbab9967U, 0x8878678887776787U, 0x6677879888677588U, 0x778777989a796656U,
  0x7687887877667676U, 0x6598a9ba8a778787U, 0x5776775656655565U, 0x8767666744556675U,
  0x7777778789999988U, 0x9a5745544375b9abU, 0x564555b9bbccdccdU, 0x6735443365676666U,
  0x2322222223658778U, 0x7667667766665535U, 0x5645543423323364U, 0x775555658698aa89U,
  0x5455767756454475U, 0xab99998888885745U, 0x453443336598babbU, 0x9979566576878867U,
  0x5556555466768698U, 0x6576877757555466U, 0x7877566555555444U, 0x7777a8bbbccbab89U,
  0x57779798babbba9aU, 0x23426598bbab9978U, 0x5765778888776735U, 0x8967556596aa8966U,
  0xa9aaaaaa797677a8U, 0x6777778888785587U, 0x8877776766565466U, 0x6677887966555577U,
  0x6767779799895755U, 0x7789666676787867U, 0x6656666676666654U, 0x6534112242444466U,
  0x546586989a775666U, 0x1142659778667655U, 0x6466778868351110U, 0x5577774655655555U,
  0x8867565476777765U, 0x6676778788665566U, 0x4533638698785666U, 0x7677785654778778U,
  0x8877778899996756U, 0x33549799ba897677U, 0x675675a8ab996745U, 0x7787776766546676U,
  0xaaaa997867454475U, 0x89775635343475b9U, 0x54457688a9aa9aa9U, 0x98a9a9a989785644U,
  0x5565464454677787U, 0x6676564585777857U, 0x6688999879564466U, 0x5466877777565454U,
  0x7665554455453333U, 0x6488888898797877U, 0x9798675675564434U, 0x8889785644335477U,
  0x6767565555346476U, 0x5443445575767677U, 0x3332436666666746U, 0x5554656688997735U,
  0x5656556677574444U, 0x5555758898898766U, 0x7847345455655655U, 0x5466678787788788U,
  0x8967667677776745U, 0xa999695554656799U, 0x7887898a88777798U, 0x9979676587889989U,
  0x98999989777788a9U, 0x6856566667343375U, 0x898777878898aaa9U, 0x7777a8ab7a777797U,
  0x8857556546444564U, 0x564465878888aa89U, 0xbbaa795545548777U, 0x66565645656587a8U,
  0x546596989a898877U, 0x4555657666454444U, 0x7756446686889978U, 0x5477887646344364U,
  0x8798898877674644U, 0x5645566666878967U, 0x4512114387988967U, 0x22448799b9ab8a68U,
  0x5655655576571300U, 0x6767555455767877U, 0x68677698aa997776U, 0x8978786777777678U,
  0x7676877766667787U, 0x8778788799776666U, 0x4534456577665666U, 0x557798a889676656U,
  0x686598aacb9b5755U, 0x99a8ba9a99999988U, 0x6744324386989a99U, 0x76a9ba9b8978999aU,
  0x777797988a786654U, 0x7877352232547799U, 0x7788879868768888U, 0x9a89676655666666U,
  0x4724223365a8cccdU, 0x67343274b8dcbd9aU, 0x9798786756556678U, 0x8587788878676576U,
  0x9898aaaaa9884645U, 0x6766888888778888U, 0x8988686686887766U, 0xa9a9997765546587U,
  0x7777675666667688U, 0x88b9bbabbbbcbc9aU, 0x56866788a9999988U, 0x8878675665656676U,
  0x9977777777776676U, 0x8977657598999a9aU, 0xa8a9baab78768698U, 0x8988aa9956668888U,
  0x657688a9aa897888U, 0x9898887877676656U, 0xa9ccbc9977555486U, 0x6666668777676576U,
  0xbbab9b8977888877U, 0x89898877899999b9U, 0x99886656667689aaU, 0x445486a988678688U,
  0xaaaaaaabaa896754U, 0x87775685babcaaa9U, 0x6644656577886876U, 0x9a998999ba9aaa88U,
  0x7844343334657798U, 0x7887a88956768798U, 0x77a8ccdd9c687777U, 0x77867798bbab9978U,
  0x8979676576877876U, 0xaa99aa9aaa687878U, 0x57554545456597baU, 0x64767899aa9a9978U,
  0xab89674644333244U, 0xa8abaa98888898aaU, 0x8798685554776876U, 0x4554466644555555U,
  0x5576777787787756U, 0x4454757787886765U, 0x8778676655455545U, 0x4565574476889967U,
  0x6577889887665544U, 0x6766566566464554U, 0x767798aa9b9a8977U, 0x2243445556766677U,
  0x7798cabb89362211U, 0x66778898aa896676U, 0x7878666687777776U, 0xa89a887878779788U,
  0x6777777777766687U, 0x5676888767556586U, 0xa9aba98878765665U, 0xa9a9997866777799U,
  0x45645576aaaa9a99U, 0x7868576586896734U, 0x7767554545456577U, 0xaaaa876767446666U,
  0x658899a989788798U, 0x668799889a675655U, 0x65a8ccbc9a9a7867U, 0x8867676777776656U,
  0x7598aa7846334265U, 0x786677a8aaaa7845U, 0x3322234464667788U, 0x8976464465343433U,
  0x878788a9abaa9aaaU, 0xa8cbac9867555486U, 0x8957555566454464U, 0x676755557598999aU,
  0x4424223244656578U, 0x5576887866555544U, 0xcbbb9a7856443444U, 0x77677777564564a8U,
  0xba9b783433324465U, 0x8997aa89789999a9U, 0x87879988877798a9U, 0xa8bbddbd9a897878U,
  0x8878888866566586U, 0x76778899ab8a7877U, 0x5566768799ba7966U, 0x2343647787886866U,
  0x6777786798997945U, 0x7788887777997767U, 0x556588aa9a898788U, 0x88787798a9997756U,
  0x5566565576778789U, 0x9a7898a9bbaa7856U, 0x875734436367989aU, 0x8989785555647677U,
  0xa979364475767788U, 0xa8a9aa7868666598U, 0x7978877777777888U, 0x8887575586a9baaaU,
  0x7677678788777777U, 0x9999896755877867U, 0x786687999a9a7887U, 0xa9bbac8a88989888U,
  0x6767868788686786U, 0x667698a999795756U, 0x8946225465657667U, 0x556656656676a8baU,
  0x6597aa8a77999856U, 0x7587aa9b89674554U, 0x6744556777554555U, 0x3534548799999888U,
  0x66668788889a8978U, 0x7688889988676655U, 0x2521433354554554U, 0x8799796766668778U,
  0x4544665654565577U, 0x7787988779787867U, 0x7677777677666687U, 0x9888888977564654U,
  0xba9a897967778788U, 0x98889888667688aaU, 0x4565977887888887U, 0x76667798a9896765U,
  0xaa89787877777776U, 0xbabbcbddccbcbb9aU, 0xaacbbc9b898899a9U, 0x89babc9a886776b9U,
  0x88989999aacbab9aU, 0x667687a8a9b9bb8bU, 0xcbab9a8899a99b68U, 0xbacbcdba9a8898bbU,
  0x8a786645658689a9U, 0x9a9abadcfeffdebcU, 0x999a88a9badcddabU, 0xaabbccbcaaaa9aa9U,
  0xbabbab78778799baU, 0x787788a9999999aaU, 0xa9bbcbddddbba989U, 0xcaedbcab89887787U,
  0x676698a9bb897687U, 0x6588989999baab89U, 0x7687a9cbccaa8856U, 0x7798aaaabbaa7967U,
  0x9a99675666878878U, 0x797777987777a8bbU, 0xbaccab99796687a9U, 0xaaa978677686899aU,
  0x897876667687a99aU, 0x7788cabbabaa8998U, 0x7967778898ba8a68U, 0x888789a9abbbaa9aU,
  0x667798aabbabba8aU, 0xaa9aa9aaaa997857U, 0x9a7855545596bbacU, 0x546567787787a9bbU,
  0xdcbcbaaa77565455U, 0xa8999978567599cbU, 0x668776879a8a7898U, 0xa988586677988988U,
  0x5576888887768789U, 0x6657665587998856U, 0x6678787888998977U, 0x8899a99a79684555U,
  0x6567556555868787U, 0xba9a575555544454U, 0x8767776686a9dbcdU, 0x557597cadcbc9b89U,
  0x8787887878777767U, 0x8799a8aa78879988U, 0x7797aa8988998a77U, 0x87a8baaaaa887867U,
  0x897898baabaa7876U, 0x4464988a98999989U, 0x7799ba8a78666655U, 0x96999898eece8967U,
  0x4475878879564455U, 0x989ba99856341222U, 0x9a89686655757687U, 0x7688caab68455697U,
  0x774665769999aa78U, 0x4433435476777777U, 0xa99a999978664554U, 0x8867767676989999U,
  0x8878776676979a99U, 0x4354667788899a99U, 0x9988897857331221U, 0xbbbb896766767788U,
  0x5566776786988899U, 0x3475a8abbaab8856U, 0x7677557688685554U, 0x74a9a9aa78787767U,
  0x85b9cdac57342243U, 0x9aa9babb79261142U, 0x7777666577988a9aU, 0x7877776687a99a77U,
  0x898898a9abab7888U, 0x648799888999ba9bU, 0x9878989979663432U, 0x6745444475769888U,
  0x99a9795656757778U, 0x886746546487a999U, 0x6765555656567677U, 0x9a88777677777677U,
  0x54656666576697aaU, 0x7767a89a89583443U, 0x6787aa7987898989U, 0xa999785644555566U,
  0x7787786866767798U, 0x6757665557567777U, 0x5676768898a99967U, 0x77666686a8bbaa68U,
  0x7698aaaa8a787767U, 0xabba9a7957556565U, 0x78766776667777a8U, 0x454555556676a899U,
  0x66776686a98a6755U, 0x7699798889786766U, 0xa9baccab68344364U, 0x76676587bbcc9b78U,
  0x6876677767445566U, 0x8856566687a99a99U, 0x887876674454879aU, 0x7778554344657797U,
  0xbc78989889896766U, 0x547688996887aabbU, 0x7777776855454444U, 0x6656564555766686U,
  0x4444446565456576U, 0x54988999a9887745U, 0x99999a7777775544U, 0x4435445575878789U,
  0x6566554465666633U, 0x7855544445545465U, 0x6488999979676575U, 0x7656544475877956U,
  0x7867676665556577U, 0x7777664555766677U, 0x98a9a9999aaa9a78U, 0x9977555533546678U,
  0xbb7824326498aabbU, 0x44436576878998a9U, 0x9988887766565545U, 0x45544475a9aa9998U,
  0x456586babbab7956U, 0x76989a9a99a98967U, 0x8877566676678767U, 0x99aa9a8887788888U,
  0x7677879879666555U, 0x6656343444665655U, 0x6488aaaa9a897766U, 0x3423123254351232U,
  0x9a88676666668867U, 0x88787766769777a8U, 0x7776685665b9cb9bU, 0x5544547588889989U,
  0x4565555475868978U, 0xaaaa998868464645U, 0x87cbcd9b99b9aaaaU, 0xbcba9a9877564555U,
  0x88687698b9cccccdU, 0x6666554466878887U, 0x8798786755455556U, 0x787787ab99897787U,
  0xab78665655556576U, 0x564334445596b9ccU, 0x8888788898888878U, 0x344375a8bb896666U,
  0x7678888799bb8947U, 0x7687a98846239878U, 0x9889778867655565U, 0x6736445366778988U,
  0x6566768889898988U, 0x5698aa9979464443U, 0x6687777676776744U, 0x7797986766668767U,
  0x5666567676785655U, 0x4645548798997876U, 0xab99783544558778U, 0x55657787788897aaU,
  0x7676777786886745U, 0x6587989979674455U, 0x2343767788775555U, 0x7698cbcdab9a6834U,
  0x787788a9bc9a8867U, 0x8799998979677567U, 0x3275988968668898U, 0x9899babb9b571311U,
  0x3264667777877687U, 0x9b68335498997946U, 0x565576776697aabbU, 0x7777655554768778U,
  0xaa8a678788888778U, 0x766656667687b9bbU, 0x2243879978443444U, 0x6578565575776734U,
  0x564443447588aa78U, 0x7a35244456868867U, 0x9898788887aaa9abU, 0xa9bacb9a48333264U,
  0x7866556645649898U, 0x6656455565889988U, 0x7798a99b67546565U, 0x7678776776778778U,
  0x87988a7855768768U, 0x7767467587677776U, 0x98aa786687a8bbaaU, 0x767788a99a798898U,
  0x999aaa8867666556U, 0xbabb8a787798aa88U, 0xccaa46122274a9baU, 0xab9a7877756686caU,
  0xbc9a7977888898a8U, 0x998967446598dcedU, 0x785676a89999ba9aU, 0x7688989988778899U,
  0xa9a9999a9a886656U, 0x88886845558687a9U, 0x463474c9dcccaa89U, 0x6697bb9b9aa99a68U,
  0xcbab9a9878787767U, 0xaabaab89998998b9U, 0xdcbc785644435586U, 0x779999777698aabbU,
  0x788898aa89a97865U, 0xbdaa899889889989U, 0x54446598daefdeedU, 0x89676576cbdc9c79U,
  0x78999a8866658788U, 0xbbbaabab9988988aU, 0xbaab9a8988a9baaaU, 0xa9ca9b775587aaaaU,
  0x889889babaaaab99U, 0x8987baab79767787U, 0x78888798babcab99U, 0x7778babaabaa7876U,
  0xddbd798787899978U, 0x76777756778798cbU, 0xcbbcbccbccbb9a89U, 0xcccbbc8977677697U,
  0x899867555485caccU, 0x979a6777b9cbac8aU, 0xbaaa9989998a8877U, 0xaaaa9989887887a8U,
  0x776576999999a9bbU, 0x8a786698aaaa9968U, 0xa9ccddccaa9a9999U, 0x787798babbaa8977U,
  0xa9bb684576b9bc9bU, 0x88988a5676776687U, 0x99896766a8ccbb9aU, 0x88aabaaa887698baU,
  0x67567677a8ab99a9U, 0x8788a9abbbccbc79U, 0xaaabaa8978667677U, 0x7768778889888989U,
  0x7878988888988988U, 0x787788aaaa887766U, 0x8898897845557788U, 0x88666687b9cbab89U,
  0x7877879989887888U, 0x997666343253879aU, 0xccab887786b9bc9bU, 0xb5ab76d330b66d2eU,
  0xb5fc3681b589e6acU, 0xb5892035359befa8U, 0x342153abb5869bbeU, 0x35a13591346bc8fbU,
  0x35d8b955b4929355U, 0xb5cbc72bb4056817U, 0xb4e644f6b62f8c4fU, 0x35a21e36b4653b78U,
  0xb5f22e49b54ee3d1U, 0xb56dbe0b36081b67U, 0x358debbab5b6ea43U, 0x3637857f351d4414U,
  0x35821cda359e38c4U, 0xb5f246dbb3713ed8U, 0xb5d3d548b49f277eU, 0x342db32235895ed7U,
  0xb407c5113613d958U, 0x35e7010735c40eeeU, 0xb47bcd2135a45727U, 0x3574d02435f2f467U,
  0xb53e5c95b62db464U, 0x35d198fbb496ee62U, 0xb5bb6357b35736a9U, 0xb455456db4974c0dU,
  0xb49d1cee361d9c30U, 0xb50feba8b5e5bae3U, 0x3378df8d36189f00U, 0xb5c53a4bb547d41cU,
  0x35cb3f6835bf1697U, 0xb51c5c2133ea5febU, 0xb4f8e972b43cf2c0U, 0x3507ebedb61ac48bU,
  0xb62889b1b5b5dc56U, 0xb4bd9f47b55e0fd2U, 0x35bb10d1b5d51855U, 0x34193b6fb509d01bU,
  0xb510d04934a3a2b1U, 0x34d9ec9f34d8d8cbU, 0x35eec7853594ea37U, 0xb5bc9417359fd595U,
  0xb5a068f5b4c5bfd2U, 0x361bc0ea3500bbaaU, 0xb61a65d532fa7db1U, 0x3607c99a358d9b65U,
  0x35152d9434c202c0U, 0xb55f89b534ab7856U, 0x353bc38735af7ff2U, 0xb4fccdaab5950a51U,
  0xb6004a54b5bb4776U, 0xb59ec0bf353580ccU, 0x3530d30b359c8803U, 0x35dcb21eb60ec4abU,
  0x35062bc135c9801dU, 0x3482e7c7b60fe335U, 0x35baf233351c2017U, 0xb41c03f0b5b02e50U,
  0x345c1defb4b8b816U, 0x3605b09db53fa217U, 0xb23db8e7356f48a4U, 0xb61338ac353a7167U,
  0x3598e54fb43908b3U, 0x35f616683497f776U, 0xb303ee13352512e3U, 0x33db71d43625d1b9U,
  0xb55a46c535a8ce64U, 0xb6034204352a64d2U, 0xb5f0731835a2d200U, 0xb4c42fdb35a6c118U,
  0xb53ef38fb5d153f6U, 0x3598f9d3b61aa067U, 0xb521a02db4aadc94U, 0xb52265ebb5c49d4cU,
  0x34979c9d34dfce39U, 0x354515d535a78167U, 0xb56f1cbcb5ad0a92U, 0xb547d8f633f56824U,
  0xb521bec4b5d553fbU, 0x359b405e35b774b8U, 0x35d90760331d7267U, 0xb5891b67b4bfd19cU,
  0xb591d4e5356fc2b3U, 0xb5a4549e35375212U, 0xb594e05cb6080011U, 0xb53d7406b5a6b2c1U,
  0x33fe78cc35575300U, 0xb5e761bdb5be467eU, 0x331b616d3555707cU, 0xb55fb23fb5149e81U,
  0xb5d212c03336b715U, 0x35d5523bb2e9962fU, 0xb555857bb6018ab7U, 0x354e6063b5892d2fU,
  0x350c2a0133659e0cU, 0xb580187bb604116bU, 0xb4d69d1db5f290f1U, 0xb5afb010356d0cccU,
  0xb5333b6e3598a652U, 0x33db235a34f7a115U, 0x35821ba535f38e77U, 0x3346855235ad0945U,
  0x3533bc5eb61fe596U, 0x35a63a8bb5c03163U, 0x34ba35ef3531a926U, 0x360e155535c63099U,
  0x360f34c0344c809cU, 0x34bc62c2b3b73dc1U, 0xb5cfb3b53492fc22U, 0x34bc4e6ab576aafbU,
  0xb60b45a33353530dU, 0x351f2618b5cd1ac5U, 0xb514173634bfe484U, 0xb4cf4bc3b57d083bU,
  0x35c81f31358b91beU, 0xb523d1ef35fbd7c4U, 0xb554de9734051406U, 0x315a82bd35760d42U,
  0x35a54442355559f8U, 0x352e7cec354358bbU, 0xb5c177d634f566feU, 0xb6066dd13519fe44U,
  0xb57c9b12b59364ddU, 0x349d2e86b554c9dcU, 0x3573e175b583eb74U, 0x356edb79360af7a1U,
  0xb5b544c93608db4aU, 0x351ad18635800b09U, 0xb5caba11356b4b57U, 0xb4cf2e2536095bddU,
  0xb5b0abefb550252bU, 0x359e53473511ab3eU, 0xb2b26228b52b458eU, 0xb5a07ebab4cae910U,
  0x348ae4fe35e79b0aU, 0x34b77d30b5595be6U, 0x359e740836051801U, 0xb50bf79c34de71c1U,
  0x3646447234257e6aU, 0xb495490cb572e5e2U, 0xb59c55ceb50ca433U, 0xb593e585360d6da0U,
  0xb53768f3b5c7d747U, 0xb558f66f33f7ab30U, 0x35ba37c2356c2b05U, 0x35e8abbbb5c51d59U,
  0xb4f2c40e34b44fd5U, 0xb6051832b5d5f8ceU, 0xb53291fdb5b05ca0U, 0x3605b803b5b1a4b8U,
  0xb4bbd3ceb51808d3U, 0xb3c67525b48a6284U, 0xb59e8e4532874d3fU, 0x35d53cddb4b2d2dcU,
  0xb5df3ec2b5426d32U, 0xb5c23253342dc832U, 0xb5514e99b38c1fe2U, 0xb568678d36103e8cU,
  0x356da33cb50d53e0U, 0x350293a0b4614985U, 0x34bd37933587d0bfU, 0x352ff8dcb50ca708U,
  0xb569ec7935ff4646U, 0x361fe78bb56b81dbU, 0x35acc0323593f354U, 0xb57704fcb5867737U,
  0x36040198b5f569c5U, 0x35a0b9f33528c1faU, 0x3614c6d835aea6f4U, 0xb4b26875352b1442U,
  0xb516b31cb5cad415U, 0xb50238deb4a2a8a0U, 0xb5b8714fb48823eaU, 0xb5d8a1c2b5050a43U,
  0xb5073ab1b402200bU, 0x353c415435d1682dU, 0xb43d8920b61f2603U, 0x3522bb9935b1880bU,
  0x35c66605b5a74b1eU, 0xb540a1eeb6071334U, 0x335cc93d3583a916U, 0x352b8c3c35be4a5cU,
  0xb4800e5735e5d15dU, 0x34f89c30345697bdU, 0xb51ad6c6b587317aU, 0x3574faf7b455f592U,
  0x3560ba3c343da590U, 0x3575ac90b5c8d949U, 0x3421e2083502af5fU, 0x35c3468e361e018eU,
  0x350c92e73623f190U, 0xb61a03feb4c7ed8bU, 0xb65c2178b5a19ef7U, 0x3524f75fb584be08U,
  0xb451a35735296f4dU, 0xb5a5b2dbb5d57a59U, 0x35a4b2e5b40a8590U, 0xb5ba2791b5493d25U,
  0x34df526e351e851bU, 0x35a56bf3b59a37b7U, 0xb5adbe2f359f7c21U, 0xb53187e0b47a8e84U,
  0xb48891bd35503499U, 0xb5ac4c0f359ea698U, 0x3625144c35e533edU, 0xb484a067b5e51441U,
  0xb4efbd9434e44e00U, 0xb46eec7234b7679fU, 0xb50fb22e35af3ac9U, 0xb5acc158350d976aU,
  0x355bed173551e2acU, 0x34986a5eb58656cbU, 0xb5e08605b4aa3b1fU, 0xb5a919d8b4a3b48cU,
  0x331721cd3598c63cU, 0xb4aa4746b5fffdc7U, 0x356f774ab4b3b613U, 0x3595ae0732fae608U,
  0xb5ba1cd2b4b22043U, 0xb4cde14ab597045dU, 0x3448d6013509713cU, 0x353e7295b565cc94U,
  0xb483a118b55fb6b7U, 0xb49c49b1b4dae12fU, 0xb4c930df34aba80aU, 0x35d590d9b58751e4U,
  0x35aaef3135b48805U, 0x35fe53a4b58a01bfU, 0x360ac4f1b5f2178eU, 0x3532dde5342f67b0U,
  0xb56e9fa135a6bf83U, 0xb412c38f35846fb1U, 0xb413db20b5c19feaU, 0xb5e9aeacb597c3f7U,
  0x35464610b391d148U, 0xb54112d134ea3aa4U, 0x34cb7f08b5aef7d1U, 0x35590e0934857bceU,
  0x360d6165b5e99a12U, 0xb617cf3d35c69b83U, 0xb5c1b35f35b4d923U, 0xb56e8388b4aa6f92U,
  0xb58375a236318a66U, 0xb5528d00b522ac0eU, 0x32b7cbfc350ed028U, 0xb391f1ab3597526eU,
  0xb3b65fb234baa12bU, 0xb5bd6c1e35a7ab33U, 0x3531fd5e35890b93U, 0x359218d1b5a3bb69U,
  0x345fa8e9b411ce4bU, 0x359aa982359bb54cU, 0x34c1269f357cd832U, 0xb559a43e358c1611U,
  0x344e8d5534c03c38U, 0xb5e221b634c707e1U, 0x345c914c3437e21bU, 0xc2132a65422ab0c4U,
  0xc0ecb0d741ca68b7U, 0x410b22edc2595efbU, 0x4187a3f1c27ad2d9U, 0x41c2d718c1ef8e56U,
  0x41eddc03c1da2994U, 0xc06ceeb6417bad54U, 0xc06b747b426039b3U, 0x3f491f92be5e0117U,
  0xbf022e1dbf6c0addU, 0x3eb0e53e3f04178cU, 0x3e925b4a3ec374a3U, 0xbefd2c283ee2d037U,
  0x3edd43b83f002707U, 0x3ec60d3e3e59df95U, 0xbd163b763e3c37b1U, 0x3ce41d5a3e9071b9U,
  0x3f9643ba3f24c5ddU, 0xbf6fba213f5db44eU, 0x3f5e15ab3f290df7U, 0x3e5ed6af3ef7126eU,
  0x3f8e5ab13f004ee5U, 0x3ecb5d293f64db88U, 0xbe700ffc3df24a05U, 0xbf1f69943edea083U,
  0x3f29ef593e8a082dU, 0x3ed7af343e559d53U, 0x3eeb801dbf62fdc6U, 0x3eb576163ec267d2U,
  0x3e4dfe78be3938c7U, 0x3e57056b3ed434feU, 0xbe0635a33ed9246cU, 0xbdffba7d3f09b47bU,
  0x3e3296833f64a546U, 0x3f0cad5c3f4d22ebU, 0x3ee48f173f23f1ebU, 0x3e84265e3f0edbc4U,
  0x3e94f2883f3fef35U, 0x3ea47adfbf8d2f88U, 0xbe98abe83e23cc8eU, 0xbf54752cbf510bb2U,
  0xbf516dbbbf5309e1U, 0xbf3e3515bf50155dU, 0xbf620f99bf58fd7bU, 0xbf165802bf1afb1dU,
  0xbf253a01bf49bb21U, 0xbf0a3cafbf663062U, 0x3fceb933bf5500d6U, 0x3f23e6273e8681c0U,
  0x3f1551b23ef70fd2U, 0x3eae03c13eb8f64eU, 0x3f12a5cc3ed44778U, 0x3f05d1dc3ec08553U,
  0xbf32bf293e18d919U, 0xbf5c0c8e3d362560U, 0xbd9d828abe38596cU, 0x3df4d1013e2998a4U,
  0x3eae9861be83163bU, 0x3f0aaf803e822277U, 0xbf69a4b23f0faccaU, 0x3f22e2563e8be503U,
  0x3ef8563dbe74232bU, 0x3ec9780c3f1f149eU, 0xbe575e103ed7a8b6U, 0x3f0423993ec79ad0U,
  0xbe8aeb3a3f241e09U, 0x3eda43f8bf76495cU, 0x3f2b20513db29900U, 0x3f0381babe7bfce3U,
  0x3e89920a3f3a78dcU, 0x3f2f1ec43f0193e4U, 0xbe338ea33f087315U,
};


ai_handle g_emotion_model_weights_table[1 + 2] = {
  AI_HANDLE_PTR(AI_MAGIC_MARKER),
  AI_HANDLE_PTR(s_emotion_model_weights_array_u64),
  AI_HANDLE_PTR(AI_MAGIC_MARKER),
};

