/**
  ******************************************************************************
  * @file    emotion_model_data_params.c
  * @author  AST Embedded Analytics Research Platform
  * @date    Thu Feb  8 15:59:54 2024
  * @brief   AI Tool Automatic Code Generator for Embedded NN computing
  ******************************************************************************
  * Copyright (c) 2024 STMicroelectronics.
  * All rights reserved.
  *
  * This software is licensed under terms that can be found in the LICENSE file
  * in the root directory of this software component.
  * If no LICENSE file comes with this software, it is provided AS-IS.
  ******************************************************************************
  */

#include "emotion_model_data_params.h"


/**  Activations Section  ****************************************************/
ai_handle g_emotion_model_activations_table[1 + 2] = {
  AI_HANDLE_PTR(AI_MAGIC_MARKER),
  AI_HANDLE_PTR(NULL),
  AI_HANDLE_PTR(AI_MAGIC_MARKER),
};




/**  Weights Section  ********************************************************/
AI_ALIGNED(32)
const ai_u64 s_emotion_model_weights_array_u64[1147] = {
  0x3bf749793dfdfd7dU, 0x3e81752bbc286dc2U, 0xbeedd703bd73f2e1U, 0xbdaf3baa3d147678U,
  0xbe091b6fbe26991aU, 0xbdd06facbe0a0d81U, 0xbd059e83be19055fU, 0xbe183150bdeee2bbU,
  0x3ddeafe23db7d5baU, 0x3db0855c3dfad8c0U, 0xbf08f4b13dcea5baU, 0x3e2d6f423dda72e3U,
  0xbe00c451be409d4eU, 0xbe1a4429be227c85U, 0xbd82eb81be1f73b9U, 0xbe0e05acbe01a12bU,
  0xbe1b295dbe369550U, 0xbe1d8b44be252754U, 0xbd531ae3be14137eU, 0xbe0c1d91be2540b8U,
  0xbe4dcc8bbe97b7d5U, 0x3dc711fb3d599ea6U, 0xbee3223c3f71270aU, 0x3efa95eb3ef75efbU,
  0x3ee3223bbf71270bU, 0xbefa95ebbef75ef9U, 0xbd8e98453d8e9843U, 0xbff4371ec00a3985U,
  0xbf87b749bfaffda8U, 0xbf14c27ebf492a6dU, 0xbe3c2f0abec094e6U, 0x3e53a4873c165000U,
  0x3f254cd03ed48d51U, 0x3f92b2e83f60a9a6U, 0x3ff8ea223fe2e301U, 0x8788787877675533U,
  0x8878675566777888U, 0xbabb9a8978454466U, 0x7846445555556687U, 0x5556545487999999U,
  0x7799998967777768U, 0x8857656576988978U, 0x8a99a99988778888U, 0x8799aaab8987989aU,
  0x8856444465565565U, 0x6677a89a88898888U, 0x9999888977565587U, 0xaa8899999a998998U,
  0x9999aaaa998898aaU, 0x9878565665667798U, 0x8798988988687798U, 0x8888986756556677U,
  0x657787879999999aU, 0x6866667678776745U, 0x6756444354667778U, 0x7788988987878878U,
  0x7788896766877777U, 0x7787677688888778U, 0x5466554566877787U, 0x6655444455555544U,
  0x6666877656446576U, 0x7677887877787867U, 0x8898988977889977U, 0x8877878888788899U,
  0x5676789889676787U, 0x879999aaaa898867U, 0x7756566667557776U, 0x76989a9a88998989U,
  0x7767666645454555U, 0x5586888888989878U, 0xaaaa999987665544U, 0xaa99894655869998U,
  0x5598ba9b998888a9U, 0x8977778777554433U, 0x7588aaaaaa9998aaU, 0xaaab9a99aa896765U,
  0x6665556576a9aaabU, 0x4644555565768878U, 0x9999998878878878U, 0xa99a998799a99998U,
  0x7798889999999899U, 0x8788786766666577U, 0x66556687babb9a89U, 0x8988888777775655U,
  0x7877788777778788U, 0x7798baaa9a999a99U, 0x8988786666776788U, 0x5565767888988989U,
  0x9898785655455554U, 0x6766667687998999U, 0x8788879889887677U, 0x7667665544445565U,
  0xaa9a8899aa8a7866U, 0x887788a999899899U, 0x7767767788999a9aU, 0x5466777777776776U,
  0xaabbabaaaa775644U, 0x35232233aa9a9999U, 0x89aa9a7866668667U, 0x7688999999897788U,
  0x9998a9babbaa8967U, 0x98888888888888a8U, 0x7777786765667787U, 0x88989a8878999989U,
  0x9999aaaa99898889U, 0x8a88999a99889899U, 0x775576888899a99aU, 0x8888888988787777U,
  0xbb9a877777879899U, 0xaa99a9babb9a99a9U, 0x898898a9ba9aaaaaU, 0x8877778787888899U,
  0x7856546645445565U, 0x8999aaaaba9a8988U, 0xa8999a8887a9cb9bU, 0x7788999978777787U,
  0x5666776766778777U, 0x7767554455567667U, 0x7698bbccab9a8966U, 0x9a99787776676665U,
  0xa9aaa99989687598U, 0x7776675666767788U, 0x8a78888877676676U, 0xaabbbb9a89899999U,
  0x879798998999aabbU, 0x776697989a9aaa9aU, 0x777688a9aa9a8878U, 0xbacaccbcab897787U,
  0xddfedf9b67768798U, 0x777687878899a9baU, 0xcbdcddddac897766U, 0x99897887889898baU,
  0x6597a9bbbbabaa9aU, 0xbc9b988967564554U, 0x78889989899898cbU, 0x97babbabba9a8878U,
  0x77778898a89a7878U, 0x7888a9aa99787777U, 0x9988776666878788U, 0x5645557598899899U,
  0xbbddcccbbbbbab79U, 0xaa998877779799aaU, 0x556556668898a9aaU, 0x8798998888877756U,
  0x5845658799a98988U, 0xbbbbbbabbacbbcabU, 0xaaba89898899a9bbU, 0xaa9987889889a9baU,
  0x898898aabbaba99aU, 0xbabbbcbb99888898U, 0x7877888989999999U, 0x9999998978777777U,
  0x78889899999aaa9aU, 0x6656665655557777U, 0x889899a968455454U, 0x8889a99a99999998U,
  0x8989989977777878U, 0xa9aaaaa999999999U, 0x888898a9aa9a8898U, 0x65879899898788aaU,
  0x7756766665778778U, 0x8787989999886777U, 0x8878887776766776U, 0x7776778898888878U,
  0xaa9a9a8978888988U, 0x7888889899998899U, 0x98aaab9aaaaaaa89U, 0x88998998999a8987U,
  0x9a8998a9a9aa9989U, 0xbbbcbbbbabbabbbaU, 0x76778788888898baU, 0x9989898898787777U,
  0x778798999a998898U, 0xbbbabbba9a898887U, 0xa8baaa8988a9bbbbU, 0x7687caab9a886775U,
  0x988898aabaab8877U, 0x8878776655657699U, 0x7888999899898788U, 0x7888888899aa8988U,
  0x7787878877766776U, 0x7687787766547577U, 0x8888888899aa8978U, 0x7888898989997887U,
  0x7898788798a99989U, 0x6777675635436487U, 0x8877676766776666U, 0x6687a9aaaa8a9989U,
  0x99a9baccccbc9a88U, 0x99caccdddcbcab99U, 0x7777a7cbddddddabU, 0x9999886656658978U,
  0x79677798aa898798U, 0xbbddddcdbc9a999aU, 0x78664544456586a8U, 0x676576878898999aU,
  0x8777769889786688U, 0x7856667688989979U, 0x9989687767a9aa9aU, 0x8979776676778888U,
  0x656687887777989aU, 0x9988aa8978677665U, 0x9a99778887886787U, 0x6755768889677698U,
  0x8799baccab797777U, 0x6687998999997977U, 0x7887777688886766U, 0xabbaaa9977778787U,
  0x88a9bbcbbbaaaabbU, 0xcc9b8a9977667676U, 0x7678788899aabbbbU, 0x7798a9bbaa897866U,
  0x99a9aa9a89776766U, 0xbb9b999998999988U, 0x99a9aa9aa9a999baU, 0x888888778799aa88U,
  0x878798a99a898888U, 0x8888887888878788U, 0x7867666777878888U, 0x6667678788989999U,
  0x8968565565767677U, 0x684643445486a9aaU, 0xcbddccbb55768798U, 0xaa898887989999a9U,
  0x8978667677879888U, 0x7678777867567598U, 0x4554656677776767U, 0x9999988867675644U,
  0x6655666776778888U, 0x4555566677564565U, 0x6565666655767756U, 0x7778576686897867U,
  0x9898787877665655U, 0x6687786766677888U, 0x658688887777a988U, 0x7688787767775545U,
  0x6776889998998967U, 0x8798a9babbbb9a79U, 0x8877567677889878U, 0x6755658799897877U,
  0xbb9b8988a9aa8a88U, 0x665566778899aabaU, 0x89a9abbbbb9a8978U, 0x9977564444658788U,
  0x8789786765879999U, 0x999a886666767778U, 0x4444657799a9ababU, 0x7776776776665544U,
  0x6656557687998888U, 0x7756665654445554U, 0xaa9a896776656676U, 0x8999898977769799U,
  0x7766668899aaab9aU, 0xccdc206387998878U, 0x658788988888a9bbU, 0x66878999a9996855U,
  0x7767666787887755U, 0x8877877888777667U, 0xaa999998999a8877U, 0x8887786777779899U,
  0x675687a899989889U, 0x5555657868667677U, 0xac89886756545566U, 0x667798bacbccddcdU,
  0x9998887877766666U, 0x89898887998999a9U, 0x6877879888888898U, 0x9a89889889777688U,
  0xaa99badcddccbbbaU, 0x68665566888999a9U, 0x7687785665879a88U, 0x8899887878886665U,
  0xbcab896776768878U, 0x99a9a9babbbbccccU, 0x8878887787889898U, 0x6676787787999988U,
  0x767788999a785566U, 0xabab999988674464U, 0x7778778898a9babaU, 0x668798a989786676U,
  0x8889989998999978U, 0x8888777767879889U, 0xbb8a888888888899U, 0x45456587babbbbbbU,
  0x5387a98977665645U, 0x9988788798aa9978U, 0x7777878899898898U, 0x657687a9aa897876U,
  0x6766657777786665U, 0xbbab897777777867U, 0x87888988996776a8U, 0x6776767698788888U,
  0x98aa9a9888786665U, 0x887788999aabaa99U, 0x99999a89999aaa98U, 0x6766666667878798U,
  0x5476885644655666U, 0x5755565455775645U, 0xaa9aaa9989999988U, 0xa99a887877889aaaU,
  0x6776988887998887U, 0x8968564554557667U, 0x98a99a8988667698U, 0xaaabaaaa9a997866U,
  0x898978879a8999a9U, 0x546597997887899aU, 0x6687aa8988463433U, 0x7788888888887767U,
  0x8888898888886776U, 0x7687887776889998U, 0x5645545554545464U, 0x5545443333647667U,
  0x6777667788887766U, 0x45658798998a7867U, 0x4566777788675654U, 0x97aacbccbc9b8877U,
  0x7777666645332053U, 0x8789999978667677U, 0x6644444354767766U, 0x7688888898aaaa79U,
  0x6677777777777666U, 0x8888777677775656U, 0x7687889888575576U, 0x6777878899788767U,
  0x9998788899998887U, 0x8977776666667688U, 0x7677777787888889U, 0xa9babc9a89896867U,
  0x9999886686a9ab9aU, 0x897845446698aaa9U, 0x887777667687a8a9U, 0x8978787787989889U,
  0xa97966769899a999U, 0x8856565555666597U, 0x5576888899998899U, 0x6866555455544455U,
  0x7757565566867878U, 0x7767667688898878U, 0x4475889988776677U, 0x7766768867665545U,
  0x5665666566455576U, 0xa9a9786666766655U, 0x8899999998898888U, 0x8888788898787777U,
  0x7787887877777776U, 0x7687998998aa8988U, 0xa8cccdcdccab8976U, 0x869899aa9a887787U,
  0x99999899998a6766U, 0xb9ddbc9b78677797U, 0xbbbb9a8856556587U, 0xaa89787777a9aaaaU,
  0x996877a9bbbbbbacU, 0xbb797698aa997987U, 0x8888999a5765a8bbU, 0x99aa897667778798U,
  0x9989aaaa69567687U, 0x7777888898aaababU, 0x87889999aaaa7877U, 0x56558688a9895775U,
  0x5655656667778877U, 0x9999886765666665U, 0x8799787777879899U, 0x6587cabcab795666U,
  0x8967554454565645U, 0x8998bbaa9a999989U, 0xab887898b9ccbb9aU, 0x7866767798babbbaU,
  0x88999999aaaa999aU, 0x8856667767677687U, 0xaa9aaabbaa9a8989U, 0x89a999aa8999a9abU,
  0xcbcc9a888898a99aU, 0x88a9bbbbaa8997aaU, 0x999989a99aaa9988U, 0x778799a999998877U,
  0x6687777788898877U, 0x7787898888564455U, 0x9967bcaa89878888U, 0x76777778778898aaU,
  0x4364554455656677U, 0x89aa999977554533U, 0x8988675555768898U, 0x7666566576989999U,
  0x897787a9aaaa7967U, 0x7756564444649889U, 0x8788778878666666U, 0x7776767788898888U,
  0x8888786755567677U, 0x5577778899998888U, 0xaaaaaa8867565645U, 0x87aaa99999aaaabaU,
  0x8888a8a999887875U, 0x9889888878788788U, 0x88aa999988888788U, 0x8888775556444466U,
  0x8877989989889999U, 0x8788786755767787U, 0x8899888867666677U, 0x67779799aa8a7877U,
  0x6656666677677678U, 0x7777777767767667U, 0x6645656666566576U, 0x6555555565556666U,
  0x7777776676776755U, 0x9988788898898877U, 0x8798898887788798U, 0x7788888877677776U,
  0x7666554544658767U, 0x7688988988888968U, 0x7787778777673522U, 0x4555767688887777U,
  0xaa89785556233354U, 0x6645455554657799U, 0x4444546697898888U, 0x6587999968666656U,
  0x6656445387888967U, 0x6676685555677866U, 0x7777676755445465U, 0x7677767798896866U,
  0x7777988988776766U, 0x8978887877787898U, 0x99a9aa9a99aa9a99U, 0xbaaa997856668799U,
  0x8888888888a9aaaaU, 0x9999998877778788U, 0x7766776766769899U, 0x8688998999777788U,
  0x8867565566775766U, 0x7877565566768899U, 0x7677988978778899U, 0x6565777777776665U,
  0x5665676777665556U, 0x7666664655666765U, 0x5655545566656655U, 0x5676887767556555U,
  0x5666878888676666U, 0x8866677777778867U, 0x7777777667667678U, 0x6776767678777788U,
  0x8788877755444365U, 0x4665657777555376U, 0x6677887877778867U, 0x99aaaa8977767766U,
  0x7687999978878899U, 0x777798a9aa8a6766U, 0x7888886786989a78U, 0x8788999989887777U,
  0xa9a9aaaaaaaa9a88U, 0x88999a8978777698U, 0x8888989aaabb9a77U, 0x9988999988989989U,
  0x7857655555669899U, 0x8899999998999989U, 0xbbaa897888887877U, 0x88787788aaaabbaaU,
  0xbaab9a8867669899U, 0x7967666787888899U, 0x8978888988999a88U, 0x7887776655557688U,
  0x6777999999987889U, 0x9889675656777788U, 0x7877564443437588U, 0x7898a9aa99797788U,
  0x8888999978878899U, 0x7877668789788877U, 0x6666554454768798U, 0x3443445566766666U,
  0x99aaaa9a89676645U, 0xa9baccbcaa897898U, 0xbbbbbcba89779899U, 0x87a99a98999988a9U,
  0x8978677667555566U, 0x9889a98999a99aa9U, 0x88a9a97978989999U, 0x7778898878667777U,
  0x8978677698a9aa89U, 0x897867788899aaabU, 0x897877989a988988U, 0x7666788876768798U,
  0x6666566676766656U, 0x9999788767565545U, 0x778777677698a9aaU, 0x8798ba9a9a997878U,
  0x7788775765666666U, 0x7688777686889988U, 0xaa99786656555555U, 0x75879978566688a9U,
  0xa9babbbaaa785655U, 0x9988775676778798U, 0x8797999a89888898U, 0xaa98999aba9a9978U,
  0x9999998888989999U, 0xaacbaaaa9a998998U, 0x5655758889778798U, 0x7867878888879888U,
  0xaaaba9a999998888U, 0xbaccaa998988a9aaU, 0xaa999a99998988a9U, 0x6687779899a9aaabU,
  0x44647698a9796765U, 0x4465767877765745U, 0x3344557688575544U, 0x9a7899aaaa997845U,
  0x86a9baab9a99a9abU, 0x54557587a89a9967U, 0x5455667888886755U, 0x9977664454445544U,
  0x88989999aa898888U, 0x9999998888888878U, 0x7756567698aaaa9aU, 0x8898988998898888U,
  0x7867777776778788U, 0x7698babb9a898989U, 0x9999997866776665U, 0x5544545566655587U,
  0x77989a9978877877U, 0x8888a8babbbb9a79U, 0x9a88babbab9a8988U, 0x7867667687999899U,
  0x6567665565869998U, 0x5576655455554454U, 0xaa89674454666756U, 0x88a99aaa9a98aaabU,
  0x7877777787888888U, 0x8899999989888878U, 0x7577989999787687U, 0x9a89777767454565U,
  0x7788888788a9aa9aU, 0x777888aa89885675U, 0xa9aaabbaaa9a9989U, 0xab8a9889888898a9U,
  0xac9a888899a9baabU, 0x676666a8dbddddcdU, 0x87999a8988888878U, 0xa9ab9a9999a98846U,
  0x8898987888677687U, 0x5555667788999999U, 0x8799997856444455U, 0x8898785755545476U,
  0x9998898899888999U, 0x795687babb786788U, 0x65779978566698baU, 0x7788665655554555U,
  0x77989998a9997877U, 0x6756768888887777U, 0x9a99998887787787U, 0x65756666768799a9U,
  0x8888877776776766U, 0x8899989988888888U, 0x9988787777776676U, 0x7698baaba9babbabU,
  0x7867677787666666U, 0x9989888898999989U, 0x8899898899999999U, 0xa89a999978779899U,
  0x9999998989998888U, 0x4555566676888899U, 0x8888776656555566U, 0x5444546586899888U,
  0x8877775666776655U, 0x99aabb8a99899889U, 0x88784544559789aaU, 0x5565667787988888U,
  0x7867778788776655U, 0xaababaaa99998878U, 0xbaba897787a96499U, 0xaaab999999887788U,
  0x9978566577888899U, 0x8866655687898888U, 0x899989788888998aU, 0x768888baab787588U,
  0xbc78679899898867U, 0x667798996756a7cbU, 0x9a788898a9a9aa89U, 0xaa9a8988777798aaU,
  0x7778778888a9a9bbU, 0xb9cbccccccab8867U, 0x8978777777676687U, 0x8788989a897798aaU,
  0xabbabbaa98997999U, 0x77878898aaaa99a9U, 0x99dbcdbc79767777U, 0x7766555576678789U,
  0x9899999998aa8977U, 0x9989777777676687U, 0x6576a8abaa999988U, 0x98aa9aaabb9a6866U,
  0x998998999aa9aa89U, 0x9989898898889789U, 0x99b9ab9a99989899U, 0xbcab9a99babcab9aU,
  0xaacbbc9b878799bbU, 0x889978679799aabaU, 0x8888778888789787U, 0xbbabaaaababb9a89U,
  0x7787a9bbbbaababbU, 0x88887756bbaa9a88U, 0x8988787887778788U, 0x3344669899888899U,
  0xbbbbbcbb9a573433U, 0x8866768798a8babbU, 0x8988787878777788U, 0x8777776666778899U,
  0x6687999989787787U, 0x5555556665666666U, 0x8888878878686765U, 0x9899987877778888U,
  0x99898988999a8988U, 0x9a88988878576586U, 0x223344556687a9abU, 0x7877676776774523U,
  0x8877877787999989U, 0x6577a899aa898878U, 0x6855546676778877U, 0x768799a9aabba999U,
  0x8877667666675555U, 0x5655657788888987U, 0x76777698aaab9978U, 0x6676778777767667U,
  0x7766564534334365U, 0x7888898889888877U, 0x9999889999999988U, 0x7777787888677788U,
  0x8767675544445465U, 0x8877676656557588U, 0x8888898878777888U, 0x9999999a89887877U,
  0xbbcc776767768799U, 0x88897867767798a9U, 0x7967464454767687U, 0xcdbc898988778898U,
  0x9898878898a9ccdcU, 0x767788989aba9aa9U, 0x9888a9999aa99a78U, 0x4523436466667678U,
  0xab99887866666767U, 0x988978768798aaaaU, 0x9999999988787866U, 0x7777a9bb9a787687U,
  0x8967554434344464U, 0x98a99a9998aa999aU, 0x7867777778766777U, 0x8978778788887888U,
  0x7687887877677798U, 0x7778673522324465U, 0x9899baaa9a897777U, 0x887788a99a989988U,
  0x778798a99aaaaa99U, 0x8888899888888977U, 0x4544333343546567U, 0xa9aaa9aa99997856U,
  0xaaa999a99aaa9a89U, 0x8999a9baabaa8899U, 0x999a998898aaaaaaU, 0x6665656645657687U,
  0x98999aa9aaba9b68U, 0x9999998998998988U, 0xa999a99988889799U, 0x8777776676778899U,
  0xbc9a7888b9cbbcccU, 0x6687a9aaba8a99b9U, 0x54558698aaaa8968U, 0x6667666667686665U,
  0xbabaab9a89888877U, 0xaa988888aa7887a9U, 0x467598bbbb8a87a9U, 0x7777989978778778U,
  0x7865677688898978U, 0x99a99a8876777877U, 0xaa99888778877887U, 0x656677666597b9aaU,
  0x9979575544444454U, 0x8799aa9989887787U, 0xbbbcaa8a77777766U, 0x7776877798bbaba9U,
  0x7767556677788887U, 0x8877766645444455U, 0x778899a99a788798U, 0xbbccab8989777676U,
  0x767687889999a9baU, 0x8889888889887767U, 0x99aa9a7887889988U, 0x99999aaa9a9a9999U,
  0x8899899878777888U, 0xa8aa9a9aaaba9a89U, 0xaaaa998888898888U, 0x88997998998988a9U,
  0xaa99a99abbccbc89U, 0x87aabbbbcbcbbbabU, 0x9888776655555577U, 0x7776554433228698U,
  0x676677a899675676U, 0xabaa997887989988U, 0x666776767687babbU, 0x4354878889988977U,
  0x9887567677775545U, 0x6755658799777688U, 0x999888889899a979U, 0xbbab8988a8ab9999U,
  0x5455665666667699U, 0x9899988978786755U, 0xbabb9a7966776666U, 0x998888889899aabaU,
  0x98aa9a99aabaaa99U, 0x4454766677988888U, 0x8878686676886745U, 0xab79656676878889U,
  0x8899cbabaa9999a9U, 0x7777778778557587U, 0x4455446576888888U, 0x8777778878675544U,
  0x8877788888888877U, 0x8888998898788788U, 0x6665879899988877U, 0x5555566555545556U,
  0x8899785676776766U, 0x8889889999897877U, 0xa889778788776667U, 0x7767675566878999U,
  0x5655454554878778U, 0x9999999989787866U, 0xbbcbcccc89666698U, 0x888788a9ab9a89a9U,
  0x8788887788888888U, 0xa9aaaa9977777667U, 0x8876788887778888U, 0xa989888888888988U,
  0x887787a8aa998888U, 0x7887989a686687a9U, 0x877777877787988aU, 0x4444557688887887U,
  0x8999898889685655U, 0x55668787a9aaaaaaU, 0x9988988878665554U, 0x786787989a897898U,
  0x5655545465979989U, 0x9788888788998977U, 0x99999999aa998988U, 0x5587788788788898U,
  0x7867879989676656U, 0x7767564544547688U, 0x7877779899bbab89U, 0x78889899999a9989U,
  0x8799998898897787U, 0x9999988888786676U, 0x666666878899a999U, 0x8999998a99998878U,
  0x8988888899a99999U, 0x8987889899998898U, 0xbbccab9b98a99998U, 0xccccbbaa9a99aaabU,
  0x767798bacbddcdccU, 0x99aaa99989685666U, 0x66667687a9aa9a89U, 0x6486888888785655U,
  0xa99a998878564544U, 0x8888988988778777U, 0x9a67556588998887U, 0x88777687989999a9U,
  0x8977989978668688U, 0x4465768877668698U, 0x9b99a99978565556U, 0x98899988a9b9bbbbU,
  0x7888778799998888U, 0xddcdab8887888988U, 0x768788a9aabcccddU, 0xaa99998878677677U,
  0x78777799bbbbcbbbU, 0xab998899a99a8887U, 0x9888877797cbcdccU, 0xa9aa897777876787U,
  0xbb9a685555668689U, 0x78878897aa9aa9baU, 0xbabbba9a88888878U, 0x76878877678799baU,
  0x7777887877786667U, 0xa989888877665665U, 0x75677766879799aaU, 0x778799a98a785655U,
  0x988988a9aacbab89U, 0x9899897878878687U, 0xa98a888788787777U, 0x9898a99999999999U,
  0x99baab7867657677U, 0xaa9a787777865634U, 0x77677787999999a9U, 0x6756556588bb9a79U,
  0x759798aa9a886777U, 0xaba9aa9a88776676U, 0xaaa98a999a566598U, 0x6a5597cbac8a78a8U,
  0x6786989a8998baccU, 0x6865669899888877U, 0x7887886755548788U, 0x9999889899988877U,
  0x9a89575576778787U, 0x7876878878667798U, 0x6677877857546577U, 0x6555555565566655U,
  0xbb9a787787675645U, 0x5587aa786688cbcdU, 0x7777776687785666U, 0x7687887767869988U,
  0x8799786666555566U, 0xaabbbb9a78566576U, 0x9989787777898898U, 0x7755448699989999U,
  0x56758898988a8888U, 0x5665666655766766U, 0x88777688a9aa7866U, 0xabaaaa9998a9bb9aU,
  0x8899887778a89aaaU, 0x98888888999aaa9aU, 0x9a78667689886776U, 0x8999a9aaa9a9bbabU,
  0x989a8998bbddddacU, 0x8899a9aabaaa9999U, 0x8889a9cbcc8a7888U, 0x9999aaaaaa996777U,
  0xbbac897888878888U, 0x9999aa8a8899bbcbU, 0xbabb898898babcaaU, 0x8899997866566597U,
  0x89a9cbccbdbbab8aU, 0x9a89676687998988U, 0x78777887a9aaaabbU, 0x6666678899889999U,
  0x7677675656556567U, 0x87a9bb9a99998979U, 0x8789998877655676U, 0x6666878889776666U,
  0x7698abbb9a988967U, 0x6766566777667766U, 0xbbccbba9aabb9a88U, 0xaaaa8999876687baU,
  0x8887a99a888898a9U, 0x668789a9cbbc8b98U, 0xaa9a888988777867U, 0xabbbbbabbbabba9aU,
  0xaaba9aa999a99aa9U, 0xaaaaaabbaaaaa9aaU, 0xbbabaaaabbaaaa9aU, 0xaa99997887b9bccbU,
  0x9989889899a9aaabU, 0x998988a999999999U, 0x8999badcccbcab9aU, 0x8897baddcdac8a99U,
  0x5576778877778888U, 0x8877889999a97878U, 0x999aaaaa9999aa99U, 0x8988998989898888U,
  0x89a99a6776889899U, 0x758799999889a999U, 0x7778565597997956U, 0x8777788898997877U,
  0x9999999999998978U, 0x7888989989788798U, 0x6767677777998979U, 0xcbbcbb9b99877777U,
  0xaaaaaaaaaa99a9baU, 0xaa9a887766778899U, 0x7887888967769899U, 0x9999575555879899U,
  0xaabbccbb8a675596U, 0x8888889988888899U, 0xcbcccb9b89888878U, 0x99997866777799baU,
  0x98aabaccab9a9999U, 0x6655455566556576U, 0x778798aacbbbab8aU, 0xa99999a999887878U,
  0x7666778888889899U, 0x99898898a9897867U, 0x8978777788989899U, 0x567597baabaa9a99U,
  0x7778999989998877U, 0x5466567598898888U, 0x3322889898886645U, 0xab89888877676656U,
  0xaa9978878898a9cbU, 0x899978677698a9bbU, 0x667688a999999898U, 0x6677776676667778U,
  0x7687877778777766U, 0x98aa897766868777U, 0x5666566576666677U, 0x6676777776675665U,
  0x7856445576676666U, 0x999999898889a999U, 0x76788788989899aaU, 0x7777767767565565U,
  0x8877776655547588U, 0x7778564444657777U, 0xa9babb9a66556576U, 0x786687a9ba896788U,
  0x897799a9a9aaaa89U, 0x6588babbbb998999U, 0x9988887776665555U, 0x6766777788888887U,
  0x8887777788889889U, 0x8988666677989988U, 0x7697989899aaab99U, 0x9a88888888775566U,
  0x9889786787a8baccU, 0x7676566676677687U, 0x6766776766666766U, 0x5455766766665666U,
  0x7698aa8a46333343U, 0x7667678789675555U, 0x8899899999784623U, 0x7777777798898988U,
  0x7776768798898877U, 0x8998999977877777U, 0x8878777787888788U, 0x8887888878665577U,
  0x8978657687786688U, 0x557688776687a9bbU, 0x7767566656564455U, 0x6566877798988887U,
  0x9a99988999997857U, 0x55655555657799a9U, 0x5465878888997856U, 0x9968555565866755U,
  0x6676666788a9aa9aU, 0xab9a777767766655U, 0x8798aa797788babcU, 0x87989899aa887777U,
  0xaa8a886776877766U, 0x88676677888889a9U, 0x9699a99a79878888U, 0x9999998988785554U,
  0x5665767798989899U, 0x9988888878666665U, 0x99999a8988989999U, 0x6645657798ba8988U,
  0x5666666666767767U, 0x7867666666887777U, 0x5465668777777776U, 0x9989675665564544U,
  0x8788887856556588U, 0x88898888badc5577U, 0x8968455466677778U, 0x997777a8babcbcbcU,
  0xbcbbbbbbaaaa99a9U, 0x8899898898aaaacbU, 0x8888a8babc9a8888U, 0xbbab799888989989U,
  0x88a9aa99babaabbaU, 0xa988998888899988U, 0x668766668688999aU, 0xaaaa9a999a997877U,
  0x89a9ab89888899aaU, 0xbacbbbaababbbcaaU, 0x6676776787999a99U, 0x8887875744444565U,
  0x88999a8978888877U, 0x8898897856657688U, 0x777798aaaaaa9989U, 0x6555658798aa7877U,
  0xa98a888988674555U, 0x9b88776756668798U, 0x67777798cbdcddbcU, 0x7777878798a9aa9aU,
  0x6677787887999a88U, 0xa9a9aa9999898878U, 0x99889999aaabaa9aU, 0x9aa99a999999aaaaU,
  0xaa999a8999aaaabaU, 0xaa99888898aa99aaU, 0xa89aaaaaabbabbbbU, 0x666687a9a9899898U,
  0x9a677688ce9b7867U, 0x759899787797bbbbU, 0x7777888788986867U, 0x7677a9aaaab99a79U,
  0x899989a899997877U, 0x88a9785654668788U, 0x4486988898aaaa9aU, 0x7778676698996844U,
  0x898898aaaa9a8878U, 0x7766677697aaaa99U, 0x9999aa8988676676U, 0x776666776787a999U,
  0xcbccab8a78778788U, 0xa9aaaa9aaa9999aaU, 0xaa99888867667698U, 0x6665767756547688U,
  0xcccc9b999a9a7877U, 0xb9bbab9a7899b9cbU, 0x8899999a89677788U, 0x8888988988889988U,
  0xa9ab997766658788U, 0xb9cbddcd9b897888U, 0x7877779889687788U, 0x8878988998899889U,
  0x9978878898898888U, 0x9989998998788798U, 0xbbaa9a8988888888U, 0x55568698a9bbccdcU,
  0x454476a8aa9a9977U, 0x4555758867776756U, 0x869899a99a786656U, 0x8878bcbb9b997876U,
  0x8788aa9a78768788U, 0xab9a989989778777U, 0x5465677788a9bacbU, 0x8888779899897755U,
  0x98aaaa99aa999998U, 0x77a9abaa99889987U, 0xa9cb8a7697cbbc8aU, 0x65666777a89a7877U,
  0x7788788778877766U, 0x7977666566666776U, 0x8788998899a9a999U, 0x99bacbbb89767777U,
  0x8888987887887987U, 0x7766557687988877U, 0x8888786777778878U, 0xb9baaa897797a999U,
  0x9a78768899687688U, 0x997867667698babbU, 0x8899998989788797U, 0x9989989989676687U,
  0x99aababbbbab8989U, 0x8898aa99897899aaU, 0xa9ba9a8978877767U, 0x6676776677889899U,
  0x8957555465667667U, 0xaa899988778799baU, 0xaababbbcbc9a99a9U, 0xaaaaaa9a786677a9U,
  0x8888a99a88678799U, 0x4465765655667787U, 0xccbb9aa968353333U, 0xb6078685b62890f9U,
  0xb5ad177eb5ec7cbaU, 0xb519840ab56f1158U, 0x342ecf29b467ae43U, 0x3562609f350144f1U,
  0x35be75c3359b12e7U, 0x3618ccd135ec8ac3U, 0x364a3db536318543U, 0x57765749734697a5U,
  0x686958b6a5898666U, 0x8775965979736646U, 0x568747957973c698U, 0x7386786872689586U,
  0x98865ba765597666U, 0x7436a46556779c57U, 0x685ba77b75667864U, 0x574a954706959366U,
  0x475a557655676638U, 0x468a47b6a6964676U, 0x3484575474768754U, 0x466a66b7b7874684U,
  0x3476574464778874U, 0x4798698a88959999U, 0x5935658568785496U, 0x8477758754699569U,
  0x95a36b8646397685U, 0x8886a9786763736cU, 0x7565867b87957f56U, 0x8a56858667785558U,
  0x4764478a63b64588U, 0x5a893986479567a9U, 0x7788829579566593U, 0x97c87743894b5565U,
  0x6ca6896289866673U, 0x6316a66476575c44U, 0x886b867987656875U, 0x7936859576684566U,
  0x7874568a75a54588U, 0x96948a9678264688U, 0x6876884345687773U, 0x4086633a40e31b23U,
  0xc1d44e01414f4875U, 0x418ee537c18a5c4fU, 0x410d79a841753c69U, 0x3fd8b83c416064a4U,
  0x40daf489c10da25dU, 0xc1dd5c54415669b2U, 0x41b5ef68c147793cU, 0x3f16abdc3ebb07c3U,
  0x3eaa5dbd3e57ab5bU, 0x3f2477d83ec0a043U, 0x3ef2c9c53e2ef06eU, 0x3f03cd413ef03a3bU,
  0x3ec953fe3eefbd5bU, 0x3ea148553efa3efbU, 0x3f034cc23efb489dU, 0x3ec27dbb3f60d917U,
  0x3f22700b3f3de6a6U, 0x3d5d3a2f3e243bfbU, 0x3f15717f3f015ab3U, 0xbd856fb53ec7bdc6U,
  0x3dfd9c873ea84bcfU, 0x3e492b153ee9b30cU, 0x3ef0c1d03eaf752dU, 0x3d247a923f220c9dU,
  0x3ed517993f31b6bdU, 0x3e939fca3ed15e3fU, 0x3ee380cbbe308d90U, 0x3e95bdf73f37ccbfU,
  0x3f07264c3ee0313bU, 0x3ec015a03f001f48U, 0x3f0254df3decb244U, 0x3f3df0783f326ec5U,
  0x3f1d9e493f1a9868U, 0x3f4487bf3f25f6b4U, 0x3eef93e93e9d2303U, 0x3f4ada363f1a678bU,
  0x3f45868b3f202ea5U, 0x3f2ecb413e9088e3U, 0x3f0f8c353f320c52U, 0x3b1233ddbe506058U,
  0xbc1412b73da910d8U, 0x3f26a50a3e7214f8U, 0x3ee5337e3f332823U, 0x3f23bbf73e196605U,
  0x3e7944533f10e4e2U, 0x3ec2aa1b3e97dcc7U, 0x3d8f44883f1d7cfeU, 0xbf6b7677bf3d0c51U,
  0xbed3c3bdbef8fce9U, 0xbee80eb5bf2d1599U, 0xbf25522cbf1bb2baU, 0xbf3db784bf13a55aU,
  0xbf326773bf0a574aU, 0xbf119eecbefe97c3U, 0xbf84962ebf61e0e2U, 0x3f64e4db3d809cb5U,
  0x3ecd14c33f29bd3cU, 0x3f010a583f1d990aU, 0x3ea8a3e63f237a23U, 0x3f6661c53ef2e10eU,
  0x3ec6546e3f2f5fd7U, 0x3eb589093f28c105U, 0x3f3791bb3e9cb4f6U, 0x3f4372d73f2cf2beU,
  0x3ec655273e0db649U, 0xbe9ea0b93ef0671cU, 0x3c9255503f514e10U, 0x3eb2554dbd1f4d33U,
  0x3f24ea853e536accU, 0x3ef0a2973ea62a1bU, 0x3eb71b883f02aaf7U,
};


ai_handle g_emotion_model_weights_table[1 + 2] = {
  AI_HANDLE_PTR(AI_MAGIC_MARKER),
  AI_HANDLE_PTR(s_emotion_model_weights_array_u64),
  AI_HANDLE_PTR(AI_MAGIC_MARKER),
};

