/**
  ******************************************************************************
  * @file    emotion_model_data_params.c
  * @author  AST Embedded Analytics Research Platform
  * @date    Tue Mar 26 02:00:13 2024
  * @brief   AI Tool Automatic Code Generator for Embedded NN computing
  ******************************************************************************
  * Copyright (c) 2024 STMicroelectronics.
  * All rights reserved.
  *
  * This software is licensed under terms that can be found in the LICENSE file
  * in the root directory of this software component.
  * If no LICENSE file comes with this software, it is provided AS-IS.
  ******************************************************************************
  */

#include "emotion_model_data_params.h"


/**  Activations Section  ****************************************************/
ai_handle g_emotion_model_activations_table[1 + 2] = {
  AI_HANDLE_PTR(AI_MAGIC_MARKER),
  AI_HANDLE_PTR(NULL),
  AI_HANDLE_PTR(AI_MAGIC_MARKER),
};




/**  Weights Section  ********************************************************/
AI_ALIGNED(32)
const ai_u64 s_emotion_model_weights_array_u64[2067] = {
  0xb8878eb2b8bf8d04U, 0xb8221aabb859839bU, 0xb794559ab7e85ab4U, 0x35ee365ab6f938caU,
  0x37d773a93766ceeeU, 0x3856f0b3381f278bU, 0x38ae8c00388852a7U, 0x3902173738d30364U,
  0x4647483787786895U, 0x5547793765684684U, 0x83678557497367a5U, 0x64576947a6777786U,
  0x8567394777787887U, 0x7567865766644898U, 0x6547698757683836U, 0x3477873754695767U,
  0x3447696758694768U, 0x5447858794686796U, 0x6257778787658837U, 0x63776667955a7835U,
  0x75679a7774658878U, 0x8647874799773783U, 0x7457585788755883U, 0x8447496777776882U,
  0x8167666734683885U, 0x8247683796664856U, 0x5377946775849736U, 0x63775767a7637784U,
  0x7567996785676787U, 0x6487796755848897U, 0x74674547767668a3U, 0x9367776747664787U,
  0x8257975749595757U, 0x8687876799794777U, 0x9677546779778768U, 0x5467769766679845U,
  0x8487774777739868U, 0x567767875a848846U, 0xa777677796898844U, 0x6467759768668756U,
  0x6677778746795757U, 0x5577476768765848U, 0x7487a97797756756U, 0x8677558778685777U,
  0x5457665748788787U, 0xa667665799957789U, 0x96676a5794757787U, 0x57879787958947a9U,
  0x7677789794886758U, 0x8567399764865749U, 0x4577567746685788U, 0x8897459747875866U,
  0x5447766778794899U, 0x8587886768898878U, 0x77a74567647a6875U, 0x6667574799777745U,
  0xb687848764879769U, 0x9577857797667787U, 0x7557498769885797U, 0x5587847748658758U,
  0x85874a6765788788U, 0x5677595787768778U, 0x668766778a975799U, 0x8267757775688848U,
  0x86a7684767539889U, 0x6977744755787847U, 0x575794777a8a5889U, 0x8597977766859868U,
  0x8667765787659763U, 0x8787579744845794U, 0x8587659778798896U, 0x4497497768688748U,
  0x8557696799575784U, 0x8697863796679795U, 0x76a7544799856898U, 0x7657959784885757U,
  0x7357693747666758U, 0x7667643767589887U, 0x8657468758596767U, 0x7677965795687777U,
  0x86879937a8684787U, 0x4467988786785888U, 0x6447685784775857U, 0x6577757756675855U,
  0x6677855799767787U, 0x7457867754764866U, 0x6447875785795856U, 0x6287695769536869U,
  0x8377656768486737U, 0x6357945776556758U, 0x5357584786575864U, 0x9267766787583847U,
  0x5247793739657885U, 0x7157876767674857U, 0x724776476a648844U, 0x6257693785674776U,
  0x4357885784546774U, 0x6277993799548767U, 0x5167465744444753U, 0x6247493789557756U,
  0x3267853754565785U, 0x3347567758568895U, 0x8367845749685847U, 0x5347473797796865U,
  0x6167856789687858U, 0x8387953745558856U, 0x836757578a757865U, 0x8157858755687858U,
  0x5367467765768768U, 0x92675a7785897858U, 0x5277747734797865U, 0x437758477a655864U,
  0x4257665766685888U, 0x5577568769876776U, 0x7277745758758869U, 0x538766674675986aU,
  0x8487498745849858U, 0xa367744748776856U, 0x8257982797657866U, 0x8377468755775868U,
  0x8277696754699877U, 0x6277376798756878U, 0x7367863765545898U, 0x7367946779677797U,
  0x8367655768757744U, 0x8157674746698766U, 0x6267683786677748U, 0x6557477794756794U,
  0x83677647446a4798U, 0x5257582768483756U, 0x5347a94747585757U, 0x5367756759583767U,
  0x5447944775576756U, 0x4347866795657786U, 0x446758576a758757U, 0x6557768778655796U,
  0x457797378a653756U, 0x5557587795795868U, 0x847765478a745887U, 0x8687887775846845U,
  0x6397447759679888U, 0x5567473757668899U, 0x8777964797889754U, 0x6447387796765779U,
  0x8487888788785847U, 0x8557584745749784U, 0x5567664749747798U, 0x6587998788787756U,
  0x8457587773689769U, 0x6567679753879794U, 0x8597987749677777U, 0x877748878686775aU,
  0x7757785745738786U, 0x8657879759946775U, 0x9757688775877787U, 0x7597485758868779U,
  0x9697378746785747U, 0x9497894769834764U, 0x4587355788784788U, 0x8377974795788768U,
  0x9597687757789748U, 0x5857568746747749U, 0x9577694746757788U, 0x6577865789787775U,
  0x9657794744885787U, 0x4377693767775775U, 0x9557466797858777U, 0x5487895779848778U,
  0x9287756786646745U, 0x8577695766686738U, 0x8457464749748745U, 0x8167957764648784U,
  0x5167964775674796U, 0x926735778a747755U, 0x7257657737758786U, 0x5367796798658787U,
  0x6177896777568786U, 0x7377947734785777U, 0x5387746739747856U, 0x7367894755699885U,
  0x5377645777757885U, 0x6167685786667856U, 0x7377555797776844U, 0x5467487779547854U,
  0x8367965756575888U, 0x5357653748756855U, 0x8157556767658736U, 0x8157a737a8658797U,
  0x437765474a757787U, 0x5257657776645785U, 0x6257575768857853U, 0x5277553786785857U,
  0x7367686756857885U, 0x9367748745884753U, 0x9377947786688745U, 0xa277866758899738U,
  0x9287678777845758U, 0x5497567779887756U, 0x9667543796785787U, 0x8447378787768744U,
  0x8557876758699748U, 0x9487477768666738U, 0x959795476866777aU, 0x9557478765699787U,
  0x8677574776776775U, 0x8857765775898788U, 0xa567678798836778U, 0x8387685756656798U,
  0x8657496798787748U, 0x6397594777665778U, 0x9687588755848759U, 0xa6875a4796896887U,
  0x557758875576a855U, 0x7867859785897797U, 0xa797898767845755U, 0x8857789765847769U,
  0x7557396789988767U, 0x9757896789837756U, 0x6567794779749749U, 0x94874557a3798786U,
  0x6467534779696888U, 0x86a7a887a6667867U, 0x4567a85774868878U, 0x9677557768787846U,
  0x76878897868568a7U, 0x4697454799698856U, 0x7777854797799879U, 0x7667584768848845U,
  0x5667656788747858U, 0x7457495785798894U, 0x9587a6578a759865U, 0x7457844798854886U,
  0x8577886786886845U, 0x6357864757746845U, 0x5467873746796897U, 0x9687754769859746U,
  0x8487866764585747U, 0x858777775a698788U, 0x76779a5755688748U, 0x69679887978578a7U,
  0x9657496764878858U, 0x5477367755767787U, 0x3467893796778779U, 0x6367787758588878U,
  0x8487644759665885U, 0x7557857797676884U, 0x8587853766658885U, 0x6577576758667896U,
  0x8587855757644878U, 0x7797596758765876U, 0x9457594755868895U, 0x5387966799788845U,
  0x55673a9766767889U, 0x5597765789667885U, 0x9497484786766839U, 0x8377867747647884U,
  0x8ad77977a940d58cU, 0x8d9722878a688658U, 0x3c6713977a838699U, 0x8a7797579878a59cU,
  0x269696b79973b469U, 0x4a9664a72878852bU, 0x9ba77a877575858cU, 0x2b877857a36ab54aU,
  0x5c778b3767726578U, 0x4da72157828364baU, 0x4b87aa57218984b7U, 0xa9877a57827b6463U,
  0x6847766767779538U, 0x8a872687437bb6abU, 0x6b87a387a9858552U, 0x67673b670b8284b3U,
  0x864733676b768569U, 0x7b9783b763769578U, 0x4a67ba47586b44b8U, 0x5987323772775594U,
  0x469795971b6b5528U, 0x2a972437537885b8U, 0x6a87a397189936b5U, 0x3a6768578b553656U,
  0x3b7771673c5336b4U, 0x69972897a4733625U, 0x8897a5b72a686696U, 0x37572887aa4655b5U,
  0x3a578577965625b7U, 0xa97754a7927b4658U, 0x8877b847346b9694U, 0x6a97b647788676c5U,
  0x8a778a37617786c7U, 0x5867a4778a665563U, 0x78675367a5694646U, 0x7c674197368946b7U,
  0x8a678ab77b638557U, 0x3857a1875c453593U, 0x4c87a357aa6295b6U, 0xaa6786474a8b6527U,
  0x26679877337a7623U, 0x4b876b67a8794638U, 0x6d77c487a3945648U, 0x9787888748738547U,
  0x6a777867426a7536U, 0x8a6722b567747583U, 0x39878177a9663493U, 0x78871577995b96b8U,
  0x7a974847a8497583U, 0x2a47b5b791783632U, 0x7887a6773a6836b7U, 0x4a472197a77276b8U,
  0x27775b876b75a6b9U, 0x26578137a97956a4U, 0x28872847825986a6U, 0x8a974597435675aaU,
  0x8a578b9757636532U, 0x76673b9754658552U, 0x2a474787586345baU, 0x6887a647a37b5599U,
  0x68878a57248227b5U, 0x77a7b8473a7a5776U, 0x47674aa7676397b2U, 0x79a799c787739739U,
  0x2777b4b7b656779bU, 0x57776c778556b615U, 0x5a6757773255353aU, 0x8b87a9a7747b654bU,
  0x3b7742779b825533U, 0xc867abb7948365a7U, 0x675792a788956667U, 0x26a74a87887aa67cU,
  0x976735573b59b655U, 0x4887963759518529U, 0x8a8786973659659aU, 0x2887a5b762784689U,
  0x6b573a47b7856557U, 0x78774a778179865bU, 0x49b792a7796186a8U, 0x1967c5876a6556a3U,
  0x49a733674c696646U, 0xaa8746a7a97295baU, 0x399745574a753558U, 0xa9477547b17475a9U,
  0x886765b77b889563U, 0x4a8758479b719668U, 0x5cb7c287569a761cU, 0x596767574189b65bU,
  0xb887aac7b18b8679U, 0xc987327798867789U, 0xcc976ba75993a799U, 0x9ca738772598665aU,
  0xaa57a877a498672aU, 0xa9a7a2c7699a673cU, 0x5a7766b733896617U, 0x68a7b7878b8aa68aU,
  0x58b741a77581a6aaU, 0x7a97ba87a4969677U, 0x98a758a78b82a627U, 0x4aa784879a6b85a7U,
  0x8a87949771758775U, 0x99676377817a4799U, 0x78778187697b366aU, 0x4a573a475b6876c9U,
  0xa95759c7a7818675U, 0x8787274769752635U, 0x9967b397b5782687U, 0x3a573797739a4759U,
  0x9a872577ba996715U, 0x88474577399a962bU, 0xc79761674a87a646U, 0x48578a872a71877bU,
  0xa9b79ac73477b7b8U, 0x3877b1878975a795U, 0x765796c72b83b787U, 0x98a763978299b61bU,
  0x86678b372672a6baU, 0xaa477b9788785684U, 0x67a76357b7517699U, 0xa68729875a466719U,
  0x889753b7417157b5U, 0xbba76487bc8cb788U, 0xa85731477484a649U, 0x8677a5a74b6956a9U,
  0x67478a47378986a9U, 0xa7b7a177b478778cU, 0x98474a87396197a9U, 0x39878a67468957a7U,
  0x7b57b19752abb757U, 0x7987b7578388b78aU, 0x8a87b7c7518b8684U, 0xa6976cb78364468bU,
  0xbb574bb772916652U, 0xa9a723a7639a965aU, 0xc957a7876a893677U, 0x9ca72ae7a894865aU,
  0x584756a7868b8632U, 0x88874277898a86a7U, 0x8a87b797a783b6acU, 0x989711476a85963bU,
  0x686768c7428b8744U, 0xb9779237cb678688U, 0xcc673a47b8858638U, 0x5537b167687696abU,
  0x4bc73b47c6998669U, 0x89678857c2a3b68aU, 0x5887cb773183b697U, 0x878753b7b873562cU,
  0xb737a9877982379aU, 0x6aa774c772a65648U, 0x89674ad78a838628U, 0xa96768776c53765cU,
  0xa96723878a588659U, 0xa9775457a975762bU, 0x5bb789972292b674U, 0x8877b5d7a89346b5U,
  0x48a769772a79665aU, 0x4b7733b7b795962cU, 0xb74771c7b3777685U, 0xa8777b77257bb64bU,
  0x39572ba73178a648U, 0xa847a8b7466ba6bbU, 0x39a746a75371859bU, 0x5aa7ca872b935577U,
  0x9b9744d751896668U, 0x9b77c777b69876a9U, 0xb747529796966735U, 0x65478677116b56baU,
  0xba6764c75464766bU, 0xacb74787828335b4U, 0xa5373bc71a8976a6U, 0x878719c7487266a6U,
  0xba4775c7a86865baU, 0x9a4795478a5b95a5U, 0x47272897a3794557U, 0x87676a87b5958637U,
  0x48b7a2977b7b9569U, 0x89a71b4744736618U, 0xca87295796818617U, 0x98679377aa6596a9U,
  0x69a729779a7b761bU, 0x6bb757976399c73bU, 0x58979a77a168763cU, 0x9b7729c774997698U,
  0x8877435736629658U, 0x3a8759676a8356a7U, 0xbba748c742a5a784U, 0x8d7722c7b7a7a63aU,
  0x9d87b5d753b466b7U, 0x893768d787a35696U, 0x9957b8d73aa8462bU, 0xcb671b9738a396acU,
  0x8877887765898639U, 0x4ac714c72379c749U, 0x8a972357397975b2U, 0xa88788c74788a696U,
  0x7a6792a75385965aU, 0x5a876a97a488a6abU, 0x8bc769873997a56aU, 0x5997b95771a4972cU,
  0x68b7b3977b52b739U, 0x7c9755679189c6b7U, 0xcb97a79713888685U, 0x9b5735a79792a664U,
  0xd9871ac768aa5634U, 0xa9a732d743879656U, 0x7ba7c987736a96a8U, 0x997721378b62967cU,
  0x5b8781b7438ca7baU, 0x8b77cc97bb829724U, 0xd987baa752928745U, 0xaba79447bc77b6acU,
  0xacb7a2c743835564U, 0xa987b9c7a389456aU, 0xa9b7aab76771961bU, 0x68876567a5689616U,
  0x99a7b36794437588U, 0xbd576597b276a544U, 0x77673387795b157aU, 0x9947a7a762787546U,
  0x3a775bb79a7b9529U, 0xa9872a8752543598U, 0x794775677575a5b6U, 0x4b97bb6748896532U,
  0x88678b87317c96b6U, 0x496761773363362aU, 0x68974687395a559cU, 0x9657a6671857566aU,
  0x6a875697a852a65bU, 0x2aa73c77c2795676U, 0xcaa7c4d7949636b3U, 0x3777cb375479b5a7U,
  0x977792c7cb69b679U, 0x3ab729b722824649U, 0x6d875ac7729b9658U, 0x9b578ad724866637U,
  0x5a875b47637a6646U, 0x4aa7b367917ba579U, 0x5957489793799547U, 0x999789972873a595U,
  0x5b975777978445a9U, 0xaa5794478c83a52bU, 0x5a87b3b77394a5adU, 0x4ca763d758939679U,
  0xac974cd76599b6b9U, 0x5b77a8c7429a968bU, 0x9c6735b79ca2865bU, 0xadc732f783c4b6cbU,
  0x6667867787785765U, 0x5687588785755766U, 0x7577668775798878U, 0x7687887786677886U,
  0x5767677776898766U, 0x7567887756687767U, 0x8587786786757776U, 0x8677698785769765U,
  0x6677956756785767U, 0x5777895788876877U, 0x6677486777775758U, 0x8657686775755766U,
  0x9667447746787756U, 0x8567867786777776U, 0x8567887767556777U, 0x5687586797688786U,
  0x6777985767676755U, 0x5687767787757785U, 0x7687688766778758U, 0x8577555777697758U,
  0x6657665757785776U, 0x6667467778797755U, 0x7657585778666776U, 0x5467785756676788U,
  0x6457677774687787U, 0x7687686798687747U, 0x7667866788668745U, 0x5667555798667758U,
  0x7587668787676755U, 0x6677998756777787U, 0x5767558785775866U, 0x6557476768675884U,
  0x7567786778677866U, 0x7667964785656885U, 0x8577867756657797U, 0x7667655758777764U,
  0x8467656745653775U, 0x7457767758655785U, 0x6457485756585786U, 0x6557575794565767U,
  0x4457684765486766U, 0x4567884795467777U, 0x5567855768555776U, 0x4667884765695854U,
  0x6457956788664884U, 0x6457885756666784U, 0x5457556748565775U, 0x6567585757576785U,
  0x5457685769666755U, 0x7457595757555786U, 0x5467595765656776U, 0x4367565768565784U,
  0x5467856789557757U, 0x5577766756655787U, 0x6477576788656767U, 0x6477556788697747U,
  0x7677757768678765U, 0x6767488766755796U, 0x9557677779786767U, 0x7467478776866857U,
  0x7477876747678888U, 0x7687788787778876U, 0x8667845788657768U, 0x6667456758775766U,
  0x5557585757765776U, 0x7467666748677777U, 0x8477885766648867U, 0x5567877776756785U,
  0x5467645764576756U, 0x5567866757675776U, 0x6467755766667755U, 0x6467675778667767U,
  0x8567765778666787U, 0x6577757777665788U, 0x5567985766695767U, 0x4567676785575777U,
  0x6577864767588788U, 0x6477577797675785U, 0x5477795776667756U, 0x5577985786686877U,
  0x5687587775766795U, 0x7557778757787796U, 0x8357576766566756U, 0x5457676769586787U,
  0x5677577784776785U, 0x8687677767755757U, 0x8567776787768778U, 0x6667688776798757U,
  0x8577557756685766U, 0x5777887766798775U, 0x6567775776786768U, 0x6467676758656758U,
  0x8687885788768766U, 0x8677858776767798U, 0x9577856765857766U, 0x8677568756756788U,
  0x6667985778696786U, 0x4577786766587777U, 0x6667957787775786U, 0x6577587787768786U,
  0x6677657777757758U, 0x7667866766767789U, 0x7687868757897768U, 0x9567698756765756U,
  0x6687667757758776U, 0x6787778757757799U, 0x6677668757786759U, 0x7567585768798767U,
  0x6777697765786759U, 0x7787578775878788U, 0x8697968757757787U, 0x6677578768768787U,
  0x7687697777678797U, 0x6787885757767768U, 0x8777656779678787U, 0x7677877797657758U,
  0x7677697776768785U, 0x7577776786758756U, 0x7687786786778798U, 0x7777879785777787U,
  0x8667796777746758U, 0x8587755757688788U, 0x4577985795588786U, 0x8677594768657786U,
  0x5687957795657756U, 0x9787768786777697U, 0x6777566787868776U, 0x9677669766858796U,
  0x6477457788758767U, 0x7477656787769758U, 0x7567757778657786U, 0x8677856768657758U,
  0x7567875766686757U, 0x5577766769776785U, 0x7567676765758798U, 0x5667887765766757U,
  0x5457885745676785U, 0x7457875747685776U, 0x7467786768647756U, 0x8367756764577776U,
  0x7567664765647775U, 0x5467686755675767U, 0x7367866797656746U, 0x8577878776776777U,
  0x8577855767657777U, 0x6687577789688776U, 0x8667688776798788U, 0x5467576785687785U,
  0x5557566788656766U, 0x6467585758656786U, 0x8667857765788757U, 0x8577876766778787U,
  0x7677857788776778U, 0x8667556764777787U, 0x8567766778787786U, 0x7587887768685758U,
  0x7677855785666778U, 0x7667686747765765U, 0x5567785777645754U, 0x7477754757687786U,
  0x6667786799686767U, 0x7787556778855788U, 0x7657575767786777U, 0x6777878787785778U,
  0x6667658749787767U, 0x8677587795786778U, 0x8787887768678757U, 0x6767686795777788U,
  0x6657776768767767U, 0x8587665788688766U, 0x58776777a6656768U, 0x7787868778656778U,
  0x6777956788867778U, 0x8657686748758757U, 0x7677587788658778U, 0x5767554778687767U,
  0x8767898785775797U, 0x7767758777867758U, 0x7667858759857779U, 0x7787767776887779U,
  0x9797598765787778U, 0x6787686798668786U, 0x8767857789777758U, 0x7777565787776786U,
  0x8887667785889787U, 0x7667868766765776U, 0x8687954779686786U, 0x8687555768757757U,
  0x7687776756866787U, 0x7787686768876788U, 0x8787786777866768U, 0x8677687765867778U,
  0x6687765798756785U, 0x8677698767776787U, 0x8677796785778787U, 0x8787575785668788U,
  0x7787878776796767U, 0x7787488757765756U, 0x7677978778686767U, 0x7667597757685777U,
  0x8867676786758776U, 0x5467488767677756U, 0x5677656768787768U, 0x6767558786756777U,
  0x7687877758766758U, 0x8687855778755787U, 0x6667664779687765U, 0x8777684755678785U,
  0x6767857758755766U, 0x8867856765798755U, 0x8577676749668764U, 0x8557776778676765U,
  0x4567774758688758U, 0x6687785766677776U, 0x8557754797655766U, 0x5887576756798758U,
  0x6667856775877798U, 0x6567748778788768U, 0x6757978786756775U, 0x5567586754675778U,
  0x9657655748787775U, 0x9567685788768777U, 0x8577786758658757U, 0x5587858766787766U,
  0x9787585756775759U, 0x5587647769766757U, 0x8687757757789769U, 0x7887556755897786U,
  0x8577858769655785U, 0x8657766786644794U, 0x5547595788586775U, 0x8767864756787788U,
  0x7767876767885758U, 0x7767776788766776U, 0x7677888785688797U, 0x8667765786667776U,
  0x8567885765665885U, 0x6557565786686777U, 0x5657965767665754U, 0x4567575766777766U,
  0x8667577786697756U, 0x8667777776696767U, 0x6667976756786765U, 0x6587877795696778U,
  0x7677657766578766U, 0x6667666785568768U, 0x5577976776657785U, 0x6567955758598754U,
  0x8857ba3789694866U, 0x5557339758753883U, 0x8357963768654893U, 0x34674577655a5864U,
  0x55579477555a3835U, 0x4367985793595874U, 0x4557774743584897U, 0x45675a3749684845U,
  0x4567435777755783U, 0x6567736766795888U, 0x93677a775a755837U, 0x54774947a9568868U,
  0x36779757546a6886U, 0x76575a4774636897U, 0x75774987a5686846U, 0x8667558797757844U,
  0x9567776738774864U, 0x9567597753777844U, 0x9477955739648868U, 0x6467995756536755U,
  0x85677447a8685795U, 0x6567a377a9675838U, 0x5667685777654857U, 0x74675a4744665848U,
  0x33575a5765594863U, 0x7477aa6767496855U, 0x46674447855a5844U, 0x3667547757676795U,
  0x55674877946a7754U, 0x7667598753798875U, 0x7557569786876857U, 0x5267465769587855U,
  0x83775557a2587887U, 0x3577885774587769U, 0x4567864769564796U, 0x85574877657386a3U,
  0x8567788766763757U, 0x755756975a8877a6U, 0x5457895784798745U, 0x9687847735889745U,
  0x667785979585776aU, 0x85879687657a8888U, 0x558736675a658769U, 0x7667a76798697748U,
  0x4457735769546796U, 0x3667a87797634786U, 0x4657567754644797U, 0x646786875a658798U,
  0x6567968754878789U, 0x8587838739756778U, 0x586799877a8547a6U, 0x6557876783768757U,
  0x8557839748785746U, 0x45878a57a8588749U, 0x8687458789695738U, 0x7687595766735848U,
  0x7787a3879788a845U, 0xb787937774798747U, 0x6567999735738879U, 0x7577966758699894U,
  0x8787565746796744U, 0x4787a4779a8a7746U, 0x57877687567687a8U, 0x57673367967767a6U,
  0x7657384739745756U, 0x6367983764466784U, 0x7457993779474795U, 0x3677954793565736U,
  0x2567693799576794U, 0x3777866755697866U, 0x95673537566477a7U, 0x347797875a676776U,
  0x4667835767756786U, 0xa567935785754855U, 0x7367887748685867U, 0x34775a3798566857U,
  0x6687784784677887U, 0x8777485769735897U, 0x8467949734846885U, 0x9477399738856857U,
  0x746775878a657896U, 0x7477347759566888U, 0x8567698779676867U, 0x7477368757658886U,
  0x3377445795589837U, 0x858759579a656885U, 0x8677497764877878U, 0x6577847746848867U,
  0x9577987746736886U, 0x5587847748687838U, 0x65775957a8677745U, 0x9577776774756738U,
  0x7677989777886788U, 0x7577936773757797U, 0x9477895787799758U, 0x8667678743748799U,
  0x758768776573986aU, 0x56775357a4789888U, 0x56775877537a6888U, 0x9577676747666888U,
  0x76677a778a6a7747U, 0x9567936756736748U, 0x7477566767666759U, 0x6577558755656758U,
  0x8567868759677739U, 0x9577a4775a746798U, 0x8577947763748879U, 0x868763579a7598a9U,
  0xa7776667738488a8U, 0x95778567387968a5U, 0x558777677a676868U, 0x7677647796798738U,
  0x7577736764758848U, 0x95778667867a8858U, 0x8687955789769867U, 0x4577447756698837U,
  0x8587a4778a648847U, 0x55777857336867a6U, 0x8667647767866775U, 0x8667457796875777U,
  0x95677a6794877736U, 0x9487a86744795779U, 0x87777587a3846866U, 0xa7778a876a886754U,
  0x87779777698968a8U, 0x8467947783777765U, 0x55774a4758658876U, 0x87877a57a7637766U,
  0x8777a5777a746758U, 0x5777538765865756U, 0x557758974a889799U, 0x6787655734856897U,
  0x65879a5775768896U, 0x6787566767758885U, 0x77873977978798a7U, 0x657748876877a897U,
  0x5667388779775859U, 0x57678a87a7795866U, 0x668786778586987aU, 0x569758677875883aU,
  0x97878a6755776837U, 0xa8674497a39a7834U, 0x6687867737767857U, 0x79874687aa89a797U,
  0x96578a9753756749U, 0x96674997667577a5U, 0x87879a77a37a6795U, 0x4787899797787888U,
  0x78879a8776758777U, 0x8687a387a8736769U, 0x867795776a7477aaU, 0x5587787788868758U,
  0x56978697a6779778U, 0x5997377764879859U, 0xa897a8674588a86aU, 0x67a78497a4988889U,
  0x788784978a9a884aU, 0x7787868775887867U, 0x867793879a838746U, 0xa6877997aa89878aU,
  0x868764674884774aU, 0xa687b987a7838867U, 0xa687a49766859859U, 0x7887979776837776U,
  0x7767386779846796U, 0x95677a57a7698734U, 0x86877a8766735767U, 0x878748978478879aU,
  0x5587466779657767U, 0x6667836788778889U, 0x598789878a855887U, 0x7867a46735858858U,
  0x9777878787855758U, 0x6567499798976886U, 0x6897a59749849848U, 0x6877489744899787U,
  0x577765875a858879U, 0x6897587759858789U, 0x957773678a637889U, 0x8887476766787799U,
  0x89874587988a7737U, 0x578776774a847747U, 0x8777749798888788U, 0x8577697796648768U,
  0x67879897877a8897U, 0x5787a5674577778aU, 0x578785578875876aU, 0x97774677978a6749U,
  0x7667736795899795U, 0x87875a8788876775U, 0x68779a6796838787U, 0x7767356795898777U,
  0x769786876a838837U, 0x96679657348a6799U, 0x67578457548a9737U, 0x97777a4787797787U,
  0x8787575763794787U, 0x977746777788778aU, 0x868753977974a898U, 0x689798477a7b87a9U,
  0x5887567786837678U, 0x85677657837767b6U, 0x677755878a8a7786U, 0x6777a387a67a9776U,
  0x476785674a667796U, 0x8657a46748698735U, 0x85675837b75a8745U, 0x57577957636867a8U,
  0x9767759795778756U, 0x67778967787a5777U, 0x9797565798676756U, 0x4767858753896735U,
  0x5667947787756869U, 0x96779447896a58a7U, 0x968746578a797876U, 0x67778657697368b6U,
  0x56579577867688a4U, 0x8667387759658844U, 0x88676a9787843884U, 0x94577967976388a4U,
  0x848736377a586757U, 0x4777544786786864U, 0x56574577a8635786U, 0x855798774a648798U,
  0x9777659776788785U, 0x85676657788488a8U, 0x6587994769795866U, 0x5687776746799799U,
  0x9777ab8773647875U, 0x9687857748696786U, 0x7667596755537855U, 0x87677667946a38a6U,
  0x8557544768678885U, 0x7777a98748676898U, 0x5567948747684797U, 0x855785879a557847U,
  0x55878437466848a8U, 0x44676a87a76a8886U, 0x95678a6796638884U, 0x47773557457a8835U,
  0x5667977794785887U, 0x84678a7778636876U, 0x845763775a576857U, 0x5577376768578874U,
  0x7777488789767835U, 0x8667749744799866U, 0x9577979776788889U, 0x53875947a75b7848U,
  0x5767956775777664U, 0x87679697867a6765U, 0x5877686745765788U, 0x7877565749686788U,
  0x8787896765786696U, 0x4877546774787657U, 0x5977856767796698U, 0x5977676777758768U,
  0x8887778769746757U, 0x8877976787757757U, 0x5867686748646685U, 0x8877687787666686U,
  0x8877597784787697U, 0x7777878754687686U, 0x7977796768676647U, 0x8877948778756657U,
  0x7877446749746675U, 0x5877387787764686U, 0x6777786767675756U, 0x5887695766677756U,
  0x5987887758675676U, 0x5877895779455647U, 0x5977846796695675U, 0x5877976756666657U,
  0x4757685764594687U, 0x5877647788656644U, 0x7867436766686656U, 0x6667956768688697U,
  0x5777586769677684U, 0x6867948745786688U, 0x7777497796645677U, 0x6867896789775675U,
  0x5767896779677686U, 0x4767554769695687U, 0x4877487779747648U, 0x6777988765746766U,
  0x5867877786785688U, 0x7777685796687685U, 0x6667778749666666U, 0x8777846787687678U,
  0x6867887794685765U, 0x5877896778685695U, 0x7877565775697776U, 0x7777457744696797U,
  0x8877587786646655U, 0x5767898768656647U, 0x4667996766656754U, 0x6667555777685766U,
  0x3777555784597776U, 0x8977996756778747U, 0x6977588795867788U, 0x7867588789777757U,
  0x7677988775647756U, 0x8877788787765758U, 0x6887976779667688U, 0x4977968775755665U,
  0x6877867777845667U, 0x6877668757887656U, 0x8777758765665685U, 0x5777768758686666U,
  0x5877466759647748U, 0x6867757774666665U, 0x8867768787784655U, 0x7767988788766787U,
  0x7877976786876757U, 0x6777978784886796U, 0x6777586768647789U, 0x8877767758676648U,
  0x6967499786895677U, 0x7767649765786656U, 0x9667696778747686U, 0x8767589787786696U,
  0x8687545797769657U, 0x8867967744778696U, 0x7877678778755687U, 0x7677598748796659U,
  0x6777586777776749U, 0x5787789786777788U, 0x488786578a746678U, 0x8867955748756674U,
  0x8767859755746786U, 0x787786a786767775U, 0x7777685737775667U, 0x5677598776685657U,
  0x7877788746746685U, 0x7867966778797647U, 0x9857766765788657U, 0x8767368758796786U,
  0x8677868787757745U, 0x8777969794698789U, 0x5867577756759786U, 0x8867688778695687U,
  0x8777788777687759U, 0x6767956744686648U, 0x78675577967a7648U, 0x8757869786886656U,
  0x8567579765764687U, 0x8567658777698668U, 0x6677656789578688U, 0x4867696775648677U,
  0x8867595757768679U, 0x9887588754787697U, 0x6767866759757665U, 0x56675587887a8688U,
  0x7777588788667667U, 0x6567678748668666U, 0x8777677784667666U, 0x4777667779695665U,
  0x7767664774587655U, 0x7857868777667677U, 0x7877898765756678U, 0x7767766777755658U,
  0x6867586785775688U, 0x6857456769787656U, 0x8657667778855668U, 0x7677358779778796U,
  0x5667766777786697U, 0x8987596785757688U, 0x7877885768677668U, 0x8677645758656687U,
  0x8767997794787676U, 0x8877857756789655U, 0x5877555756758666U, 0x9867576789778658U,
  0x6657857778798696U, 0x6577478768668677U, 0x7777855778675667U, 0x6767776784776765U,
  0x5767757764787786U, 0x6677995759676694U, 0x8857746787755655U, 0x6667696784685646U,
  0x5767985757654676U, 0x5657865775797664U, 0x8677688783676746U, 0x7877776754764688U,
  0x7887697747785675U, 0x5877587779894688U, 0x8777686774735767U, 0x4667887776696788U,
  0x4867496765667796U, 0x5767976746676786U, 0x7787968764755796U, 0x8677645758686774U,
  0x4767677789656746U, 0x5677786748654785U, 0x7777696787695777U, 0x6667845766644795U,
  0x5767846787785758U, 0x9767748775775696U, 0x5877967768778689U, 0x5887548754785797U,
  0x9867458766796777U, 0x7887858757696798U, 0x5877495759767777U, 0x5767988767695656U,
  0x7777896764585654U, 0x7867857755685694U, 0x5867856777663664U, 0x6867577777655686U,
  0x8877845779667686U, 0x5877686755746785U, 0x5877687766686656U, 0x5967668778664655U,
  0x7967587754664684U, 0x3867854745586675U, 0x3867695799574685U, 0x3877555757565666U,
  0x4977845797646657U, 0x3967985795687664U, 0x5977757766775665U, 0x6867948754744685U,
  0x5877556757676676U, 0x7977657788655696U, 0x5977787757686665U, 0x6877458786765676U,
  0x7877766798696647U, 0x7977547787646686U, 0x5977547785746767U, 0x7977778789767767U,
  0x7977857786787756U, 0x6977787775756757U, 0x6977588765776657U, 0x8a77577765856665U,
  0x7977578765867677U, 0x9967549784884667U, 0x8867878784895686U, 0x8877848765758677U,
  0x5987566788777686U, 0x6977557765788646U, 0x6977587775788678U, 0x6867557779775658U,
  0x5867496796677676U, 0x5867856766695687U, 0x7987677779757689U, 0x6987649765898667U,
  0x8987766795776656U, 0x5867546754798798U, 0x9977598797757768U, 0x9977669768787788U,
  0x5877695777786757U, 0x4877866776785687U, 0x5877878764655656U, 0x8877786766767657U,
  0x9977749784877668U, 0x8987688758767687U, 0x7a77586783747657U, 0x5967776797785687U,
  0x7877766748756678U, 0x8867686755785765U, 0x8877737778767767U, 0x8977557754796756U,
  0x6977959789887687U, 0x7877686787749667U, 0x5977658788789688U, 0x6987868765767677U,
  0x5877887787748678U, 0x6877766769667697U, 0x6877988756756687U, 0x7977658758757697U,
  0x6977866775858657U, 0x6877648779897698U, 0x7977588795886689U, 0x7987966796887686U,
  0x6977568788777678U, 0x7987748778878656U, 0x9977949794878688U, 0x6987869795867686U,
  0x6987849795788786U, 0x7867577778798756U, 0x7867667785768687U, 0x5787798754795688U,
  0x5877887798768687U, 0x7987569756898756U, 0x7977569794758779U, 0x8877577776785668U,
  0x9887586788779788U, 0x8877887757759759U, 0x5977896789758757U, 0x9977857765796759U,
  0x6777687764768657U, 0x8767466778684685U, 0x4877885777688676U, 0x7987588766788658U,
  0x7877598788766674U, 0x6877376777894656U, 0x8867569777745668U, 0x8877867796777648U,
  0xb78787b776857676U, 0xa88798675a863773U, 0xa85756a765744688U, 0xb737989778888699U,
  0xa776647788848649U, 0xab66478749667658U, 0x7997479778878696U, 0x6a67499756967679U,
  0x7a57588778886665U, 0x896798577766a677U, 0x5847898739877648U, 0x678747874673666aU,
  0x687758a788867688U, 0x88a7688764988646U, 0x9987398775888666U, 0x776755775776963aU,
  0x7567577748688686U, 0x7887778759699659U, 0x9887789786659669U, 0x7a5757b798777656U,
  0x89a7899764938668U, 0xa867569756879679U, 0x978737a74975867aU, 0x8a9754878a95a678U,
  0x4a97988769767668U, 0x874775a767897687U, 0x889795974579966bU, 0x8957938756785668U,
  0x7867788788749696U, 0x577777777889865aU, 0x4767499767678638U, 0x9a87789756748697U,
  0x69a764578973b78aU, 0x58b7787757779678U, 0x58a785578954a686U, 0x899755a76a86864aU,
  0x8b9768677595569aU, 0xa887599757669657U, 0x8787558757947657U, 0x878794a788799767U,
  0x58b744978a897788U, 0x7b87558774877768U, 0x8a6779a7a997868aU, 0x7677948784788688U,
  0xa897967779798639U, 0x588777966469b68aU, 0x9897648774847677U, 0xaa778587749aa665U,
  0x8977648799789686U, 0x974767b74877866aU, 0x85a777675769b789U, 0x79a753a75786869bU,
  0x69a745b787886648U, 0x786786777878a688U, 0x9587868756598687U, 0x4a9766976974a64aU,
  0x9787465764899665U, 0x8587848797766677U, 0x78975967786696a9U, 0x9997756785795649U,
  0xa877749768745687U, 0x8677555768789687U, 0xa8979987877786aaU, 0x7847658788866648U,
  0x679773a77866b7aaU, 0x9987986746886689U, 0x8a97878795844658U, 0x688765a746768679U,
  0x59976a6779988698U, 0x77674797a5796698U, 0x5867698753788688U, 0x59879477749ab76aU,
  0x889759975586564aU, 0x87679a8784746646U, 0x99578477676a6688U, 0x949795678997864bU,
  0x578764776a768777U, 0x59a768778587a686U, 0x8977537759779679U, 0x99579a8796747655U,
  0x785798a754948699U, 0xb867958746646647U, 0x7887579754896688U, 0x7867799783888678U,
  0x86675a7789665656U, 0xa88776a7a5776676U, 0x679768776969a759U, 0x48775587985a8649U,
  0x5b87a59765858673U, 0x7a57667787845683U, 0x8867698765743647U, 0x8a77847744637697U,
  0x5977a85757648786U, 0x8a778777569a8777U, 0x6b6758976786878aU, 0x8997469784857788U,
  0xaaa784879684769aU, 0x6b97669755856668U, 0x6b8798a7b783965aU, 0x9c87456758846699U,
  0x898787a7437597a8U, 0x5a97899785746676U, 0x9a77489769755655U, 0x5a47948785874689U,
  0x7887489786855666U, 0x57876797867586a8U, 0x4887888758876669U, 0x978777676888a786U,
  0x6887645783745688U, 0x8a67996777788635U, 0x687785a779799669U, 0x6877767756756789U,
  0x58877a578886766aU, 0x779756576676b69aU, 0x558774878884b666U, 0x9777859776998667U,
  0x6897a5874986863bU, 0x59979657778776a9U, 0x5987954756857688U, 0x86a7696776678799U,
  0x8987875754858655U, 0x7a97599758866659U, 0x8657686787779698U, 0x9587548754598647U,
  0x9887688755677695U, 0x5987669749856767U, 0x88478467887447a7U, 0x7647649766685773U,
  0x8a874a8799785789U, 0x5a97648777886849U, 0x6c67858794879785U, 0x5967738758788798U,
  0x8b77839768879758U, 0xaa9786676775776bU, 0x89a7a4875963978aU, 0x9b77a98786857788U,
  0x9b67778774868697U, 0x6ba74887a596975aU, 0x6a777477a97966a9U, 0x7b77898756854685U,
  0x7a5783a758866658U, 0x7977548787646649U, 0x8a9777a783774669U, 0x3857486789667655U,
  0x9a7788b777855696U, 0x878749974975768aU, 0x4aa7898775779679U, 0x8b87876764797655U,
  0x9987976755895696U, 0xaa57748796847678U, 0x4867969766776679U, 0x88577977a6695787U,
  0x897798775763a79aU, 0x48777667a5765757U, 0x89674a97548896a8U, 0xa877969764777647U,
  0x789789a7447895a5U, 0x9957697775876693U, 0x7767888747668678U, 0x8867787787598665U,
  0x9857578756759674U, 0x4b67486736a89699U, 0x6a87936757898658U, 0x8857659797898688U,
  0x987778a778758646U, 0x689758877886964bU, 0x6987989755695688U, 0x498788879377766aU,
  0x8a8757a7888486a6U, 0x6887485758595646U, 0x5757849789699687U, 0x8987756794658568U,
  0x6a675377a6647569U, 0x4c67489756788555U, 0x696773678a798589U, 0x687789a7a4765695U,
  0x598788a7a8648564U, 0x58576787a5568579U, 0x3a87556786563586U, 0x8a87977797687693U,
  0x9977987775843675U, 0x8957868786866658U, 0x789797a768798696U, 0x8b77678789845647U,
  0x6757899763693676U, 0x6777989786668687U, 0x5887689768648664U, 0x68876787a9687649U,
  0x6867788748595647U, 0x4757a67787587687U, 0x37875487a9747668U, 0x6997a66765759667U,
  0x88a7598785767668U, 0x799759676478a699U, 0x7677978775667678U, 0x95578487775a7755U,
  0x87677557aa586788U, 0x7877897777796668U, 0x9777846786883679U, 0x9857458744849768U,
  0x95875357486a6795U, 0x9a57438756769785U, 0x58774997586a4696U, 0x88477567587a4668U,
  0x6747879748757646U, 0x8687986749669699U, 0x8967a98766886686U, 0x5877568758986667U,
  0x7a87547769949747U, 0x89a75667797a9777U, 0x997785979586575aU, 0x8977664764699696U,
  0x5987939798588689U, 0x6767688756775677U, 0x596769778667868aU, 0x5997959776797686U,
  0x6987549786787699U, 0x6a57859755849699U, 0x77875987378956a8U, 0x796788a7998446a6U,
  0x5867687793896649U, 0x9877599778767665U, 0x7887844779545675U, 0x7877897759477688U,
  0x8977698745549647U, 0x6997868776545678U, 0x86879887946966a4U, 0x56373837375a7698U,
  0x5837a997346536a3U, 0x4447799768648697U, 0x6587567738666656U, 0x5697a757475676a5U,
  0x9887555796574688U, 0x47778a973a745659U, 0x6867964767595646U, 0x4897783798578653U,
  0x48679687387a56a5U, 0x5967477756847698U, 0x7657856779744664U, 0x4677958795698679U,
  0x7667949758684669U, 0x5787489734695664U, 0x8757578769758657U, 0x9897846788766648U,
  0x8857779756879686U, 0x56878857897876a5U, 0x6887749785784648U, 0x7987867796a9a6abU,
  0x8aa785a772aa8838U, 0x97875687a8a4c658U, 0xc57773678a9787acU, 0x9787768768877729U,
  0xc76757676a86882aU, 0x779779478473b886U, 0xb77744873788989aU, 0xb587a68785828798U,
  0x955735977a895734U, 0xa467a5479986779bU, 0x7777a977538a8728U, 0x657766a7867897a4U,
  0x76879a8765757795U, 0x5857389783839765U, 0x647764878a989837U, 0x37778657577988a7U,
  0x8687586788685853U, 0x7567863786558728U, 0x9777a597a7766888U, 0x468755377a789893U,
  0x3457868796737886U, 0x73676a774a659898U, 0x74479a9733734874U, 0x6487794786696876U,
  0x6787965745779878U, 0x4577938748698844U, 0x8577982787536787U, 0x8537659759677848U,
  0x85875967a7738857U, 0x7557969799696846U, 0x7757385778834837U, 0x835762879a7a3747U,
  0x548748979977883aU, 0x559798476a64889aU, 0x6587498766669879U, 0xa5876637b3638757U,
  0x85577a17755a3797U, 0x9647848754763763U, 0x9457a7775a554755U, 0x646796476b644746U,
  0x74675b5784794836U, 0x6567754768796886U, 0x9467857743736844U, 0x56777967857a7878U,
  0x84673847766758b5U, 0x44773a5767544768U, 0x446733279a575893U, 0x44578447a9593745U,
  0x5457843753685833U, 0x7357765745694795U, 0x7467385753695748U, 0x94579457557a5872U,
  0x746797878a776833U, 0x43676477495a4897U, 0x42678a5765748897U, 0x427746776b668895U,
  0x9667658774746856U, 0x4647486753786836U, 0x83473b875a757857U, 0x82673437566588a8U,
  0x9467a55783657878U, 0xa48766775b856887U, 0x958783878a749854U, 0x6687848748899745U,
  0xa5874977958377aaU, 0xb577a477a88a7748U, 0x9687a59783847759U, 0x7887b87776976765U,
  0x9587976779848796U, 0xb6676a57638aa834U, 0xa6875b8756758796U, 0xa5773a57a37687aaU,
  0xa787949737739777U, 0x5367a857a7778857U, 0x7477477758699885U, 0x77678b2796558749U,
  0x87577b47a4765759U, 0x8647699783747748U, 0x9467576796837774U, 0x64873597ab885895U,
  0xb7576467b47b5765U, 0x86976547ab777784U, 0x9677737736847836U, 0x689748a7aa845877U,
  0x7647939785799788U, 0x65575577997a3793U, 0xa657956797867795U, 0x5767a3a7a8869774U,
  0x86678a87aa785738U, 0x568776474479a747U, 0x94675787a866872aU, 0x9587a77776826786U,
  0x6897249785898746U, 0x896798873a796737U, 0x9567885727738727U, 0x9677aa574768a757U,
  0x887773475868574aU, 0x8877895756898765U, 0x55879a778477a737U, 0x65773577b38798acU,
  0x5777379768849735U, 0x776737a76a8a7779U, 0x5787793737766847U, 0x95373a978a783844U,
  0x54474987956377a5U, 0x96676937a5767765U, 0x93679677aa6a7759U, 0x8577324798574664U,
  0x6767523792788744U, 0x75678a67897a9785U, 0x65579467896a4737U, 0x4777696757765738U,
  0x6457633778546764U, 0x955789874a6a6728U, 0x86976a87a5639796U, 0x5787567757556733U,
  0x9757aa6789577798U, 0x73677747746787a6U, 0x3557838776795796U, 0x7787954799838734U,
  0xa577893785758785U, 0x44774857896477a3U, 0x967796279a675854U, 0x95673a6798796829U,
  0x6687946763695889U, 0x7957863783787733U, 0x5657944796884779U, 0x94579487788a573aU,
  0x9477834766759797U, 0x4797356768858755U, 0x8687854789738798U, 0x57579b9787896747U,
  0x5357585775586733U, 0x73779347343a6784U, 0x45676657546338a3U, 0xa677886756767888U,
  0x95678787898a6896U, 0x6377578765637758U, 0x9477765765695778U, 0x947736479a7557a7U,
  0x637758478a635796U, 0x557767578a734748U, 0x6467877765666856U, 0x95575857538277a8U,
  0x72577367466a5756U, 0x8587944785656766U, 0x74773367696a5756U, 0x85573a47775a4765U,
  0x55775547376a4784U, 0x9467756769757897U, 0x7257777789737859U, 0x81776a5749576739U,
  0x7477946763585724U, 0x7367664794575776U, 0x335795775a683856U, 0x3257565738543873U,
  0x633733673a546783U, 0x52472a4736535756U, 0x6147a75746486884U, 0x3257374786586885U,
  0x435737379a6a2846U, 0x52575657765567a4U, 0x4137593756582866U, 0x7157876778468885U,
  0x41577a3788565844U, 0x6377975747565849U, 0x3367732768398826U, 0x6357a65765586853U,
  0x624744676a532895U, 0x6157872755473883U, 0x4157754739475785U, 0x3367a54779537855U,
  0x725787579b638835U, 0x315778676a537887U, 0x347793376b596865U, 0x45579527a3456765U,
  0x5457944776595876U, 0x32574437585a5888U, 0x8367a437845b4875U, 0x7257896756543773U,
  0x51478717a6364737U, 0x7367b937a4585776U, 0x5567845794775868U, 0x3277866794568895U,
  0x8477843749656878U, 0x8337958768593733U, 0x215733676a497788U, 0x71779a2763464787U,
  0x52575a67694577a6U, 0x6277537739634876U, 0x92576a4798536836U, 0x5157644784442834U,
  0x94776a77455957a7U, 0x3357396752568758U, 0x825766579a475775U, 0x8357492723577867U,
  0x5257a67758594883U, 0x4457a87796675797U, 0x62476347286338a3U, 0x53672a87937a8778U,
  0x44478a573885a898U, 0x7277662756586888U, 0x7367656748658785U, 0x43574677a5538726U,
  0x7447456788695733U, 0x4437a85727684775U, 0x7256a627465a6838U, 0x8457a84788696853U,
  0x7467849743785873U, 0x75775787a3857899U, 0x74779957547877a9U, 0x75776a5757745758U,
  0x4267553759597879U, 0x81673487725488a4U, 0x82578887346958a5U, 0x5257687793586885U,
  0x84777a67886a4848U, 0x8457433733694894U, 0x7457a57786677864U, 0xa3577a379b646885U,
  0x43572577556a7774U, 0x7347834788736754U, 0x92678427996a6746U, 0x928733474773b778U,
  0x948757875778a878U, 0xa37799878a7397a8U, 0x4377a58753648868U, 0x6557734733734866U,
  0xa3578777287337a7U, 0x9257595783667775U, 0x8367474798677898U, 0x5467588739859876U,
  0x6287389755677866U, 0x8477387767579787U, 0x5477786785769778U, 0x8477797783829757U,
  0x8567758736866735U, 0x84773a7777856755U, 0x838793777a756869U, 0x76779677538a679aU,
  0x6767397763888845U, 0x8577644778798857U, 0x64574a878a676887U, 0x6357872749587824U,
  0x7567974773636996U, 0xa797773754757998U, 0xa687534798849847U, 0x845773471a745892U,
  0x488785976659a679U, 0x6a87a54788696779U, 0x7a8765575577974aU, 0x7997558765759649U,
  0x89866697976695a6U, 0x7a76677787855585U, 0x87674487597a4689U, 0x58774a9797695699U,
  0x8a878977a5777669U, 0xaa878667a5846654U, 0x584759a755678657U, 0x578784878675669aU,
  0x778745a76678a658U, 0x49a769875777a685U, 0x5a877387858856a4U, 0xa757778786768698U,
  0x5767768769776655U, 0x9887368789798668U, 0x5757366798694647U, 0x875796975579769aU,
  0x686747878474a678U, 0x5877856798699676U, 0x8887956758778685U, 0x797744a738758669U,
  0x58679a6788747693U, 0x8857357766766669U, 0x5787367749896667U, 0x988768775a868646U,
  0x6977995788836678U, 0x69775887848477a7U, 0x5687747739785759U, 0x4877799778889798U,
  0x7787768768656766U, 0x488767979568766aU, 0x4887a74757699776U, 0x6a77a58753776645U,
  0x5a87778768757659U, 0x89777867867676a6U, 0x6977956757758686U, 0x9987769777847687U,
  0x6987856786755687U, 0x5977765749686649U, 0x4877498756799697U, 0x6787478767755688U,
  0x8887949756768678U, 0x6857467696786688U, 0x88676477888886a6U, 0x886788b75888a676U,
  0x6977969763856648U, 0x878764778a864658U, 0x5777488778775649U, 0x5977799777899667U,
  0x8687677749759637U, 0x9767867758736787U, 0x88a7568785649638U, 0x5a67687748889697U,
  0xa757938759778689U, 0x939785978977a688U, 0x788774578664a678U, 0x9967656797759678U,
  0x589766b776885688U, 0xa577588779746778U, 0x8777887779657656U, 0x6767386795899798U,
  0x769785876973779aU, 0x8787847794747776U, 0x9877939789795688U, 0x6987a49768899649U,
  0x5897876748848789U, 0x67778a575878a639U, 0x578764676677a659U, 0x8897a877a578964aU,
  0x57876657a478a69aU, 0x89977497a4557686U, 0x6b7755977476967aU, 0x998769a785965685U,
  0xb847898764975668U, 0xa7577777698876a8U, 0x899773778478868aU, 0x5957499759857658U,
  0xa887489746879648U, 0x8897566794847656U, 0x69879a9758786695U, 0x67779867497a8664U,
  0x4777455797775685U, 0x5967899756757678U, 0x7897a86748756664U, 0x7667676777556657U,
  0x5667488735757646U, 0x9657796755759738U, 0x59a774778a76a777U, 0x697764576a855694U,
  0x566756a7498a9759U, 0x9697987798796737U, 0x4767a78776749689U, 0x4797a8875a779769U,
  0x867764677984674aU, 0x67878697a6656658U, 0x57676497556a7654U, 0x7877878776645666U,
  0x5867886744765795U, 0x5777a567976647a5U, 0x676785a785685685U, 0x7767988797656686U,
  0x6867556777674762U, 0x8957776776784751U, 0x7957448788762754U, 0x88673657546437a6U,
  0x6a776a7764687785U, 0x8b875377888a6765U, 0x7a77379747868779U, 0x7987559744749757U,
  0x7b9793879988978aU, 0x7b87887785888766U, 0x8977669775896748U, 0x9b87479766865788U,
  0x9a77948775888775U, 0x6a77467788758788U, 0x8a8754779475775aU, 0x5977489748769694U,
  0x5967567754888654U, 0x9a67588738846686U, 0x8977648768736658U, 0x7887869759797695U,
  0x66575857a8658697U, 0x7897584758649636U, 0x69676957577566a9U, 0x6767978796837748U,
  0x777749a799896765U, 0x9667559774695749U, 0xa887767793766796U, 0x7667686788535686U,
  0x7967475789698665U, 0x9757799738747676U, 0x5687445769799655U, 0x7987466787767678U,
  0x9897945779787674U, 0x886763675595573aU, 0x9767896778896788U, 0xa69785578875678aU,
  0x9887468789799737U, 0x87a76a6756688797U, 0x486799978a859646U, 0x5557567745756798U,
  0x88a796574474a788U, 0x8847579738896646U, 0x8587967795768697U, 0x8657448798689695U,
  0x48875667aa785735U, 0x79775757558456a5U, 0x5987389763886688U, 0x6a87688798676666U,
  0x4977856779687697U, 0x6967737797736678U, 0x5a87449749857689U, 0x5a87688746847779U,
  0x899794978478a74bU, 0x7ca796778685a686U, 0x9c7769b764a69687U, 0x8b7765a767878656U,
  0x6a67958796849685U, 0x89676787798976aaU, 0x6a877597a6747696U, 0x7987638783777666U,
  0x598775774a796685U, 0x598778a798787679U, 0x98775597687466a4U, 0x7867a88748785668U,
  0x8a7743a75485a6a6U, 0x6a97858784999669U, 0x975798977978a688U, 0x9897658796788644U,
  0x6a7759a759755676U, 0x8a97868795758667U, 0x9647989779868654U, 0xa577886787658799U,
  0x7787379795699666U, 0x5887938756685665U, 0x6967978777888665U, 0x7877547788744685U,
  0x9887567737838677U, 0x597795976789965aU, 0x8687983784667676U, 0x9867368765788678U,
  0x7787684748566689U, 0x5987594759687697U, 0x8a877597688576a7U, 0x5a77559796866687U,
  0x9a8794a784885675U, 0xab677477958a5678U, 0x9b6775a786957656U, 0x8a7788a768958656U,
  0x8987959788755645U, 0x6a97456797766699U, 0x5957445787737697U, 0x5957579749777696U,
  0x89476387986a5656U, 0x6877897736664644U, 0x7a87846794765668U, 0x6847776777685699U,
  0x4677556779686666U, 0x5977a55779787699U, 0x8877489757694699U, 0x3967768766748665U,
  0x78675aa795785648U, 0x678778473a677656U, 0x3877567776668676U, 0x47876a977a578678U,
  0x4977869797657666U, 0x77576567666586a6U, 0x8747887767734748U, 0x7887678735798685U,
  0x5987989784897659U, 0x574787779a756676U, 0x6767777758685655U, 0x8857595798756688U,
  0x4877969755646697U, 0x8987498764866685U, 0x6677648739788658U, 0x9887555748779668U,
  0x7987478755798799U, 0x686767a766796656U, 0x598795a754886649U, 0x9a87378749857696U,
  0x88676897688676a9U, 0x988789a767788636U, 0xa88787a784778687U, 0x988774578767a657U,
  0x499784679678a648U, 0x9a87766744879688U, 0x9b8798a774988697U, 0x5987977763878688U,
  0x498763678978a689U, 0x598755675677969aU, 0x8b77698785885665U, 0x9a8799a785876669U,
  0x7a677877a4649645U, 0x4b8757675575865bU, 0x5a87988774879676U, 0xa98795a768878686U,
  0x6a9786a775837699U, 0x6a779777648956a5U, 0xa97779a796969579U, 0xa967887788866688U,
  0x6897445769748657U, 0x487799674877a678U, 0x587753875677a697U, 0x6b9784779884b68aU,
  0x41e53d6d40cd9413U, 0xc02bd49a3fff106dU, 0xbf91d3d8411d494cU, 0x4119320040e0dc23U,
  0x3f41fa393eae45d8U, 0xbf11afcf3ed3b783U, 0x3f723c65be5e1f81U, 0x3f62223bbe3494f3U,
  0xbf973dfc3fb11e07U, 0xbe992f843ff5533dU, 0xbf78f4943ef6b991U, 0xbe4ed928beda7b9bU,
  0xbee3173c400cc145U, 0x3f8dcd79400f6cd3U, 0xbfcd6687bddf5338U, 0xbef48def3f645a1dU,
  0xbd54263a3fb63c89U, 0x3ed75e2bbf967575U, 0xbfb42c46bfcccdf0U, 0xbf84bcf23fddc5a9U,
  0xbecc0373bf25a311U, 0xbc2a79c9bfb0fdc1U, 0x3f6d4405be530896U, 0x3f4e266c3f3acc20U,
  0xbec152263f91d645U, 0xbf1e5abfbf5b6021U, 0x3e721363bee98999U, 0x3e24f7743e1d6e7bU,
  0xbe54ed0c3dbc8784U, 0xbce21d16bd8a5a0dU, 0xbd9690b9be2a53b7U, 0x3e63f6273d359016U,
  0xbdd11f28be5e4d89U, 0x3e634d463d549fb4U, 0xbd164a4e3d37cbeaU, 0xbddd25aabe17a75aU,
  0x3d7c33dd3e64d7d3U, 0x3e88ac8abdaf7fb1U, 0xbc938f4f3c21322eU, 0x3e25dbf0be30ea75U,
  0x3e4bf9e2394e217cU, 0xbe581db73e4e81beU, 0xbd21115bbe8a73f6U, 0xbcfa15d13e59bde8U,
  0x3da8ea693e497ef2U, 0x3e65d4523d5430bcU, 0xbca702413e243af9U, 0x3e82cd2dbd3438abU,
  0xbe2175cd3d253139U, 0xbe79e2ffbdbfe74aU, 0xbde495babe01c9c3U, 0x3e84c535be7e300aU,
  0x3ab9ce7abe3f7abdU, 0x3e3a5e6c3e15ad4fU, 0x3cb518bc3c86a2f5U, 0xbd86f6143e174698U,
  0x3e220f223e0da1ffU, 0xbc751eb6bd8a609cU, 0x3e34e1e4bcc2ea4dU, 0xbe11cb13bd8fe79bU,
  0x3d65f5b03e702168U, 0xbe54bcb9bdeacb80U, 0x3e8392093e10e587U, 0xbe64111bbc6f1652U,
  0xbe750813be21e3e5U, 0x3e3e11723e44074dU, 0xbe17ffc53c307f9dU, 0x3cc1c54f3c89b668U,
  0x3cb5e5743d08dbd3U, 0xb95c392b3b07b706U, 0x36c51a39bbff3813U, 0x3a5f3650bbf25a81U,
  0x37a304873c8e58ffU, 0x3a62263d3ba278afU, 0x3da398f43c519cadU,
};


ai_handle g_emotion_model_weights_table[1 + 2] = {
  AI_HANDLE_PTR(AI_MAGIC_MARKER),
  AI_HANDLE_PTR(s_emotion_model_weights_array_u64),
  AI_HANDLE_PTR(AI_MAGIC_MARKER),
};

