/**
  ******************************************************************************
  * @file    emotion_model_data_params.c
  * @author  AST Embedded Analytics Research Platform
  * @date    Sun Mar 31 17:56:23 2024
  * @brief   AI Tool Automatic Code Generator for Embedded NN computing
  ******************************************************************************
  * Copyright (c) 2024 STMicroelectronics.
  * All rights reserved.
  *
  * This software is licensed under terms that can be found in the LICENSE file
  * in the root directory of this software component.
  * If no LICENSE file comes with this software, it is provided AS-IS.
  ******************************************************************************
  */

#include "emotion_model_data_params.h"


/**  Activations Section  ****************************************************/
ai_handle g_emotion_model_activations_table[1 + 2] = {
  AI_HANDLE_PTR(AI_MAGIC_MARKER),
  AI_HANDLE_PTR(NULL),
  AI_HANDLE_PTR(AI_MAGIC_MARKER),
};




/**  Weights Section  ********************************************************/
AI_ALIGNED(32)
const ai_u64 s_emotion_model_weights_array_u64[6483] = {
  0x3d38de00be8b07e5U, 0xbd86e7e4be1f31e3U, 0xbe12b01bbf718e31U, 0xbe542b29bdfa79bdU,
  0x3e850e713e92deebU, 0x3e964b833e9095c3U, 0x3ea1f0cebf317b53U, 0x3e9e17be3ef0990aU,
  0x3eabe6a73ee1da1dU, 0x3e918daa3ef30a0aU, 0x3e4478fdbf7ecf49U, 0x3eb385633e37a567U,
  0x3e932b7c3f068d4dU, 0x3eed60523f04de51U, 0x3f0a7a79bda6c625U, 0x3e900c853f168b5bU,
  0x3e8dc6473c41e54bU, 0x3e83bef23e9674f9U, 0x3e8f7e56bef5f6fcU, 0x3eb16b463ebe4b88U,
  0x3c6a6a613caf8b80U, 0x3d3b2bb73e25fdddU, 0xbf4d050fbf57a576U, 0xbf819977bf39d8dcU,
  0x3f4d00cd3f57ed11U, 0x3f8171a63f39d672U, 0xbf51a00e3f51a133U, 0xbf459d4dbf4738faU,
  0xbf4265f4bf4401a1U, 0xbf3f2e9bbf4094f2U, 0xbf3bf741bf3d92eeU, 0xbf3847e7bf39f0e9U,
  0xbf35888ebf37243bU, 0xbf31a3dfbf33ece2U, 0xbf2e51dbbf2ffaddU, 0xbf2ca8d9bf2d7e2fU,
  0xbf28ab29bf2a46d6U, 0xbf2604d0bf27add2U, 0xbf22b2ccbf245bceU, 0xbf1f60c8bf20a0caU,
  0xbf1c0ec4bf1db7c6U, 0xbf18bcc0bf1a65c2U, 0xbf156abbbf1713bdU, 0xbf1218b7bf13c1b9U,
  0xbf0ec6b3bf106fb5U, 0xbf0b74afbf0d1db1U, 0xbf0822aabf09cbadU, 0xbf04d0a6bf0679a9U,
  0xbf017ea1bf0327a2U, 0xbefc593fbeffab41U, 0xbef5b534bef9073dU, 0xbef26337bef41132U,
  0xbeebbf22beef112aU, 0xbee51b1bbee86d21U, 0xbede7719bee1c91dU, 0xbed7d307bedb2518U,
  0xbed12f01bed48104U, 0xbeca8affbecddd01U, 0xbec3e6fdbec738feU, 0xbebd42f4bec094fcU,
  0xbeb69ef3beb9f0f4U, 0xbeaffadbbeb34cf2U, 0xbea956d9beaca8daU, 0xbea2b2d7bea604d9U,
  0xbe9c0edabe9f60dcU, 0xbe956aabbe98bcd7U, 0xbe8ec69fbe9218a0U, 0xbe8b749abe8d2607U,
  0xbe84d098be88229aU, 0xbe7c5911be817e9dU, 0xbe6f111ebe75b51fU, 0xbe61c92fbe686d14U,
  0xbe548125be5b2515U, 0xbe4738d5be4ddd1bU, 0xbe39f0d5be4094dfU, 0xbe2ca8dfbe334cefU,
  0xbe1f60e4be2604dbU, 0xbe1218bebe18bcd3U, 0xbe04d0cbbe0b74c8U, 0xbdef1184bdfc5961U,
  0xbdd48167bde1c97cU, 0xbdb9f092bdc73898U, 0xbd9f609ebdaca89dU, 0xbd921895bd98eb6dU,
  0xbd6f1165bd84d0a2U, 0xbd39f087bd548166U, 0xbd04d099bd1f6096U, 0xbc9f6093bcd48156U,
  0xbbd4816cbc54816aU, 0x3bd4814600000000U, 0x3c9f60a03c54817aU, 0x3d04d09d3cd48151U,
  0x3d39f08d3d1f60a3U, 0x3d6f11363d548179U, 0x3d9218993d84d0a1U, 0x3daca8a03d9f60aaU,
  0x3dc7389b3db9f091U, 0x3de1c9773dd48177U, 0x3df5e3dd3def1180U, 0x3e04d0b33dfc5987U,
  0x3e1218b93e0b74c1U, 0x3e1f60da3e18bce1U, 0x3e2ca8c53e2604d7U, 0x3e39f0d73e334cceU,
  0x3e4738d83e4094caU, 0x3e5481263e4ddd38U, 0x3e61c9353e5b2522U, 0x3e6f113a3e686d28U,
  0x3e7c59283e75b522U, 0x3e84d0993e817ea2U, 0x3e8b74a83e88229aU, 0x3e9218a03e8ec6a0U,
  0x3e98bcdf3e956aa1U, 0x3e9f60dc3e9c0ed8U, 0x3ea464233ea2b2dcU, 0x3ea956da3ea604d8U,
  0x3eaffade3eaca8e3U, 0x3eb69ef33eb34cf5U, 0x3ebd42f53eb9f0f3U, 0x3ec3e6fd3ec094fcU,
  0x3eca8aff3ec738feU, 0x3ed12f013ecddd02U, 0x3ed7d3063ed48104U, 0x3ede77113edb2511U,
  0x3ee51b1f3ee1c917U, 0x3eebbf243ee86d23U, 0x3ef263363eef1128U, 0x3ef9073e3ef5b537U,
  0x3effab413efc593fU, 0x3f0327a23f017ea1U, 0x3f05a7a73f04d0a6U, 0x3f0822ac3f0679a9U,
  0x3f0b74af3f09cbaeU, 0x3f0ec6b23f0d1db1U, 0x3f1218b73f106fb5U, 0x3f156abb3f13c1b9U,
  0x3f18bcc03f1713bdU, 0x3f1c0ec43f1a65c1U, 0x3f1f60c83f1db7c6U, 0x3f22b2cc3f2109caU,
  0x3f2604d03f245bceU, 0x3f29087e3f27add2U, 0x3f2ca8d93f2affd6U, 0x3f2ffadd3f2e51dbU,
  0x3f334ce13f31a3dfU, 0x3f369ee53f34f5e3U, 0x3f391d3d3f378190U, 0x3f3b99eb3f39f0e9U,
  0x3f3f8bf03f3d42edU, 0x3f423df43f4094f2U, 0x3f45faa33f445ef6U, 0x3f4931fc3f47964fU,
  0x3f4c69553f4acda9U, 0x3f4fa0af3f4e0502U, 0x3f52d8083f513c5bU, 0x6f6e797894a398a1U,
  0x69767580775f6665U, 0xa4b2a9a79c948a6eU, 0x615d5161687a918eU, 0x797d89817b817f67U,
  0x8678736f71777275U, 0x8592989cabb69b97U, 0x716a647884899997U, 0x857e726a697e7673U,
  0x758082959aa0a790U, 0xa197959d93888a75U, 0x6f78777f9493989eU, 0x8694979ca69a8579U,
  0x807c7e757b7f8b86U, 0x666d58535d64627cU, 0xa399807172737673U, 0x756f6c6b8791a4aaU,
  0x999fa99891847564U, 0x877d72686a728499U, 0x8793a0a291918e8bU, 0xb0979d9485858991U,
  0xb3b8bbbabab7c2baU, 0x4b595362668895a1U, 0xc3ada093977d6157U, 0x98a3b3c2d0c7c6c0U,
  0x778479807a8b7e88U, 0xa5948a7b8585877eU, 0x5660717c99a7a2a8U, 0x9b9fa89490806559U,
  0xa5aaadaba3aab19dU, 0xc3c8bfb1b3a29494U, 0x5d5d5d6d83a2b6c0U, 0xa1958c7b73726c5eU,
  0xaebebec1beb6b0b3U, 0x9a9587937f888c9cU, 0x6d646f7e9b9c959fU, 0xb7b9bfbab29f8478U,
  0x6e859fa09b959a9fU, 0xaba093867d6e5e6eU, 0x937a7d8c879e97a8U, 0x898e91a0989c938bU,
  0x747574787d7c8c90U, 0xb7b49d9287776a6aU, 0x727186859399b7bcU, 0x857e7a6c67686c6cU,
  0x7a7e85979b979088U, 0x7374798a88907a81U, 0x87857f7671797d77U, 0x8998928e92918688U,
  0xa7a08e858685776fU, 0x836f79789390ae9fU, 0x88837a7d77857c8cU, 0xa0c5d6dbd4b79a8aU,
  0x6a827985839b9a99U, 0x7a766c6763575362U, 0x848a96929f9a908cU, 0x958d95929d898a89U,
  0x797b8e968c9a9b98U, 0x907d7a7c746b7b7bU, 0x7b7c71748d918c9aU, 0x90949a8a837e7f7aU,
  0x6865727f8c93979eU, 0xa79e8a75635b5e59U, 0x929fa3aab8becabcU, 0x8781847585989795U,
  0xa3a1aeb6a8b1a79cU, 0x9eb6ced8cecbc0aaU, 0x797e67656566717cU, 0x919094827d7f817bU,
  0xb9d5c4c5c7c5b5aeU, 0x8586928492a1a0b9U, 0x959e98a3a494979aU, 0xaeaa97918986899dU,
  0x98a0a8c0bbaebfb4U, 0xb6a5b19d9797a49fU, 0xa4bacbd8cad7d1c0U, 0x94a19c98948a7986U,
  0xa7aeb6a59d9c9097U, 0x8d9387828781939aU, 0x88858483867c8880U, 0x9faba49f8a888a94U,
  0xa4acb2ac96a4a7a7U, 0xa4a7aba4a6ada2aaU, 0x9aacb7aea4939496U, 0xb1a3897f7b858a91U,
  0x949db2b8cbd0c4b1U, 0x726761555e69787cU, 0x98878b9b8486856fU, 0x88716c68746e718cU,
  0x6a6e727179898a7eU, 0xa2947e797864636fU, 0xa2abadaebbb8b2acU, 0x737c6d626b84949eU,
  0x8e99aa9e857b6d7aU, 0x879591939a949789U, 0x837a6e614d596972U, 0x7d78787d8c93938bU,
  0x5660596e848e8d94U, 0x68717a8585807d66U, 0x61716c7d7b666a6eU, 0x9e938d8d7c8b7965U,
  0x81879398929f9d9eU, 0x7f7a6d615e63686eU, 0x9c908c878d919385U, 0x7b6968676e89948cU,
  0x99a6b1a989776e7aU, 0xb2bac2adaea8a1a1U, 0x59544a4c5a6d8eb1U, 0xcabcb3b0927d755bU,
  0x89787d7b82a3a4beU, 0x9b9fa5a3adb7a18eU, 0x949f9ca4a1a3b5b5U, 0x9c99938c8a89a198U,
  0xa1b2a09b88819190U, 0x9f9ca195939c9ca7U, 0x9ea091948993a498U, 0xd4dde0dcc3b8a2a3U,
  0x9e8c9e9c899bb1b3U, 0xa5b3adacad9ca49aU, 0xa39b887c878a9b97U, 0xa29d9896909db0abU,
  0xa7bebfcbcbbcc0aaU, 0x7e85776b7a7e8a8eU, 0x839b979da0aa9785U, 0xc6cab19e9a878b81U,
  0x929694929cb9c1ceU, 0x858186868b8c8681U, 0x8589929aa0968383U, 0x847d877d746e6f79U,
  0x8b847778897d7f85U, 0x929fabb5c1bcada4U, 0x7d6e5c5257626978U, 0x9b8d8d9279868087U,
  0x7f84767d7a867f86U, 0x7e7c8a99a4a5a29bU, 0x827f7d6062595f5fU, 0x757d837f9baaa898U,
  0x817d6c6a5f686d63U, 0x8a856e6d7d6a6f6fU, 0x6f7973777783898cU, 0x5e5367616d646677U,
  0x7f7a7972797f7b64U, 0x74796a6c8189887bU, 0x8583887a81807387U, 0x6d6f6a666d6a7d7fU,
  0x9f9284756c5a6469U, 0x758b949bacb0a5a6U, 0x7c8484898d7e776cU, 0x98877c7a747c7682U,
  0x767a81837a94a195U, 0x7c776668605c5d68U, 0x8c756f82898c7675U, 0x6f78929d9c959e9bU,
  0x4d575858575d6a61U, 0x7d686c6e6f6a6755U, 0x93968e979a968d89U, 0x5e797e91a7a69489U,
  0x9d91754a41333c47U, 0xb2a3a79a9ca2a09fU, 0x7d727f7e758999a6U, 0x9098a5a6968c8887U,
  0x9290a29ea3a4a3a9U, 0x7f71636677888987U, 0x85928b8586939a93U, 0xbcbebba6a59f9491U,
  0x3d464d57767e8ea3U, 0xd1b0aa836e554f3dU, 0x84979ea7b1c5c6caU, 0x74766c6a74717b77U,
  0x7d73777b6c808385U, 0x8981738288848c88U, 0x9aa0a2a8989f8789U, 0x8671636a595b7276U,
  0xa6a3b4b2a69e9399U, 0x575a5661798c9ca7U, 0x7b7a82868e886d61U, 0x777e66687b727a74U,
  0xad9c9f8983807271U, 0x4c5968717886a8b3U, 0x5d4f5d6d68686b5bU, 0x78999395958d7965U,
  0x94847a7371726f6cU, 0x7f8293979fa99895U, 0x68675c5f6a74786fU, 0xaa9c8b7a6a6b6b66U,
  0x58636e80857f8e93U, 0x836f6f5244343f58U, 0x6543433682817f86U, 0x796f717385947f74U,
  0xa2aeae9f967f6a72U, 0x6a4f4b5763667f87U, 0x9d978d85837e8172U, 0x7d807986888e848cU,
  0x868e8690968a8c7cU, 0x6871808a90959c89U, 0x888478766e736568U, 0x84808485858a907eU,
  0x939e928c7c7c8c82U, 0x6d6c69749094a091U, 0x7b86887c937c7b79U, 0x615c657a73727773U,
  0x7268666c75695a62U, 0x8e89857d82888373U, 0x7676665b5c717891U, 0x8094a5aba7b7a498U,
  0xa8a3968475696d7aU, 0x9db1b7b4b4bdbdb2U, 0x7c787c76807c7984U, 0x353a455a63666e76U,
  0xa590726457584a46U, 0x7f929fadb4aaa5b0U, 0x856f5b5b5e60737eU, 0x787489a1a1a39798U,
  0x636d756e6a666f77U, 0x735c52514654615aU, 0x929396979789937aU, 0x827e757d8782808eU,
  0x75798393acb69c90U, 0x806e646263717a81U, 0x848c8690969ca690U, 0x3f514c5666647b92U,
  0x96908b87796e4e42U, 0x3d44475e61808082U, 0x7c807d9080685546U, 0x8a87775b616d7572U,
  0x6e7e767a8d908892U, 0x4e5246475a58686cU, 0x625f4f625f6f695dU, 0x85857e828b929084U,
  0x4a555c717b7c727bU, 0x787b716a59515556U, 0x938b7c797a81847bU, 0x6460696a7d929391U,
  0x5669737781776a62U, 0xa0968065615a4d57U, 0x6266878c9faaa9adU, 0x8972675440445156U,
  0x949a92888c858982U, 0x757c727363747990U, 0x363d3d4c56615f71U, 0x80756865575c4e3cU,
  0x6d6e777d798a9484U, 0x8284818e8b7d8185U, 0x80858694a0938e92U, 0x81858e8b7c80756dU,
  0x9caab4ac9ea19380U, 0x8e817b8e90a1a29eU, 0x6a7a939fa1a29a93U, 0x867f8d7c7d796875U,
  0x9da4a5918b93998bU, 0x656a6962666e8094U, 0x616562646b676c68U, 0x767f847e78777262U,
  0x7c82817b6e6d6b6eU, 0x7467696d64638181U, 0x6e726c737279787bU, 0x777a787a8c817674U,
  0x7a62674f57475a6dU, 0x8371737a6e75796fU, 0x8479747a6d727c7aU, 0x676b6765595d6f6eU,
  0x5f59594d565d5e56U, 0x5e66717b76766968U, 0x69636b7a6a6b5452U, 0x4c3949413e484852U,
  0x6372676c69585942U, 0x81878a8074745a5cU, 0x7e77675b5e726864U, 0x7f878487908a9391U,
  0x363f3f4c535a6679U, 0x48383d2a33292a37U, 0x6e61604d4d4f5857U, 0x4b515f645d787b72U,
  0x9a9d887b776e5351U, 0x9a807d7b87969cacU, 0x8a8ba6a2b0c3aaa0U, 0x46353425233e5369U,
  0x88869c92846a4d4eU, 0x808e9f998b827d80U, 0x74736d69656a6a75U, 0x9aaab19f9e82736cU,
  0x5453585b51676f80U, 0x6c72717a696e5e5eU, 0x8083715d5a545f67U, 0x6f64514a4f6a797aU,
  0x77747687999d8c84U, 0x867c81948c96937eU, 0x9b9ca8a79c968978U, 0x827f7a716d6a7b81U,
  0xbeb3b6a78d878186U, 0x69767d7e8e9ea5acU, 0x686d6856575f676dU, 0x858785746a736c6eU,
  0x878a84978b8c898eU, 0x9a8d7f77817b8083U, 0xa79285826d7b8099U, 0x9c96a1a9a79f9f9eU,
  0x251f2b3d5a8499a2U, 0x876c62564b38332aU, 0xb2b4a6a08b85898dU, 0x8783736e7e9799a3U,
  0xa29d918d9482887aU, 0x8a9793a4aaa3a8a2U, 0x57637b6f6976857eU, 0x817e756a695e5248U,
  0x80827c8395939285U, 0x7883818782857580U, 0x8c72625952596e82U, 0x7c868a9299969798U,
  0x7d6b6e6c66776d7fU, 0x6c657a75798b7d6eU, 0x6f7a6c7668656d66U, 0x525f5b5f5e5b6968U,
  0x76817a7f6e5b5d5cU, 0x6062686c69645e78U, 0x4e5153454e4d4f4aU, 0x8a979096a0877f6eU,
  0x4346354344566982U, 0x7879847e918d7661U, 0x6a5d494147696b80U, 0x947d7f7b7366726aU,
  0x42484d586a7b848dU, 0x52494a4b44412c38U, 0x8479758078635d4fU, 0x555259636a6c7772U,
  0x4b55677174745c62U, 0x757c776e4f4c3d4dU, 0x60675b5c55656d6eU, 0x454c4652474e5453U,
  0x6c6f6e786e605d56U, 0x8582645954515a51U, 0x64645e7a8583798cU, 0x676863655c625455U,
  0x6e5a474147464558U, 0x544f627a7e887f7dU, 0x798a878181756066U, 0x7a615e6071646d69U,
  0x4a565f807d899882U, 0x918991806d5b4442U, 0x867e756d7b808e81U, 0x8a979d94929c9993U,
  0x7e7a7c7a7b72898bU, 0x7b76817c7f877f7dU, 0x85827a6f695d6865U, 0xb2b59c9188857e83U,
  0x6b63534551677699U, 0x6c6b686a66596066U, 0x6157635a6b7a6d73U, 0x72757271726f6961U,
  0x896e695e64636975U, 0x6c6256666782828cU, 0x4e596b6f6d737465U, 0x675144494a554754U,
  0x7c76767579797572U, 0x4f4d4a484e686a7eU, 0x7a695e6e7280745dU, 0x797e868a8b817d73U,
  0x4231352938495165U, 0xa2a89c83775a4d49U, 0x796c7685928c9fa8U, 0x514d44514c6c6d66U,
  0x817d7c7f6d776343U, 0x3e4a4455606b7d84U, 0x51736d8174695647U, 0x443438413a454e49U,
  0x695e514a4b585b55U, 0x808484938b7c7d7aU, 0x4d575a4d5d5f6467U, 0xb3acaca3856f5d5aU,
  0x7a7880a1b2b0aea7U, 0x6e71727d766e817cU, 0x58676e7d7c8c8375U, 0x7d5b423f342f3c39U,
  0x8a8890978b958692U, 0x77656865627d808eU, 0x606d6565788c9eb0U, 0x63716f827f6e6d65U,
  0x9c81836b685c635eU, 0x7a72727183919d95U, 0xa3909088827d6e77U, 0x918e93867d879e9eU,
  0x454957526c829297U, 0xa3a392868b716555U, 0x95a29ca0a29da49fU, 0x534f5d767c90919bU,
  0x746374616d745a4eU, 0x795c63595b605c6dU, 0xbcb4b9bdb9a59686U, 0x6b686a76828498a3U,
  0xaaa2a7949e938080U, 0xa6989798949fb1b1U, 0x7b7c85979da1a1b4U, 0x5e51424a4c5f5c5eU,
  0x90816e74797a6f68U, 0x7b828b8894a3a395U, 0x898383756e6b6c7eU, 0x6258727f7b7b8185U,
  0x99a18b887a787468U, 0x89968d8c9c9ca2a4U, 0x98908e7d6c726f89U, 0x9da7a69ba9aaa29dU,
  0x89819891a1aba7a9U, 0x5c4a58687d807d87U, 0x97918e8588797d6bU, 0x9b9ea28d9384939bU,
  0x6578778084808a98U, 0x7a767d75655d655aU, 0x637d8695918d8788U, 0x8e87878480786c65U,
  0x748a9896a19f9493U, 0x878a9b8d8c7e7c6fU, 0x8c71787e7973747cU, 0xbcbcc5c2b3b29e96U,
  0xa6b2aca49e95b1adU, 0x5f6d6975777d7583U, 0x928e88847d777a71U, 0x7d747b8a868e988eU,
  0x8374767c7f7f7784U, 0x6d67625d6f677879U, 0xb3bab898827f6a6dU, 0x8a8c878c8da2a5aeU,
  0x899594837f898699U, 0xa4a1918b87878275U, 0x9ba2a2a59e9eadabU, 0xb3a297958491888dU,
  0xb4b4b5b2bdc7d0b7U, 0x7e78809da7a8a7b0U, 0x677ea5b2b1988a86U, 0x83838c8482806a64U,
  0x9e99a7a2a8978d8bU, 0x7e7679787c849999U, 0xd4cdc3b4ae95807fU, 0xa3a3a4b2bbbfdad6U,
  0x74727871877e929aU, 0xbba199796f5f5e78U, 0xaeb6b4b6b9b3c7bfU, 0xbaaba6b1c4bcbfc2U,
  0xbeb0a5a9b1c5bac2U, 0x878e9fa3bcced0c0U, 0xb5aeb4a6a9a09192U, 0xd2d1d5e2e0ddd2c2U,
  0x959ba3a5b2d8c9d0U, 0xac9b848884747e88U, 0xbbbec6bcb9aea8acU, 0xb0a2acb2c2b5bcb3U,
  0xb1ab9a8c9c98a0a6U, 0xb3a7aea5a4a9b0aeU, 0x8e979cb3bec6c5ceU, 0xa59b9b876e71687aU,
  0xa2a0aca19e9ba7a7U, 0x9f9fa2a2a2b2a1a6U, 0x99aeb7c1b5b4a392U, 0xbdc5b1a99c8e7c7eU,
  0xa4aab2adadabb2c7U, 0x6b6b7782989898aaU, 0x586a6456595d686aU, 0x92736a4e4d534958U,
  0x6d87a5aec6c4beaeU, 0xa5a58e7b65615656U, 0x6d716c65646a839dU, 0x828389807b748774U,
  0x7584787283797785U, 0x6358546964677781U, 0xa19590795f4c474dU, 0x5a546b788b989fb2U,
  0x42444c3e584e5a58U, 0x8d7b74625e68645cU, 0x9789877e93a5a3a0U, 0x7f8b9e928c909296U,
  0x71686d665b736776U, 0x968c756f4f4f5f64U, 0x3f45677b9a9f98a1U, 0x62626d67715f4f3dU,
  0x8169666367747d68U, 0x444e4e5b716f7d7eU, 0x46465152595c5d4eU, 0x9b7e62564849514aU,
  0x7d747f8381969aa1U, 0xa4aca4967c69686eU, 0x68655b6272717d9fU, 0x867f7d6a46485c5fU,
  0x8591adb6b4b1a086U, 0x80848e8b8279717fU, 0x8078776b5c4c4c64U, 0x5e5d6e75737c7d82U,
  0x4e62596973645e6dU, 0x4c404243353a434bU, 0x9792907a6e6f5c51U, 0x4e4a4f666389979cU,
  0x8995817e7a665443U, 0x57696268727f918bU, 0x949c968366585845U, 0x5a4f58555d667584U,
  0x7a78777d6d676c56U, 0x4f4b515b69656167U, 0x65615c5c545b4d54U, 0x7878626466596363U,
  0x66726968666d736fU, 0x9aa097898b807879U, 0x686f85849f959f9bU, 0x716a7472787a6a66U,
  0x4b5b516764766c71U, 0x6269717b6c696358U, 0xa8937e5d646a5f72U, 0x41517482a4b8bdb7U,
  0x928b7c726051483aU, 0xa7ada59ea4a5a191U, 0x777b6d767f868998U, 0x7f7f8b83848b848aU,
  0xa29c908d7b7f6e72U, 0x8b949c9a919d9c93U, 0x84736b8485888289U, 0x747a71788585807aU,
  0x9c99989a89948c86U, 0xb2c1b9ad9b989da7U, 0x7d798d8aa2a4a2b5U, 0x7564717496998983U,
  0x91909fa5acad9d85U, 0x716f74827d758382U, 0x969f978d7b787875U, 0xb8bcb7bfaa8b8085U,
  0x6a767678878a99a1U, 0x8689978885827d67U, 0x8b87998b92938487U, 0x7d898b846b757b93U,
  0x798b827e856f6974U, 0x5e4c3a3d53596a7dU, 0x7c8683808c7e8977U, 0x949699877e74716eU,
  0x8c8687979b969190U, 0x696f7a8b958d8a83U, 0x9ba6a2998d837372U, 0x8a8c819a949997a1U,
  0x96a7bcc5b6b4ae93U, 0x9e95908e81796e82U, 0x9b9b999f92959d93U, 0x737b8ca5b2a7a8a6U,
  0x6a6e69766a5f5555U, 0xbaa9947966626c6eU, 0x88818a87a1a7b5bbU, 0x6a58585757686d79U,
  0x847ea39996927f74U, 0x655e4e564e636974U, 0x7c7975747e7e7b74U, 0x645d595e6f767981U,
  0x756b7678777e6a74U, 0x617c7c9484867f6fU, 0x84746a474f4d5963U, 0xadb5a2958c7f847cU,
  0x4f4452596a7d96a4U, 0x99aea69d9592776dU, 0x85847e8677877d89U, 0x64564043486b6a79U,
  0x675d63606d776d72U, 0xa1bec4bfaa948075U, 0x666c7f7781848e9fU, 0x5f6c7b6b605f5660U,
  0x6e575c4d4c3b4f53U, 0x64666661635e6264U, 0x989b8a889178777bU, 0x5d5d647c87a39da5U,
  0x869ea49297826e5fU, 0x81676c8868617171U, 0xa2a397a8b2a49683U, 0x4d3d4857667d8d9dU,
  0xb5a0a89e866f6246U, 0x869893a0a3aba0a6U, 0x828c8b9692968885U, 0x757e716b7578727dU,
  0x9692988584817687U, 0x7977646b797e919dU, 0x7a848790859a8b82U, 0xb89d8b8a6f737f7aU,
  0x687b87899eaab8bfU, 0x79836e766e575e6bU, 0x91898e82878c958bU, 0x757c778497999a8eU,
  0x8c9393998d999b8bU, 0x7265656c68737f86U, 0x9c9baeadb2a49382U, 0x918082807b817e84U,
  0x797a837c86939b9bU, 0xa9a494837b717674U, 0x7d818b938b9aa1a1U, 0x95989180717a7977U,
  0x9187887b86848d9eU, 0xadacbbb9b4a6a0a1U, 0x9d929ea89e917e8dU, 0x6672737a95a2a19bU,
  0xbfc0b9ac9485766aU, 0x8676828084859cb0U, 0x596c848385928287U, 0xcecdb9967f645351U,
  0x63737ca0a0b8b7d0U, 0x5848445d74717672U, 0xc0c4d5c9c6a97d6aU, 0x41424049778595b6U,
  0xc5cebcb19775684aU, 0x7a818475737289a0U, 0x99887f76666c6b6bU, 0x82848d97a19f9b99U,
  0x5854616e55595162U, 0xaca59fa1a37d7460U, 0x817b8e99b0bbcec5U, 0x6e6f5f624556576bU,
  0xa1adbac3ac9e997aU, 0x656778819aa6a59bU, 0x78898e878a807f6bU, 0x7e6d6354545b6375U,
  0x494d463f52576f85U, 0x7c777780807d7461U, 0xbc986c6068797d7bU, 0x4f779fc2c8d7dec5U,
  0x60665f463a2a2c42U, 0x8e8ca09b9090856cU, 0x8183867c7d869092U, 0x5153676c65687b81U,
  0xa49c9c9e99787a73U, 0x8c9498958b838a9dU, 0x737d919391a39c93U, 0x4e5347474f555e6dU,
  0x95a29da3816d6148U, 0x8a7e6b675d656378U, 0x7d757b768181848eU, 0x766c7d7674677b82U,
  0xa7a7a3999e968690U, 0x575d647786959f9dU, 0x96959381756a6269U, 0x7e7e797f9d98918aU,
  0x6a68646c6e617b71U, 0x6a72858e848a847dU, 0x918d929289776d5cU, 0x78776f6a80756f80U,
  0x7e898d90959a8d8bU, 0x8883787773626d79U, 0x6f92a5a4aea3a79cU, 0x5d514f373240595bU,
  0x92929e9e988c7b75U, 0x414a55717a878985U, 0xa09b937e73605243U, 0x6d6784838d9098a9U,
  0x6b605965736d737bU, 0x5c5d788883817f72U, 0x8b8b84787a696254U, 0x869a95828c8e8a90U,
  0x666a67756a747c85U, 0x6161686167625657U, 0x857b7f806959565fU, 0x59555657576b7c7bU,
  0x757b8b877a735f64U, 0x7b92a9b49f9c9486U, 0x716c55362820385bU, 0x927d7c71716a7463U,
  0x43425e687d8a9299U, 0x86878a756c5c473eU, 0x7c746e575a606e6fU, 0x3556638083928995U,
  0x66634e4327171633U, 0x797c696b646a6d7dU, 0x67696e63656c6e73U, 0x755f59605f686467U,
  0x6069756f6a7b8e88U, 0x5c646c716f74756fU, 0x796c614d5e58655cU, 0x756559687d7f7e6eU,
  0x7b80897e83747981U, 0x605f5d544949495bU, 0x9780807158565a62U, 0x728388959aa6929eU,
  0x566c78909490777cU, 0xa497837659443d51U, 0x76718188a0999ca1U, 0x75615a61515b786bU,
  0x7c8482858c999274U, 0x758894909482808aU, 0x7a594f4454716f78U, 0x5a5c737487899790U,
  0x8793819177756d68U, 0x876d615555637a84U, 0x8d97a1a9b0b4ac99U, 0x646560555f586980U,
  0x68838892897e7477U, 0x7771746a56484e65U, 0x575a66687d776f79U, 0x6553544557584551U,
  0x7a7c696a5c5e6463U, 0x888c8d99a69e876fU, 0x494f4d545e5d7274U, 0x555567614a4e4948U,
  0x746e634a43314244U, 0x36314057797f8d8cU, 0x584945464a523e43U, 0x989a86755f5e5151U,
  0x4c51727d81797586U, 0x564d403a2e2b373cU, 0x6a7f7372756a7471U, 0x4e4b363d3146565fU,
  0x5a5e746d636b5c4eU, 0x6d777173533a3348U, 0x4951614f63636f6cU, 0x6a4c3f3737353d3aU,
  0x65575c5a5b696a76U, 0x717b918b7f856f5dU, 0x594d5a6c7b716d6cU, 0x515164686b6b7266U,
  0x7a6d525960594a4bU, 0x42465d69736f7c85U, 0x839891804f423d4dU, 0x887a5b585f687e78U,
  0x435a6e7789939f93U, 0x54586561554c474cU, 0x8388807a6e55484aU, 0x544d4846465a6272U,
  0x91ae9e928775524cU, 0x5c6a686061516b7dU, 0x5d5b5a4e43424c54U, 0x6169786d6f796b59U,
  0x6c5343454040445eU, 0x61768aa4a89d9a6eU, 0x63555e6076766b6bU, 0x6b626a6d7175766dU,
  0x6d747e7f7e8d7f73U, 0x9b8d75696b615e66U, 0x7e88919999929c95U, 0x2c484b584a5d586fU,
  0xa69391725e454024U, 0x555b6a7c96b0b7b4U, 0x635c5d606b685c5bU, 0x585d4e5d51495554U,
  0x867e8b86816f5b52U, 0x605f62525b5d647bU, 0x51575265615e6164U, 0x9d9c858079616256U,
  0x847e796180929b99U, 0x6a7c8b817b8e8b72U, 0x67756b6552515566U, 0xb5bbbc9f8b81685cU,
  0x4e5a6d789099a6acU, 0x6c7a6c605e4b423bU, 0x7d6a736d6877787aU, 0x7878737573837f7bU,
  0x918778605d6b656bU, 0x7d68787365807e8dU, 0x7a6567596776796cU, 0x9e9897867d7b7873U,
  0x646d7485968d88a1U, 0xcdbd979069524948U, 0x5668869cbad1d9d0U, 0x6c6861685a4b4857U,
  0x5a64688889998075U, 0x667471818c8e856dU, 0x7783908384807262U, 0x5e655b58534f616aU,
  0xb6b2bb9f8b7d7d76U, 0x696c8a92929996adU, 0x5e5a525d555f6262U, 0x6e757781837a8176U,
  0x9ca0b3bdbba8908cU, 0x625e676d7874777aU, 0x78776b72857e756dU, 0x7d68685253606e71U,
  0x586a5f626d6e7780U, 0x909b929380867664U, 0x777e7761747a7c86U, 0x796b696a6b7d797fU,
  0x939b9e98a08e8c7fU, 0x696971686a6b6f8dU, 0x9588776569555d51U, 0x746f7c8193a2a397U,
  0x8376807f7e76877cU, 0xa79c8a9996918c89U, 0xa7a4b1b3abb8aca8U, 0x5943484b526c8d9fU,
  0xa39a979f9d83795cU, 0x7a6d6d6d7c90989fU, 0x918b847e8e86897aU, 0x82798a8e8da39e9cU,
  0x6d74747272808580U, 0xa9a5a88b7a766d6aU, 0x6b7e87888992aab1U, 0x6e59665d667f7378U,
  0xc0c4b8a39e938880U, 0x758e96a2bbd1cdd0U, 0x969c917878807279U, 0xacc0b8c1b3a8a0aaU,
  0x65676b68848e8ea6U, 0x94988e9382836f69U, 0x90868b8586858387U, 0xc8b9ada39f8a8b8bU,
  0x65696f78798ea4b6U, 0x766b575657606f69U, 0x9398a0b4ada0a295U, 0x808a799286788380U,
  0x9f979a868583867fU, 0x514453626e7d8a8bU, 0x7a6e7e7e8877765fU, 0x6c695d78817e7672U,
  0x635d4f4a4d47555bU, 0xa39ea0a096828a86U, 0x726c84818a839195U, 0x76828381767f8a85U,
  0x969a9ba196917b83U, 0xb5adae999298998eU, 0x8e8e8d9199aaaea9U, 0x55535d566d746676U,
  0x7d798e7977795e59U, 0x464b5d6e787d8577U, 0x858a8975644f3a32U, 0x778299a3aba09a91U,
  0x3a4e595b68686e6dU, 0x9e94948867593a3cU, 0x756f737d84929ea2U, 0x6d4f584441374e68U,
  0x7c7e82807f848575U, 0x766453595d656a7bU, 0x7893a3a7ae9b9577U, 0x878b87877e7d7580U,
  0x9c9d968777758880U, 0x53585d636384868aU, 0x7688837c7b7b785cU, 0x9c7f7e6759566762U,
  0x6f6763737b908e9fU, 0x86777b84867c777cU, 0x8d98a5a4a2947d79U, 0x5848534f62647789U,
  0x99a3a29b918b7f68U, 0x6d5a676a8a898c9dU, 0xb0b2aeab98918577U, 0x857a727f7e90839dU,
  0x8e988c85858e8b83U, 0xd4e7dad3b9b1ab98U, 0x6c73717d96b2bcc7U, 0xc4cec0b5a795826fU,
  0x81807b7c6e8183a4U, 0xa9aca49f898c7e86U, 0x87949da8a0a8b197U, 0x756b64555656606aU,
  0x5b4f53675a617375U, 0x8b979996a49c826cU, 0x85867e807e858c95U, 0x837e7f7b747a8181U,
  0xb8babfc3b1b69993U, 0x97948c83858b99b6U, 0xb1aaa1a6a0a7a29eU, 0xdbddf1f0e7cbc0abU,
  0xb0a892949faabbcdU, 0x80877b818d94a3abU, 0x998b9288889e9391U, 0x5c558291a9b6b4a0U,
  0xb6b9b8a77f725e51U, 0x9a9ba1a5a5b1abb3U, 0x6368626a676b8590U, 0xbeb5b08c72545e51U,
  0xc0d1c5c4c3c1cdc7U, 0x8c7c6c738c90b2aeU, 0x737e958691877f80U, 0x9c9a958d7c817673U,
  0x8d888b7f7e8a9aa3U, 0x77718b8b7f7a7582U, 0xc0b6a39da08a7d7bU, 0x8694a6b8cdd8cccdU,
  0x61625c6476797786U, 0xa6aa9aa184766065U, 0x88869ea49b9aabb0U, 0x747c84848c908a83U,
  0xa79478676b717176U, 0x66676b7e9ba5a8b2U, 0x5360617c86838172U, 0x8c8c807b57433d48U,
  0x7e68605657656f77U, 0x9b94987f7d879f99U, 0x9fb5bbb2b4ada7b5U, 0x626078758d90a59cU,
  0x6d6478747b7a6667U, 0x948c92858c7b7966U, 0x5d545555526f808dU, 0x9b9a9b8481656c60U,
  0xa6a8a3a28c85899dU, 0x53545c5e6c8799a5U, 0x966f6a555f474d41U, 0x484a5f7c9aa8aca6U,
  0x6e555b515953595bU, 0x989c9b9f939f8680U, 0x907c7c7376768090U, 0x8b8a929c99a7a69eU,
  0xa1b7bba08b79897bU, 0x86816b757d848e9bU, 0x75837f8685938c95U, 0xd1cab6b7a5968076U,
  0x696b5d636f8ea8bfU, 0xb3aa8d8089837d7cU, 0x9aa7ada7a3a4aab2U, 0x7d766c7374758b96U,
  0x8481878d86969f8aU, 0x93a9a99ca2909088U, 0x9790918e6e676682U, 0x798eaab3b3b3a7a1U,
  0x7569736b766f7773U, 0x60525e5462627179U, 0x88817b887e7b7c71U, 0xad999b938386848cU,
  0xbebca7ac9698a3a9U, 0xb2b4b8b8b9b1b1baU, 0x6472757b8e8d9ca6U, 0x878b7e756465625dU,
  0x727a798c9998a79aU, 0x5c766e807c7e6e6eU, 0x776b573d3a3a404eU, 0x777374746f7b8084U,
  0x8e86736b4f5a5c65U, 0x958a808791878c97U, 0x76829aa7a8a1ae97U, 0x57563b524d59525fU,
  0x7679757f806f7769U, 0x94867c6a71687c82U, 0x72686a697c7e8393U, 0x8874655156525965U,
  0x6063697479888a8aU, 0x7d88908080737f71U, 0xa9a09e8385817780U, 0x4e3e44567c8796a4U,
  0x7d828b88777b6968U, 0x715e675969696a6fU, 0x6264786f74657263U, 0x806a5d4f4d5d4f5dU,
  0x77737c8189938976U, 0x7882687465656562U, 0x6e7a807b89867372U, 0x666a6574655c5f66U,
  0x9a94937f6c677263U, 0x8994a1989d9c9495U, 0x849081827b6b7476U, 0x8080808098978192U,
  0x7c7c9289959a8e8dU, 0x8a817b75595a585fU, 0xc3c1ae9c9e818a8dU, 0x887674766a8585a2U,
  0x5b42332c9aa0929cU, 0x88978b94988c8262U, 0x564d4b46495e7a86U, 0xb6b8cac5a99b8c67U,
  0x97968a827f849696U, 0x73818c9a9ba4ada6U, 0x7588808084746a77U, 0xb19e8c6e565d6873U,
  0x92908692a3a7a8abU, 0x6a6b6e7c91948e86U, 0x868a6d60514e5759U, 0x62737a887b918e92U,
  0xb4a79c796a6e5f65U, 0x93988d919da3a6a9U, 0x735f5a6f797b9198U, 0xa1a0a7a8a6a28b76U,
  0x605f5e69898a9aa4U, 0x878c878c8d887974U, 0x918e9a9aa99b948eU, 0x666b74756e767b8dU,
  0x9990818166675154U, 0x808b9a9fa5a5b19dU, 0xa0a5b19685737782U, 0x67646065778e94a0U,
  0x737779717d626765U, 0x6a6b73655a566268U, 0x96859da2a19a8e74U, 0x82868d918c988899U,
  0x696e7b6763636683U, 0x6f7d96968e979181U, 0xb5bba69278696a65U, 0x858e939ca4b0b5bbU,
  0x9a947f948d829397U, 0x7c758498adab9d93U, 0xa3919090837c6a79U, 0x7d9193938993a79cU,
  0xa195847b787e757bU, 0x8c8c93929a9399a6U, 0xb1b7b4abb19ea189U, 0x53445f656e7f91a1U,
  0xb5b8b8a892866f64U, 0x72899195889ca2baU, 0x8784656154585b66U, 0xa0968ea095978787U,
  0x4d5b5a6580849f9bU, 0x9aa3bbae8e827261U, 0x91817d8e8c919d95U, 0x997d6a6c6c757481U,
  0xa4b2cbeaedddcdb6U, 0x9f7f7e747f81859cU, 0x95a5bbcab8b3aea7U, 0x7174817574777781U,
  0x909ba6aca2908377U, 0x9b8b74767f788691U, 0xa6a0acaeb3c3bcb9U, 0x746b656573718285U,
  0x9595a4a393909486U, 0x938d877c7d778a88U, 0x888c9fa3a4a1a7aaU, 0x868981827a6f7b6fU,
  0x6a717b8c968a8a89U, 0x91948e8e827c6d63U, 0x7e8488839184888eU, 0x8a898e8c857a717dU,
  0x5842474c5b6e6d83U, 0xada8a88e8973725cU, 0xa3a4ab9aaab8b4abU, 0x5256555e6d8198a8U,
  0x6678838495867468U, 0x7c787f77626d5f68U, 0x8676898698967e75U, 0x5f74869cbab19a84U,
  0xb9baa1997f5d5954U, 0x8b879a969294a1a2U, 0x6e6a696c7172768cU, 0xb4a9a8a890776b60U,
  0x88978d9ca7b5adb6U, 0x9386747384868682U, 0x9f959595a5ab9d98U, 0x5252668192919592U,
  0x606d827c7d8e8375U, 0x7e7585867a676b5dU, 0xabbbad9c9d84747aU, 0x88909a9c9e9ba8a9U,
  0x6a71808b909d9791U, 0xb4abb09d9283766cU, 0x637b9fb0b2b8b4bdU, 0x85848b8d7b735d5dU,
  0x6c6a75827c82917eU, 0xa6978681624e585aU, 0x6b677b818e96969bU, 0x8787978c89826e76U,
  0x968c9894958a827bU, 0xa49a96857c7b8a90U, 0x72747990a4bec4bdU, 0xada3a2908d868272U,
  0x969da5b9b2aeababU, 0x7c7c7d7362676d7fU, 0x9d9a9687848b8577U, 0x877b797f6c7b899fU,
  0x8a89888584a2998eU, 0xa7a1959b90848c7aU, 0x666b6c80858e959dU, 0x937e74545f546c6aU,
  0x6d857f8ba1999b92U, 0x7d877c7d767b7374U, 0x867e7f775f676774U, 0x67766579686d6a74U,
  0x858a797e7477717dU, 0x7184959fa2a09693U, 0x6965697d696a7a7dU, 0x8d95787569696868U,
  0xb2bfc2c4adab9990U, 0x858a98a297a098a3U, 0x6654645d6c728381U, 0x798b8e85807a765eU,
  0x594b455e5452676bU, 0x94a19c8e8d796d6fU, 0x6a5b646b5d757495U, 0x6c79869a9c94857eU,
  0x7a6f7971675f605eU, 0x7b899096a59e9087U, 0x695d6a5e67766d79U, 0x949182846b7b6c68U,
  0xb4babcaab2a3a190U, 0x6759535e637295adU, 0x6a7d7c8072796c5dU, 0x92939278795f5e62U,
  0x5141516a7d889aa6U, 0x555f697672726e62U, 0xa4b39d9083625947U, 0x3f4c62726d798da5U,
  0x684c483c322a3734U, 0x68798284928c927dU, 0x6661444345434957U, 0x727c7d7f72786e6eU,
  0x7465716151555861U, 0x2d454f515b565964U, 0x8e815c5a412d382aU, 0x637c909a9d9897a3U,
  0x4e635f67757c7272U, 0x6c6c676f69685a42U, 0x777b7f818479726cU, 0x4d4b435961566965U,
  0x48534d484f486156U, 0x6d7e8d7d6e766d60U, 0x43353b3a475d5d64U, 0x8d95939383726154U,
  0x87887b738285898aU, 0x2f4e687f8d83858cU, 0x4b4f3d403944413dU, 0x747c7c7f756f565dU,
  0x94a0a79588776066U, 0x3b3853616972758dU, 0x616c645d55554b42U, 0x5d5b4c423b47566eU,
  0x767f86908684716aU, 0x616767637b7d736dU, 0x6a6c766c6d7b6f69U, 0x887a7a786b6d7d6aU,
  0x747461636f69798eU, 0x695861616878747bU, 0x808e8d7477686962U, 0x525e7a8687757171U,
  0x5a62556557585a54U, 0x7f7a8a828482766aU, 0x595b5f666f7a7e83U, 0x655e61725853454cU,
  0x7d89887a7a737767U, 0x8a847b75636e7771U, 0x6e777d7b7f6f6e76U, 0x6e727a6b736d786bU,
  0x6e77837e6c687a75U, 0x878a887d6f65696aU, 0x3e5c748aa89f9c9aU, 0x666a5a5d3f3b3138U,
  0x716a4e4a585f566bU, 0x67626f727d857a76U, 0x4f513a444745576cU, 0x8d7c715b524e5459U,
  0x746c6d737c889692U, 0x554448606980776fU, 0x7d83766e7568535fU, 0x786d6d76736a7182U,
  0x928c7d7974766972U, 0x757a93a1babcbbb6U, 0x7985757569545d61U, 0x4b4d475b66717873U,
  0x979a8c8e726d7c90U, 0x7b889aa09c8a8183U, 0x9088846b71736d6fU, 0x878c86787b87a1a5U,
  0x76757b85726f8274U, 0x9d8a827d877e8e7bU, 0x575f637d86909b9fU, 0x83a2a6aab2b2a080U,
  0x857f5b5a57697474U, 0x655e738a90aaa99fU, 0x94989e9c9c92877bU, 0x6968837c7e8b979fU,
  0x9e9d967b756e5e60U, 0x8c918c8e91999598U, 0x68655653444a5876U, 0x7d7975686c636b77U,
  0x827777726a696b7eU, 0x9a919da5a8a7a690U, 0x8980786968697579U, 0x6f676c7a85928d83U,
  0x9c97978c7f80847eU, 0x72616b808580898cU, 0x5f56415661777882U, 0x84918a8c888c726aU,
  0x7878848998939194U, 0x564b535f5c6c7272U, 0x8d7c8178806d7c64U, 0x5d5464727681878aU,
  0x88928b7d89797e6bU, 0x443e3e3f5f798b7bU, 0x7e7f88848e958659U, 0x938082877a777685U,
  0x6c7c666974748b85U, 0x878689807e7b7b85U, 0xb8b4aba18d7b8488U, 0x4a4c617a88a0bbc6U,
  0x73727a7f6e69544bU, 0x88959b958c91867bU, 0x987e796e65557386U, 0xbfaa98928d858c8eU,
  0xbeaaadbcb6b3b6b7U, 0x585b6f7b989aa3b2U, 0xc9b1b09d88796346U, 0x9f9b838a859eaec9U,
  0xa097878d97a79d93U, 0x8a97aba9b0b0a4a4U, 0x80717766747b767dU, 0xb5b4aeabaa999789U,
  0x6282827d93959ba9U, 0xa18787887d74525aU, 0xc1c5bfbcb7b5bba4U, 0x8c938c8d9297a6adU,
  0x99aeaec1bfadb1a2U, 0x95a69c968e858492U, 0x81717d75818a8a97U, 0x889a938e9f8c8480U,
  0xa29a8888878a868aU, 0x6f818d9ca5ab9994U, 0xbb9a7e7864595a62U, 0x97a6bcc4ccd4d1bdU,
  0x8e777b7a72717584U, 0x967d7c918e898d89U, 0x9e8878837b859a9bU, 0x8da7a9b0bdc3acb2U,
  0x8b7d786c6d78848bU, 0x86859386919ea5a6U, 0x8897b3aca6997982U, 0x9e9f8b8067747277U,
  0x8c968780848b95aaU, 0xa0a99fa19c999393U, 0x828a7b837e8995a6U, 0x898d828a7e78777dU,
  0x8a8d849c9e9b939dU, 0x787a7c8182848c8bU, 0x7b7c848c9b898d8dU, 0x9f969c98959e8c93U,
  0x87817d7f8785949dU, 0x9da2a59e968b8b88U, 0x8e8d9b95a1a39fa5U, 0xa19d988475686673U,
  0x84787a798e889d93U, 0xaea495837a7d828eU, 0xb4a6a4a094a2a59cU, 0x9392a8ada4b5c0bcU,
  0x896f686f6e6f7e83U, 0x9b98a19ba2999986U, 0x959787757c8894a0U, 0xbcaab2b4b7a3ada5U,
  0x7d77919ea69aa6b8U, 0x87807e7a84928c80U, 0x838b9993918e8388U, 0xa19c9b98a19e9f9aU,
  0x979f8986878e9fa6U, 0xb9ced0c8aea597a2U, 0xb6bda78b788796a2U, 0xa99d94947b7d95a9U,
  0x8a9792a1acb6ada3U, 0x6a736c8299aa9e9dU, 0xa09ea69c8d85836eU, 0xb09badb5acada3b8U,
  0x86737d8da19daba7U, 0x817a6f746f797d82U, 0xb3acb1b2958d857cU, 0x9489889393a1aeaeU,
  0xaa8e7a807e738e98U, 0xb8bcbbb4aa9faeaaU, 0x9595b4bbd1d5d6c2U, 0x828379776375819cU,
  0x9ea5b2ab94927d7bU, 0xa4947f6e6b6f7980U, 0x917e949fa3aeb3a9U, 0x68746d7883928898U,
  0x958279765f5b5a59U, 0x5e6d8a9689819289U, 0xa290817e6a5e605cU, 0x83767b7d8da3aea7U,
  0x8a828785797c7987U, 0x6e849499a6a1999cU, 0x93838d7c6d695d6eU, 0x7a86827c82828990U,
  0x6657454a4a52697bU, 0x9eb9bec6ad9f8e77U, 0x646f6d626f807e90U, 0x8d8584767b7a6863U,
  0x9da7a7a2a19e9a99U, 0x6d67515959719ba0U, 0x6c616e7788858473U, 0x76929bb0947d7a61U,
  0x879295846e5b5b6aU, 0x8e776f6681897e7bU, 0x96a7aebac8c4beabU, 0x796d616061696184U,
  0xa3a298978a828d8bU, 0x79787e788a898594U, 0x8b949799a2a09e85U, 0x7274747479787c90U,
  0xbfb4aca9989b8b85U, 0x5c5c6a8093a4c0bcU, 0xb79d8ea18d685e55U, 0x8e8e908b839aaba8U,
  0x7b86877e6b718380U, 0x899c9f968d868584U, 0x978580737279767eU, 0x8c9099a1a59da8aaU,
  0xc0b6a69887777d71U, 0x5f4f5659717f95a4U, 0x9caaacad9d8d685fU, 0x878380918e83908aU,
  0x6d5d655966747f7bU, 0x9ea4938d7481837cU, 0x808b8392a7a39b95U, 0x94947a72645e5d65U,
  0xa2abaab0aca3a7abU, 0x7973808d929ca5a5U, 0x7e787c6b65676272U, 0x9098948b918c8a80U,
  0x787690989997919aU, 0x8c988c8d756c6e6eU, 0x8d9b8b8480829a94U, 0x6d6c696677858e91U,
  0x9d9a937b84767f71U, 0x6b6b7a82868daaa9U, 0x886a4e5a67787b75U, 0x858d95948ba19e99U,
  0x8883797d8a787b7cU, 0x595d595c657a7f83U, 0x8b7e696654525360U, 0x73646369767f87a1U,
  0x92a1a0a994a19187U, 0x785f575f616c828cU, 0x9d8d8b9994898a7eU, 0x69808e979aab9f9dU,
  0x64615d4b333a414bU, 0x9da2988e85877d6fU, 0x5e66637187819494U, 0x827f8d816c6b6057U,
  0x88887e758283878eU, 0xb397896b57626273U, 0x56515758758a98b6U, 0x596b7d918d856f62U,
  0x7c8877765f5a4f5dU, 0x62767b878d907d88U, 0x979c907b7f837168U, 0x636768636a7e969aU,
  0x81827a7262565758U, 0x647b666e6368656dU, 0x715a555a6766736dU, 0x66402c33897a7e7aU,
  0xa8a4a1a89c9e987cU, 0x8b83909097aaaeb2U, 0x726a7d797c7c7684U, 0x7b796e796b647a7eU,
  0x7f74878596a08a8aU, 0x554e5f6d66727881U, 0xa899866868626653U, 0x8788aabfc1c7b7acU,
  0x807c7d6f6674776dU, 0x837c8277827f837fU, 0x99908c7b78808783U, 0x687281859da8a698U,
  0x6957545b4b566364U, 0x6a636a636f7d6e6cU, 0x91837a837e747a71U, 0x5645435955738a96U,
  0xa29e9d9c9b947f61U, 0xa4ae96949b927f99U, 0x666f8597a0a7b3b5U, 0x675f626e6c634e65U,
  0x4a4636454d57646cU, 0xb3b19389675c4e47U, 0x62687c7c839992aeU, 0x4e3a3339363a4458U,
  0x5c59596469665b56U, 0x797780837d736d6cU, 0x756b64555b667c83U, 0x6a8c8a9c96918b80U,
  0x464b5a574e4d5769U, 0x5a5b5c4a474b3645U, 0x7e67676660656768U, 0x74727c7e8e8e8381U,
  0x2a2f294353576978U, 0xd6d8c3a67e563d2fU, 0x43576b759ab8bad3U, 0x848191928b796e4fU,
  0x727a7e8679727788U, 0x949a94a29a888376U, 0x7c72655b5f667e94U, 0x8c86838388929485U,
  0x757a8a8788919090U, 0x7c826d635b58605fU, 0x9b939784887a8c7fU, 0x9ca4b29fac9eab9fU,
  0x878782909e998ea1U, 0x7d888d8e9b9c9889U, 0xb2b39ea2948e746cU, 0x6675889ca9a9b2b4U,
  0x5f5b57483f3e4447U, 0xb7a7918c7176686eU, 0x8e93a4a1b3c0ccbeU, 0x52515c64777c897cU,
  0x8e816f6b73685141U, 0xa4a59f9a9e939c98U, 0x8180777c888b859eU, 0x7f868a999a8e9c8eU,
  0x7f877675757d7e84U, 0x929a96a297998991U, 0x897a7c7d8892979dU, 0x62749ab3bac4b9a5U,
  0x4a47544b433c423fU, 0x85878880776a685dU, 0x727165636f716c75U, 0x4e4b4d555b636f71U,
  0x8a9394a2a3978363U, 0x767a7b66656a6977U, 0x8a868d816c7e807fU, 0x615d6579898e9095U,
  0x685459576b5e6160U, 0x758076827f687166U, 0x51515355716d7481U, 0x7f918b807472574fU,
  0x636a69685e6c6973U, 0x6875696d78786b5fU, 0x5c665959545a6266U, 0x678283867a746a61U,
  0x5a60606b676d6a68U, 0x7a78776d67605b51U, 0x7b81847e97888889U, 0x867683817d958486U,
  0x777679736f68757fU, 0x918c868892807574U, 0x7e8b9b9da59e9998U, 0x878797968a868179U,
  0x5e62717a80829486U, 0x8aa29b96897c666bU, 0xa0938a787479837cU, 0x84898498a8b5a8b3U,
  0x7c6a66635f657d80U, 0x788478747c68686cU, 0x9da5b7b19a868290U, 0x7c68645b62758485U,
  0xa9a7b7ac9c8b8287U, 0x7a7d807d838e9194U, 0xadabacac9b90967dU, 0x86898c889595a6adU,
  0x867d776f6d858688U, 0x898a8c948c969190U, 0xa4979eabb0998678U, 0x9486909a9985909aU,
  0x92a69da08d7e8a8dU, 0x8c8b87a09c9c998eU, 0x74665d525d606575U, 0x71756c716a73717eU,
  0x848d928e93948072U, 0x838a827877726e7aU, 0x8368513a3f3d5a71U, 0x83889d98a1a79696U,
  0x5a554c5953596c86U, 0x6a71757a887f8568U, 0x6b696a755f585c59U, 0x746d796d77687162U,
  0x646b766f6f65686dU, 0x6955464a47475e5cU, 0x768a8c8d8581776cU, 0x223d4453534a6c78U,
  0x7d6e65533b2d1c23U, 0x90897a878d868a78U, 0x6563545d576a6a7bU, 0x58543f404355666dU,
  0x6465666574767d75U, 0x7d796967636c6a66U, 0x4f545c5f7a7c857aU, 0x8a7c7f6f5b53524cU,
  0x55463d4153677780U, 0x6a7b85836f6f6859U, 0x7a808478765d6065U, 0x72676f6d7973817cU,
  0x8092919d9ea1908cU, 0x5b5b56595e747c71U, 0x8286807483858164U, 0x80747476727e888aU,
  0xa0a0adaa93938a8aU, 0x5d6672658191989fU, 0x655c55655c535c4bU, 0x83856c6b68535c5bU,
  0x83818193848a8d8aU, 0x62666363727c7e83U, 0x847d787c79657268U, 0x61596c788a8a8a8eU,
  0x6463516374715f5eU, 0x86807e786f76735cU, 0x8484797d7c7a908cU, 0x756667687380888bU,
  0x5667718e8d949085U, 0x290d0e1408213244U, 0x8d7d82837b624831U, 0x8185889087888d91U,
  0x475152576e7e847cU, 0x697d83907f866b56U, 0x59454a4c49475669U, 0x8184888b9f8b916dU,
  0x7a8593a59b9a9087U, 0x7e74786b716f717bU, 0x695e62616871877dU, 0x4b4c5660615a645fU,
  0xb4aca4897c715b4cU, 0x4f564f4446668497U, 0x7369594a4848434cU, 0x4f5962636d7e787fU,
  0x5a475652465c5553U, 0x8c9184817b716c58U, 0x3540485a7a818394U, 0x4a453f36282a2624U,
  0x97827a6d73605a60U, 0x767c82818aa19b9cU, 0x49403d44555e5c69U, 0x908887797d6c6b60U,
  0x8687889083848b9dU, 0x574a484a53667c80U, 0x7f81818380625455U, 0x62676974737c837aU,
  0x65585c4e666a6e71U, 0x615b5f5c6b77675dU, 0x54514d4e5c576960U, 0x64696a6060544e49U,
  0x5460656a796c695fU, 0x5f584f544b5e685aU, 0x7388797e767a766aU, 0x3a3f4746525a616eU,
  0x8884989b87695e48U, 0x6b6b757384778780U, 0x83908a7873757e6cU, 0x4a637675798a9791U,
  0x82715e4e4f424a47U, 0x8893857c7a6a7680U, 0x6041463641435a6eU, 0x9b96948d76737f78U,
  0x65859ca1a38a8683U, 0x9a847a5f645f525cU, 0x677178718085899aU, 0x7d7a817e72776d64U,
  0x8e6f6e6a75718084U, 0x4c5b6383888e8c94U, 0x7988949e9f99836dU, 0x898679656f6e6c6bU,
  0x867a8696928d8d7eU, 0x9ba89c9b9c999f90U, 0x68555f6f6a6f7890U, 0xa2b4b9b4a7948269U,
  0x92988a8a84958994U, 0x6366585c59666b87U, 0x8b8e837d776e6666U, 0x6c787d65666d7188U,
  0x86786f675e6d6864U, 0x9faaa4b6b1a8a598U, 0x85817d808a87969dU, 0x8a97968c908a9386U,
  0x868c908c87989799U, 0x5c6053667d878c82U, 0x9586787683736454U, 0x938d808aa0a5a8a9U,
  0x939a9aa9acada095U, 0x8178676c6f738489U, 0x5351637f7f90958eU, 0xadb69b8b8d786b53U,
  0x69686b73849f9f9eU, 0xa2a28a84908e827bU, 0x7f888a928b8e9a9dU, 0x8781796576746673U,
  0x94968a8a9391a49bU, 0xb9a2969c908b8487U, 0x31394b7198b1bcb4U, 0xa59e9a857a624f2cU,
  0xb1caccc9b6b8ac9fU, 0x8d83747b6d76929aU, 0x937d8a878a8d9093U, 0xabab9b8a94928590U,
  0x6d8085939da8abb7U, 0xb9b7a38c79756e6bU, 0x7780848a929db7bbU, 0xa1949d8b73748072U,
  0x7d7d959ab1bbb9aeU, 0x7672757d84806f6dU, 0xa2957867776d6e73U, 0x9fb3beb6baaac1adU,
  0xd5ddccc2c8aa9e9cU, 0x8c847e788eaec9d1U, 0xb29da49e989b9b9aU, 0x95a7c1cedbcdbec1U,
  0x7583858894928684U, 0x7c82857466637778U, 0x928d887f826f7e7bU, 0x999eada3b2b2aaa6U,
  0xa09faa9c9da19e9eU, 0xa69395888e847f8bU, 0xabacaba5ada49eaaU, 0x9c959c9a9d94a2a7U,
  0x907b918c9a92929fU, 0xa09190827e828983U, 0x7f8e92a9b2aeb8abU, 0x9571665659636c7cU,
  0x9fb8c8bcbfbdbca0U, 0x91a2aab2b0b0aeacU, 0xa7a996917f807d85U, 0x837b75717b898b97U,
  0xa1a4aca6bdabaea6U, 0x9f9b907e7c88949cU, 0x7f757f82837a8ea0U, 0x939898979fa19d9cU,
  0x828e81848a969299U, 0x8b999d999083857eU, 0x8c9086928aa1a098U, 0x78686c6e73847f84U,
  0xa4b9bbb8a6a2978aU, 0x6b78766c6f6b7c9cU, 0x998c978c74787577U, 0xb3a4b1a997a19f91U,
  0x81887e87959aabb3U, 0xa0a8b1b7b6b1a490U, 0x93846b6766728099U, 0x9a83796c657a8e84U,
  0x8c9cacb3b0b5b5a6U, 0x8a737161525b767dU, 0x988d96967f939591U, 0x4e5d6a768d8ea198U,
  0x6c6f6f6d64736555U, 0xa6a091a0927f8271U, 0x7b787d929ea4ada3U, 0x625d6d6469797a89U,
  0xb4bcb69e88716662U, 0x8182978ba09d9dabU, 0x93938a6a6d657882U, 0x6e6c7a909d9fa0a0U,
  0x717c7282879d8d78U, 0x6b777f808379777bU, 0x7783918e7d796c79U, 0x696e626d74948c79U,
  0x81847a76776d756cU, 0x97a3a899857c7879U, 0x8490877988938c96U, 0x574d3740596c7887U,
  0x9f9cab918e806b5eU, 0x969c99a2a99eb39aU, 0x524551534d647c97U, 0x8a909b8a837b5e57U,
  0x89888d8a858e8c97U, 0x918e8da4aaa3958eU, 0x483f4e495c758688U, 0x7d86756d5b605c46U,
  0x656475736a63697bU, 0x8b939c87766a6754U, 0x3e4645495a5c778bU, 0x79807a736c574f49U,
  0x5c63757f7e786f6dU, 0x7a908778755b5151U, 0x726f57515262786eU, 0x7e71747875738481U,
  0x8ea0988d8c81817aU, 0x474e56677a7f979aU, 0x726a6953584a543bU, 0xabaaa7b4a39b8888U,
  0x5d57574e5e7c9d97U, 0x4e464b454b565259U, 0x8e9a9a988a7d7969U, 0x75635d51434b4e6dU,
  0x594e4657686a797aU, 0x7c768ba1a3a6856aU, 0x63585c595b626b7fU, 0x909590867c6d7776U,
  0x828d968d94908a84U, 0x7484807b828d898cU, 0x735d5d5a5f605f7eU, 0x9e9e9aa4a2a29789U,
  0x58556577858b8c9dU, 0xa2a59199897a6a59U, 0x777a6a66686e8d92U, 0x726d68666d6a7779U,
  0x7c81846f5c635a68U, 0x917d6d6575667875U, 0x6e817f939293828dU, 0x838b7d6757585e63U,
  0x767691978b869799U, 0x8b8e9f9f9ea18474U, 0x887b687473746e78U, 0x7e655a5c6a74847eU,
  0x7a82978d838d8d8aU, 0x8a7e62686f695f7eU, 0x81788089919ea096U, 0x9cb2aa9b969f8d8bU,
  0x887b8988818a8c96U, 0x8a79797c85827477U, 0xa0aba7a2ab9e9898U, 0x68818387898388a1U,
  0xa09379605548515eU, 0x82989d9b929ba3a3U, 0x89826d5f5f5b6171U, 0x867e7d867c85818dU,
  0x687778919a969994U, 0x7d5a4a433e51525fU, 0x6b868e8b97909892U, 0x8e7f725d5d645f60U,
  0x5d5e636a76798391U, 0xc9b39b826c655c68U, 0x6c7d95a5b7c6dcd8U, 0x716d7a776c72767aU,
  0x8c7473817b7a7b79U, 0x6a6a7b7d828b9090U, 0x7d8c79827f796b68U, 0x674f474a4c52656dU,
  0x958e8a867b817b78U, 0x555971739189a19cU, 0x5a57585f5d5f6256U, 0x6c727272726c6c63U,
  0x867e7862574a4d52U, 0x57656f7675747b90U, 0x626475777a736659U, 0x6b797f948977745fU,
  0x6d6e6a695359434aU, 0x89907c7a76786f68U, 0x49555e759089a191U, 0x88918e8075666455U,
  0x6b6265616a6a7484U, 0x656c687769676f6dU, 0x8b8a99975d585c5eU, 0x8481786679738787U,
  0x9aa8aabab6a9a895U, 0x7a5f4e4e66667c81U, 0x979ea7aaa2a2918cU, 0x54695f6c65677981U,
  0x6e5e68685963565aU, 0x6f7578758c7e8d7cU, 0x807b7b83817f7574U, 0x847a5d5d636f726fU,
  0x879d9da39eac9f92U, 0x625b535163746f76U, 0x788077685d66525dU, 0x86868a8a8d8b8a84U,
  0x6373858b9b8e8e97U, 0x8c75614f514a4f4fU, 0x7578736e6e79919bU, 0x9f9e9e958c8b8987U,
  0x999893947c898c94U, 0x727a818d869298a2U, 0x757a7d737d6b666eU, 0x675c5161586a6068U,
  0x61635f5d656a6b6fU, 0x859791848c807669U, 0x626168645c6a736fU, 0x697275837d606a65U,
  0x4b45473c41454a5fU, 0x857c807163656c65U, 0x7f7e8d9385858d88U, 0x78766d6d7973777eU,
  0x3542475e79838b82U, 0xbcb5977f675d4d3bU, 0x98acbec7dfeae1c9U, 0x383e42372c4b6c87U,
  0x76777f765e4e322cU, 0x84878484807c6a66U, 0x2e3a374d58677578U, 0x4c524e4742494438U,
  0x5c5c5d6066726951U, 0x898a8d878b73786bU, 0x34343d3a48606b7fU, 0x9f867e8383745642U,
  0x6c72889599b5b2acU, 0x6368675b645f727bU, 0x9c9a87807a695d5cU, 0x7a6d6a7e7b909299U,
  0x585b55626c6b6d75U, 0x7886949187725f61U, 0x7787948d85766d82U, 0x817b71655f6c7177U,
  0x827c788373758183U, 0x99969c8d7d85817eU, 0x4f5352586175848aU, 0x6e6f655d5c5d5a4fU,
  0x71595a5e59586464U, 0x76726a6f8086887dU, 0x7d7d7978807e7381U, 0x6d6662696e6f6c72U,
  0xc5b3b5a29998817bU, 0x9495908ca5c7d2d4U, 0x93989da1a8b6bab1U, 0x5f6163796d737e8bU,
  0x9caaa99793878374U, 0x57494c5b616d848aU, 0x6e7f7277866d6063U, 0x6c6c7176757a6666U,
  0x7d6f76837d697361U, 0x878677766f7b6d7aU, 0x8d8d857a85809298U, 0x7d7c7b6c76878691U,
  0x939a837d6d596a7bU, 0x8a837175616c7f88U, 0x6560645f79738992U, 0x6b686466645c5f66U,
  0x6c776f6b6772746eU, 0x43524b6154696775U, 0x9ca3998a7e64513fU, 0x8e81928c8a817883U,
  0x5e67686f8481867aU, 0x7686726f61554f5cU, 0xa89a9a8d7672796dU, 0x696c7382829a9fa4U,
  0x251e0f1922293f5aU, 0x455d5d513f333435U, 0xaaa1988678625352U, 0x60516164778b8d99U,
  0x8c7a7e7572745f5cU, 0x5f61677488959394U, 0xb49d81725a585661U, 0x625f68778096b5b2U,
  0x9790a083836d716eU, 0x918a938c9889908cU, 0x5863757c8398858dU, 0x979a877c6459675dU,
  0x8086878386868a9aU, 0x5871757491968885U, 0x95947f71675a515dU, 0x877a747f7f87a5aaU,
  0x6c79908d8a909a91U, 0x9297918b8c897560U, 0xadbac5cab2aa959eU, 0x7a8285817c90929fU,
  0xab938b68695e6375U, 0x6d8895b0c4c3c5bbU, 0x8c93978b8379746fU, 0x92967d7d727b8b86U,
  0x889e8c999ca69f9cU, 0x7f7e787d918a9995U, 0x928b776a76767672U, 0xb59d918b84778d9aU,
  0x8984818aa8b6c0c6U, 0x848e837579686573U, 0x826b69646b6c767bU, 0x6160605b66848089U,
  0xa8a2918a6f656965U, 0x7e84969ca7b0aaacU, 0x436783788c787d79U, 0x9e917d674b482a39U,
  0x646f8293a69f9f9dU, 0x5f63687372635d62U, 0xaa9d9a918276736fU, 0xa2a1929a9aa79c98U,
  0x6c8178757891979eU, 0x403d445153626468U, 0x6c60594e483e3942U, 0x526d737a7989756eU,
  0x87756a6457565d4bU, 0x4c5b809197919592U, 0x7b8d888972675f51U, 0x6c6a6c787d726a69U,
  0x575142444a556566U, 0x828886879083816aU, 0x6965674e5b67818aU, 0x807b808a8572676eU,
  0x868c9f8d8e8d818dU, 0x6c5f6659685f6d6eU, 0x6e7a7c868b9b8676U, 0x6c6b736874736466U,
  0x8a9582787875666dU, 0x515c75748c839085U, 0x75756357434a4a43U, 0x5c6772727577797cU,
  0x7177747271666a54U, 0x9299978384858275U, 0x7b6a59686f7b8085U, 0x6a675c79899c8981U,
  0x9c8d6f6d535b545fU, 0x4c515561798b8d9fU, 0x5d6568646c65524eU, 0x827d6b605553574bU,
  0x84889a909095939bU, 0x9e9b93a2a8958a80U, 0x908c85928db0b7adU, 0x8b989fa7a7bca1a5U,
  0x6b717c7d86878d90U, 0xa4979d937d74666eU, 0x625b615e736d7f95U, 0x6f77787c7b797576U,
  0x606a5446424f5963U, 0x7e7d73747c6e6b6dU, 0x9199a3c1c3b3a389U, 0xa098918c88849398U,
  0x6a5b65626e77788eU, 0x75716c7b80858780U, 0x56464f4e57526874U, 0x83736c5c4c4d5852U,
  0x6d677387959e9d8dU, 0x747f765e656b6c66U, 0x695f655c696e7f7eU, 0x9aa0b6b9aca08c78U,
  0x6d6d766a748b989aU, 0x8d7d7e857a6d6867U, 0x897f779284958c98U, 0x354643525f6a767aU,
  0x514b453428333238U, 0x6b6b6265696f6b67U, 0x637278838a8a7e78U, 0x5c6868665965535bU,
  0x5e614e565d545366U, 0x7986858b88847668U, 0x745d6b716363696bU, 0x968e948e8c6f787aU,
  0x7a776a777b80827fU, 0x7e8297999687927bU, 0x48495b75818d9487U, 0x7a492b1a11201e28U,
  0x9995a2b7c1b0ac9aU, 0x6e6963656a6c8390U, 0x775f665e5b687369U, 0x686f605360687681U,
  0x63656b6e7a77717dU, 0x535b5455605f5d5cU, 0x96937f7c72696067U, 0x4b3f455f66718489U,
  0x8b978b776d655d40U, 0x4b43384644546f81U, 0x5c6e717573685e57U, 0x71657154463b3e46U,
  0x7a7e7f807c737261U, 0x767a807380767e75U, 0x4e4a4f574f636782U, 0x686d626d594b474eU,
  0x938c9d9e969a847bU, 0x4c5c60686885798bU, 0x8377616566595352U, 0x5f78828c97949b9aU,
  0x373c3a4b5e665b5cU, 0x5e5f635244313d33U, 0x545b5e696f686861U, 0x918e7f6962646453U,
  0x727a858d9585868eU, 0x8192928589757f73U, 0x5e58525d5f717471U, 0x7b8890887d7c6b6dU,
  0x94867d6954615162U, 0xa3b0b4b1a6989a88U, 0x5d4a56605f647989U, 0x838a99a1977e7862U,
  0x888d7a7d6d75777cU, 0x58545c555e687380U, 0xa29b9487787a6666U, 0x5e67738b82948ca5U,
  0x5a54524f4f5a6164U, 0xada891836b69595bU, 0x5c60726f829eb4adU, 0x3e433e4a434f4f5bU,
  0x6661606c6d686251U, 0x6875818695918073U, 0x656d7c8279747272U, 0x826353473a27293bU,
  0x717c7e878c929a93U, 0x626a788595959477U, 0x364d4b56715e615dU, 0x6262514754493929U,
  0x57646f726f6f7d6fU, 0x1f2c283c33373c54U, 0x5e5955414b432723U, 0x606c686c6b6b6f71U,
  0x3e38252720253543U, 0x75888d86716e6e4fU, 0x646e6d646865797bU, 0x4d453c3642596165U,
  0x817c737a5d595e51U, 0x5d5a617282879482U, 0x777b737871715e64U, 0x2e2f2c2a2d4c6366U,
  0x454336322c3e393bU, 0x44322e3c4e615a56U, 0x5a5b5c6067655b57U, 0x616e7272746a664eU,
  0x656f6d7d6f6e6160U, 0x746d6c605b575a56U, 0x7e9ca0a7a4ab8984U, 0x7767585a5a5a6762U,
  0x65423a423b4a5b77U, 0x4359617881817b69U, 0x656d63555a4b5643U, 0x6965677574677274U,
  0x686e7175756b6d6cU, 0x6b8b80887e7f7e69U, 0x96998c796f5e6865U, 0x5e555c5d657d8897U,
  0x8a949c908769604fU, 0x757972716f68828cU, 0x8e7c7a6c565a5b6dU, 0x4c49577d91919d9bU,
  0x63686868604b534cU, 0x514f4f5b6e79797cU, 0x7567655b5c4f3e47U, 0xa0a6a3a0a48c8e82U,
  0x7e89898477758892U, 0x6e72807784788177U, 0x7b7b828b87826b78U, 0x58513f4a4c4c5a65U,
  0x6061717c7d6c665fU, 0x5b5f523f43594f5dU, 0x64595b5961647672U, 0x6a6b5f5f5a5d5851U,
  0x5a66685c60586668U, 0x453f4d49544a4452U, 0x63646567675f4a49U, 0x543a3736343f5b5eU,
  0x414948636c696567U, 0x435863717a7f6f59U, 0x90846d5f4c3c444eU, 0x5d60655d535f6285U,
  0x96877159584f565aU, 0x3f3f446273809383U, 0x5e5c5643443a4347U, 0x556a908a8d837160U,
  0x403d3b353f405259U, 0x2d21283a3a39413cU, 0x55636f6b5e513c41U, 0x756d607b77736e60U,
  0x5d4e2e373745485eU, 0x836e555f5c645e60U, 0x4f61667c94989584U, 0x5a676c686660655bU,
  0x928e77756d52595bU, 0xa09ea1a39a9d948eU, 0x3f46404e5b6c8093U, 0x746058574f463932U,
  0x554f4f56635b6d78U, 0x616d74837c666755U, 0xc0c5c2bc9b917861U, 0x7e7a6d685f7193adU,
  0x53616066818e9f96U, 0x80787a8c87867266U, 0x6d616b677d61616eU, 0x352b2729404b516aU,
  0xab9d98957a634b40U, 0x777f908d938e939eU, 0x6b696f75716c756aU, 0x7581a0a5a88b766dU,
  0x869581837c6b7466U, 0x73755e6d78808a80U, 0x6b66647471867471U, 0x9b9394836e6c6166U,
  0x736c6c6b68667f8bU, 0x5f6d6a67727a7b6bU, 0x5c605c5863666d61U, 0x6b5b534f5b59555cU,
  0x8a8e9f9c8a6a6e72U, 0x75777c7f908d898dU, 0x495663636655686bU, 0x9f9288826e53575aU,
  0x474a5c5a717f818cU, 0x7766687177644f46U, 0x7c7c828889787d6cU, 0x90a08e928a7c7f88U,
  0x5d75726f626d6b7fU, 0x8b7861525f4b5d5bU, 0x3a4a4f6778819b99U, 0x88847c7c8781755dU,
  0x7e77827c7c809381U, 0x656872687176807dU, 0x8777796763665457U, 0x5e56657c86828e7dU,
  0x656f67766c756f5eU, 0x77899aa8a58a8874U, 0x42313e3c414b4d61U, 0x73686f67666f605eU,
  0x665f68636e7a6b6bU, 0xa3a7a08a76666666U, 0x8171786b7c798ea0U, 0x868a9ca3a1ab9c9cU,
  0x7b78726f626a6f6fU, 0x6c6f8c90909da198U, 0x7d7272757e6b6e76U, 0x836d6e696b7c747fU,
  0xa6adb2a885898087U, 0x83787891919b9da2U, 0x747c868e98958081U, 0x8c8489827b807574U,
  0x7e7a89898a938a83U, 0x888285888882716fU, 0x5f60636572738478U, 0x9b8b977965595752U,
  0x6d8698848a828b96U, 0x84785e5a544f5159U, 0x878294a6c0baab9bU, 0x6d64616d73797c81U,
  0xbebeccc9baad9180U, 0x715c6360788491b2U, 0x7971808c85868179U, 0x7e7e8e9d90999187U,
  0x909d8d7c84808977U, 0x543c454f5471818cU, 0x755d5c5b4c4f444dU, 0x9d8d8b7777848574U,
  0x5f6d7d7e9eaba5a4U, 0x968c72615c676453U, 0x838ea8b2b9c4bdb6U, 0x7f696965646f8086U,
  0x6f736f7878777677U, 0x77807a884f636b67U, 0x8c7b826e54434d5dU, 0x788595928e9d9690U,
  0x8c736c6e73787780U, 0x8172828a88968b82U, 0x797e827d8480848cU, 0x646c7a847f838481U,
  0xb09a8184827d6f6fU, 0x67798b9db1b9c1c3U, 0xa3ad96786d535a5bU, 0x434a4f6b86a0a5b5U,
  0x999b8d756c583d37U, 0x585c5967777f8888U, 0x807d736866554c4aU, 0x7b7d73696e87857dU,
  0x84867f8e89857c78U, 0x7f836c7a7f808a80U, 0x90969e9e8c8e7c85U, 0x818d879a9586798bU,
  0x5e5c585a57616b74U, 0x686b6f8977726863U, 0x9d98817e82727567U, 0x56596b6f7e728d8eU,
  0xa3a1969484675b54U, 0x575468798aa49ba7U, 0x71726553424c4548U, 0x80848e7e73696467U,
  0x7b757d717c727887U, 0x3f4f6a6e6577897fU, 0x8d8c7d5e5d3e3e37U, 0x514c675967748d9bU,
  0x6f68646d60584644U, 0x7a8a987d7d5e5e5dU, 0x36413f36484f5a65U, 0xb9b3a98d6c564942U,
  0x96837d798c90a0abU, 0x6c7d90a7b0c2c6aeU, 0x6b7d787f7a6e666eU, 0x8080837b75667272U,
  0xb1c2b49ea5b0ac8aU, 0x777e78757d89a4aaU, 0x767e88838e917f7aU, 0xa0918d887b7e7471U,
  0x6164524b62717a96U, 0x8b96958d8c807a64U, 0x9691877c8684888eU, 0x797a809396989f97U,
  0x6669728e8e90837dU, 0xa19b826a52514a52U, 0x717da1b6b7bcb4a1U, 0x898b826f5e554e58U,
  0xbeb7ae9fa0b3ad93U, 0x7b67675c6d8593abU, 0x948a8a9187928c7eU, 0xa1a29c8680818791U,
  0x7a8676819393919bU, 0x817a666a647e8186U, 0x625f787c867f8b83U, 0x958576695f624f5aU,
  0x4949514f606f8199U, 0x41576c6e6a74736aU, 0x786e63634c403c36U, 0x625e6c7267726176U,
  0x778c8e81826d6760U, 0x9089917d66636771U, 0x69737684949c9a92U, 0x535c535f48636f6eU,
  0x7f877d737a615655U, 0x656267756f696c75U, 0x574b3a344c455d5fU, 0x857d79867e837b6dU,
  0x605d556a6a656371U, 0x5a63676879725965U, 0x7e786f6d687d6c5dU, 0x8a9d9eacadae9291U,
  0x7e6a53454c526b7aU, 0x9385969b978a9595U, 0x666054696e817389U, 0x999786847b78696eU,
  0x82807d738276808dU, 0xa39a8a757e7e8783U, 0x57625d73858b9093U, 0xdfb7b29b7f645d56U,
  0x78818eabcee4ebe9U, 0x908c90949c918a75U, 0x7371656c8094919cU, 0x81848a7b83817a74U,
  0x4a5b748386857b81U, 0xa480745849344045U, 0xaeb3b3cdd0d6dfc7U, 0x65696a738e948e9dU,
  0x8a8482736567625bU, 0x94817c7e848c8a9aU, 0x9aa4a7a4a5998a97U, 0x8e7a848889818c8cU,
  0x948685969792a49cU, 0x84788b8c91968b84U, 0x82918e8d91969c95U, 0x6a6f796b6d747c8aU,
  0xaa98a6a19e796157U, 0x796f78818e9d93a7U, 0x747f78807c766c74U, 0x485b6c6f72757376U,
  0x8d868e806a6e6e4aU, 0x62586573899e9da1U, 0x44515c756e74736cU, 0xa29f91836a6a6252U,
  0x7f6d67636f77768dU, 0x635c6d779dacaa8aU, 0x6a654447353e4f57U, 0x939fa5a8a4997f73U,
  0x55575c696c6c6880U, 0x746d513f38453f3aU, 0x829ab5a79b97838cU, 0x61583e4058626f75U,
  0x9ea79f8572635b59U, 0x848278748597a1a4U, 0x807f7b897e7b6c77U, 0x7f8490878273777fU,
  0x6d6e56515f66787bU, 0x6a7d7a87918b8078U, 0x7d8272776f6a5c62U, 0x7f7d8b7d82848185U,
  0x71655f4d58607688U, 0x96967c71767d827aU, 0x7c8271647378949bU, 0x66655f587276838bU,
  0x7f84828395989980U, 0xa4b9c0b79e9c8693U, 0x646b7366726b7388U, 0x5f5f738299a28c79U,
  0x9d85746b716c6463U, 0x858e9a9ba7b9aca5U, 0x575a60655f6d637aU, 0x928e8d897b7a6a62U,
  0x8e968c9ba8a9a7a5U, 0x6b6b7981909eb49bU, 0xb2b4a9b0a289747cU, 0x555d4c546c7d8b95U,
  0x686c7b7c837c7b64U, 0x8e7f867b7b878279U, 0x9ca9939b8d9d8c8aU, 0x9a97937a736f7a85U,
  0x928e908a82919e95U, 0xb0a38984767c847fU, 0x5b51638ebcccbbb2U, 0x47455562676c5964U,
  0x9f9289666b574a49U, 0x919d959994adae9eU, 0x354640565f7a818bU, 0x989891866c4d3836U,
  0x6466747788969d91U, 0x6e6e767e88868671U, 0x71818b909986836dU, 0x5d5f5c6563656364U,
  0x615c645e72757872U, 0x6b545e56524a4a5fU, 0x7b878a7f777b756fU, 0x8e7274735d5d5477U,
  0x68554f5c65788a9fU, 0x7f7d738780827d77U, 0x775b63544e58686aU, 0x9f84717177797f75U,
  0x675e6a7b8d9f9b9cU, 0x95a0b0bd9e7e715dU, 0x5a515f5e656a7a76U, 0x434043483b3e4f51U,
  0x7e897e7468585a3cU, 0x94827d656d696b7bU, 0x726d746e72779194U, 0x7b7e91a5a8969788U,
  0x7668656c5d5e5f63U, 0x6863545b62616c7bU, 0x8c8c8b9798907c7cU, 0x53414b636f777988U,
  0xada99e8a886a675fU, 0x5f625f69729ba5a3U, 0x7c899aa29783775cU, 0x979ea49397837f76U,
  0x80716e686578899aU, 0x71717f8696949792U, 0x948c91937d77686bU, 0x5a5b5a6a6e72868cU,
  0x808b938d8b7e6d66U, 0x8a7e858776858389U, 0xa19fada1a897858bU, 0x7d876f7d767d7d87U,
  0x9ba293947d777d7cU, 0xa4a8907853290904U, 0x6a7280a3adb4a7b7U, 0x7d6f4f484e37464eU,
  0x82a6b2b9bdb6a493U, 0x7375585b676a647cU, 0x8e888e99857d7880U, 0x5457666f73726e85U,
  0x66878283937f7154U, 0x8a9a9595786c6468U, 0x7a736e564e586272U, 0x7b9097999892928bU,
  0x67715f6565625c63U, 0x928c91776b746b7aU, 0x81858d9282827c88U, 0x686a677375777e7bU,
  0x5b695d6c6e59685dU, 0x95a093746553514bU, 0x806d696877758495U, 0x8cabb1c3bb9da18eU,
  0x6c5c5c62636f717dU, 0x5b777e8d9097827cU, 0x5b5b5d4c4341494bU, 0x75819391a3a78d7cU,
  0x5a5d575a57636c62U, 0x635249404c635f53U, 0x919297928591928cU, 0x5f6a675845515875U,
  0x877164655a4f5d67U, 0x9fa2a68c7c737b74U, 0x534936364c6f8487U, 0x807f7d928c8d8e77U,
  0x697986866f69686eU, 0xad9b6d584c474a58U, 0x4c6564738191a1b2U, 0x9e88756a56444645U,
  0x383d59678ea4a8a1U, 0x6c84767365555241U, 0xab9c7d778a7e8473U, 0x413a577f8e94a5adU,
  0x9884694e42394f56U, 0x8785827c7e8a9699U, 0x696e7289a3ae989dU, 0x7472796871776c64U,
  0x909a9c8a867d777bU, 0x8c7c7974685e6d86U, 0x676d7f83969c9c96U, 0x645e6b8681806b5bU,
  0x9e8e7f726e667476U, 0x848289959b959aa0U, 0xacb6beb7b19b978dU, 0x54605d696176848eU,
  0xb29f806c5e4f565dU, 0x69586461778ba7b4U, 0x98928788787c6d67U, 0x7d898c989099a49dU,
  0xa490826b5f6b726fU, 0x4058696e809fa6a4U, 0x979d9f9082683d3dU, 0x7c6f7d71879a969dU,
  0x49555e7392949c92U, 0x959592817b69554aU, 0x7e8583887a71728cU, 0x6672727c5f5b6c83U,
  0x7d93939495907e6bU, 0x715f4c42454b606fU, 0x7d7d797d82827d7dU, 0x716a66534f41516dU,
  0x8c9d999ba1a78e8eU, 0x6c5d4e4757697f85U, 0x696d5c5f5a6e717dU, 0xa4b6a27f7173786eU,
  0x4c46323144658596U, 0x6e77778a908e755aU, 0x4e6268656e7d7675U, 0x7b77786361655354U,
  0x736d63595f5f7579U, 0x564845314b5a6e6eU, 0x5b6372778e8c8977U, 0x6d666252584f5f66U,
  0x989d9686656b6e6dU, 0xab8794867b848a9eU, 0x666c7d939cadbba8U, 0x7c8066544e566561U,
  0x594f41526d858a8aU, 0x735f595e6a747666U, 0x6272877d868c8578U, 0x7c68525441515869U,
  0x9c8b7f7c7a888391U, 0x2d293e557e99a8a9U, 0x858d927d746b5c48U, 0x778b9aa5aba4a290U,
  0x4a3f3b3e3c404e61U, 0x777c90968d77664cU, 0x999489857e796d7aU, 0x53473d5c6c788683U,
  0x889faaaaa09d7959U, 0x716a6a6c767b7e7cU, 0x9b948c7a7d6a766aU, 0x4b5f8c9c8d849ba0U,
  0x999f85715a554f59U, 0x6e7f716a637a8e88U, 0x887b857e6c726775U, 0x756d7f837674677bU,
  0x56464c6682837c6eU, 0x605c5a59584e5153U, 0x857d85a19a8d7a6bU, 0x755c573f42486c80U,
  0x545e6a6a817e8188U, 0x5c545b5861726962U, 0x696a7478646d6d61U, 0x787e79735b5d666dU,
  0x6054404047414a5bU, 0x605d6c656c616865U, 0x7a7f797c77605c54U, 0x625c696c7c808794U,
  0x5444444b4a424e56U, 0x342a244457536163U, 0x404c60767e896848U, 0x725f4d413b2b2228U,
  0x5b483c4340484e6dU, 0x8dacb3b2a5826e60U, 0x6f6d534c5254697aU, 0x3f5562717e91857aU,
  0x7a68594641323c37U, 0x6d7b7677767f7885U, 0x4f41555b4a4e5a76U, 0x624a383c46535656U,
  0x99a6b2a48b7a7a67U, 0x5765525654535a86U, 0x615948484a3c464fU, 0x6b565f667f9a9372U,
  0x5e515c656d878683U, 0x87909d9b827f6867U, 0x6c7b7f7f8a8c7f8bU, 0x796867525f5b615dU,
  0x5b5557798b939491U, 0x858a897767677572U, 0x403b4f5a6175857fU, 0x93a2a7ab9b7e6549U,
  0x5f635c69646c737aU, 0x9a917865645a6a75U, 0x929a9e8b7466768bU, 0x6e5a574e474e4d5fU,
  0x8c93989c97918180U, 0x805957675a777b89U, 0x3d5b7388a5c4c6a0U, 0x9e95886e6053422aU,
  0x7379615d78798a92U, 0x856d6b687e84857cU, 0x666f758e92817777U, 0x8d79554f52545753U,
  0xb8c2b8c1d8d6bc9fU, 0x87888aa7a4b2bdb4U, 0xa4a09491867d8888U, 0x6260697f7c879697U,
  0x9e95887176726e68U, 0x876b64645a7487a0U, 0x989b9f8c7f77777cU, 0x664f43435a667987U,
  0x78788075726a6b64U, 0x736a6f6b6b77827cU, 0x887c766a5d71747cU, 0x8679655c62698683U,
  0x547c95a5a9b8a1a1U, 0x5851574639403e42U, 0x919c8a8a6e6e6d5eU, 0x585235403f65739aU,
  0x7d8a8c9c937a787dU, 0x686285767d82958cU, 0x877a7160585a4f54U, 0x728c9698958e817aU,
  0x8b786956687f786bU, 0x5158607f87a9a191U, 0x7a6f624d5465584bU, 0x889da0a7ada28b96U,
  0x463d2b3b4b56607bU, 0x606883867f726961U, 0x5762727865574d51U, 0x71807d7d62524740U,
  0x86878481847b746fU, 0x616767766f817c89U, 0x646c676c7761665eU, 0x9587798280868079U,
  0x6159758991939887U, 0x8d929086826f4f56U, 0x9c8e838272726e84U, 0x62726e778c96a69fU,
  0x8194a09d42444953U, 0x67605f515d716f82U, 0x9ea19d93948c8472U, 0x51525e6f838b8c8dU,
  0xb09e8d827163555eU, 0x6f6d7f8d9aa3acbcU, 0x9495918b88818476U, 0xa8a9a39e8b858387U,
  0x6a7d9f9daca49aa3U, 0xb2c6b99c7f766d6cU, 0x746e7267717c96a7U, 0x9a9a92a498947c80U,
  0x867e73797b858498U, 0x78737481816f7384U, 0x736a64747b7f7b71U, 0x8b91a69894907e7fU,
  0x6c697b81838e9490U, 0x949fada59f998c75U, 0x89928c8d9b838090U, 0x91a1a5aab29b9d89U,
  0x878c808686877d87U, 0x8a838a8c9c998986U, 0x75776d777b687282U, 0x96978c9088716d6aU,
  0xa39d8783848e959dU, 0x6671748ba4b2aebeU, 0xa0a192857b726565U, 0x8d90846e60637889U,
  0x79878078586f7891U, 0x98917c8377655666U, 0x7d6f6a738590888cU, 0x868b7b80807c7a82U,
  0xa2a99ea89c897d87U, 0x4d533f5151697f93U, 0xd0cac3bbac8a7f5aU, 0x3d555f688998abc1U,
  0xa5b2a8aba08c7853U, 0xa7a69fa59f94a0acU, 0x736272828597b2a6U, 0x9e9b928ba3a29483U,
  0x9b89908e948da4a0U, 0x7a819cacb7b7a99aU, 0x837a73655e6a686dU, 0xa5abb2c1acae9f99U,
  0xa2a7a09897939491U, 0x93757f7f938a9298U, 0x64799099a29ca08eU, 0xa597847a6e6a6a58U,
  0x7b829da9a5bbaeabU, 0x7c7c79617c747675U, 0xb9bdbda094867b7aU, 0xaea5a1aba7a6b2baU,
  0x9374574945677890U, 0xa4998d89a8bab19aU, 0x7a7f819695a1aeb3U, 0x92968b7e76737780U,
  0x97908a8996a5a5a2U, 0x8ab1b2c4baa5a09dU, 0x776471776e747188U, 0x9885737d8e868b80U,
  0x4f6d91a4c7c8baadU, 0xaa9d9b7c6b4b4c3aU, 0x99b1ab92989297a0U, 0x859ba0a99f8a7d80U,
  0x717a736566666975U, 0x82889696a08d8972U, 0xb4a79a7771817f8cU, 0x515c5a658195aba7U,
  0x7f818a989484786cU, 0x9e997f7b89808985U, 0x796d767c87849e96U, 0x94857874756f7472U,
  0xa0a1a2a2ada7a9a3U, 0x8b7b7a7272858490U, 0x828d818d8e877c89U, 0x8c8c75646767777eU,
  0x8e99959b97878d97U, 0x5b5e555b6b7f818aU, 0xaaaeaaaab39d9a7dU, 0x7a6e667b9095a098U,
  0x9f8b866f7771717fU, 0x5f63647377849791U, 0xb2a4999d84797368U, 0x766c5e6f8c93acb1U,
  0x7a77698d96a4a298U, 0x837c76758a838487U, 0xc4bfbfb99c92887cU, 0xbc9d95969eb5b8b1U,
  0x9f8d95a4b6c7ccb7U, 0x606f64717f959aacU, 0x767d7d8c88767569U, 0xd1dde0bd997b7a7aU,
  0x808a9b98acb0babfU, 0xb9b0c1bdac918072U, 0x907e7b7e9190abaaU, 0x7b7b9eaebccbb8a2U,
  0xac9c9b8d8c7d8074U, 0x978e7c827b879ba1U, 0x867a756a7d7e8389U, 0xcbc6c1beb9b29982U,
  0x9fa7abaca2a9a9baU, 0x888089716f567493U, 0xa19ea99d8c868176U, 0x9b948e9fa3aab0adU,
  0x736d7886939aa7a4U, 0x7883878d88767d6cU, 0xc9bdb19c998b9574U, 0x82686a7e7990a8b7U,
  0xac9c9f969f9c8e82U, 0x828a84929da8beb5U, 0x797b84929998999aU, 0x92999b885f49596fU,
  0x968a83827e788b92U, 0x829eadb1aeaaa79aU, 0x6a63584b5f647d74U, 0xa2b1bfbdab989278U,
  0x6e696c6769768a89U, 0x9195a3a6b0ac9a78U, 0xaaaeb6a3a4a09f92U, 0xb09682868b90a8a5U,
  0x494c6e7584908e98U, 0xa79b97806a585647U, 0x616961808e9aada6U, 0x90929190897b7875U,
  0xb2b1988b8b8d9a95U, 0x6d7f8977879bacbbU, 0x918885917f746961U, 0x737871626b6b737fU,
  0x5751474b44566a74U, 0x88a4a9a39d907c71U, 0x7871675f6e6f7d79U, 0x5b5a5b6993a6a5a3U,
  0x5a586a6169766a6cU, 0x747880827b6f6858U, 0x7678836c5e676b72U, 0x4d4b48567175716bU,
  0x8d9183817f847866U, 0x859495a09891878dU, 0x4c5d676a6c768687U, 0x7e90919475625352U,
  0x747e807885849789U, 0x63675b3e334a5e60U, 0x999f938979595957U, 0x8a927e78757a868dU,
  0x997363696c767c82U, 0x51515c86b8c8b29dU, 0x866b62726865625dU, 0x79696e6d73878486U,
  0x646f7b7983828986U, 0x4253515d5d717462U, 0x898da99ea59b7557U, 0x3a434d5762737278U,
  0x6d6f7271635e5a51U, 0x7f8a9e9f9ca38b77U, 0x675f4f454c4d6162U, 0x7f887d7e898c886eU,
  0x8278746565666373U, 0x908885857c7c8c7aU, 0x99797657495e6278U, 0x5c5b647485989b9cU,
  0x6d654f4c495a5d58U, 0x84857c6667676c68U, 0x8274695a4a57686fU, 0x4c495e666c807983U,
  0x8e8a959b856c553cU, 0x7876727b7b7b8285U, 0x726d4c4f514b5d6dU, 0x4657607986898687U,
  0x856c635d4e494f46U, 0x848d8e988881867cU, 0x494e59645c646579U, 0xb4a7a3947b6a5b5aU,
  0x281a2e3f65739ca9U, 0x8d87867a81846e53U, 0x595c7b86909c9398U, 0x816464523c474551U,
  0x485c818e999b9f89U, 0x525c5f6b79684b42U, 0x889fa5978d86615cU, 0x8d8c8c7b66696772U,
  0x61474d4a515d6c87U, 0x9aa3989c9e92766eU, 0x6a64747c97979199U, 0x6b7b82857c817f79U,
  0x6575808e7a7e836fU, 0x7f69746e65616763U, 0x72715754605e7581U, 0xb5998575776b7577U,
  0x7b7b6f6a6349444bU, 0x72666d646c6b7973U, 0x797675816d6f7c66U, 0x6b6554575a75767cU,
  0x818d9a8c7e655a5eU, 0x979b91837d797a7cU, 0x56565b687b908b9aU, 0x7f7f7d7a7c756e56U,
  0x9391968388898377U, 0x5a49556580869d92U, 0x725e51524b565652U, 0x78897c726977787dU,
  0x75777a65725a6469U, 0x615e5a576271797cU, 0x8589918b84918165U, 0x6777756a6e7d7b8bU,
  0x716e595952586472U, 0x766f7b7c7176766eU, 0x646a586164616a6eU, 0x655b5f6c696e6566U,
  0x616a5d685d4f4952U, 0x71624c5957615d60U, 0x897b646558787678U, 0x5e73738486887f80U,
  0x6d8178736b514e58U, 0x826f686462776b71U, 0x728c8da5a8a0a79bU, 0x6c5b574a4f4d536bU,
  0x857e80757b89846fU, 0x5f5e5b71837a8087U, 0x424a5e5d6c73736dU, 0x534145585e4b4f4aU,
  0x5563757f898a8869U, 0x99786b554443374aU, 0x6f96b2bfcdbbaca4U, 0xa0816444212c3c5cU,
  0xa9a9b4c9c8c1b5acU, 0x7276898d9b95a6adU, 0x7e989e88897e8a86U, 0xa695958d827a7478U,
  0x8782849198aaaea8U, 0x6d76757681888e99U, 0x777b848a897d736eU, 0x9da5a08e86797a6eU,
  0x7680799493959dacU, 0xbbb9a79c90787378U, 0x8478777b888c9eb0U, 0x7b95919d9193877dU,
  0x91858283787a7677U, 0x5b47535a69838888U, 0x9cbcbeb7b3927261U, 0x6568687474808097U,
  0x7a7d6a736f5d5c6fU, 0xbfbc9d89746d7575U, 0x808697a8b3cbb9bdU, 0x908c83776664736fU,
  0x716d7b8a88808a93U, 0x6f757d8888928278U, 0x5b5e4c4351546262U, 0x5c72656e75767777U,
  0x968276654a565c58U, 0x9e91a7aeb4a6a5a5U, 0x8a847d748487869bU, 0x776f6f787c888a97U,
  0x808880877e6d6a6cU, 0x716e7f7b937e7e81U, 0x807f88767b6d7369U, 0x7a7a736a626d747bU,
  0x817980877e918a85U, 0x7e7d7b6b6659656eU, 0x7a7e6b6a5a676a74U, 0xc3b8a48684847785U,
  0x4e6d7fa3abbbccc2U, 0x8a8e785f53434852U, 0x747c747c8195899cU, 0x9697918c907e686aU,
  0x80809095a6a4a48dU, 0x717168555d576072U, 0xac9fa69b94918783U, 0x8683949681949ba9U,
  0x9b8e968b8890877fU, 0x9f897c7b777f8491U, 0xa19e92898a898c99U, 0x89a6aab4a6a7a299U,
  0x948e81757975727eU, 0x967774777d778591U, 0x8d9285839ba39c9bU, 0xb9b9b7b9b3a78d8cU,
  0xaeb9b2a18a9295a0U, 0xaaa3a09d969ca7aeU, 0x625b627b7c8e8694U, 0x7f869ba4a6908a76U,
  0xc7d2c9c2b1908b7fU, 0x8879796277839dc3U, 0xb4b8ac9a90918385U, 0xa7b4a7ababa9b8aeU,
  0x97897a71797a92abU, 0x93859195938d9291U, 0xad969e929aa09b90U, 0x78898da4b1a09aa9U,
  0x8367617c776a6b7dU, 0x93968a93867d8693U, 0x646c74677a85899aU, 0x8da9b0a892757663U,
  0xa8a38876646a7487U, 0x857872777c9599b2U, 0x514c5f8497959592U, 0xb8b9c7a689866853U,
  0x6f68817e7a6c8aa1U, 0x9a98857d7a77726fU, 0x5f4e6b6f7c8c979aU, 0x7c827c797475615cU,
  0xb593947f77777672U, 0x646c6d8b91b7d0cdU, 0x6c797c8074807572U, 0x92888382717a796dU,
  0x85878ca1a699989aU, 0x5e74737b88979593U, 0x6c697b7d7b716a62U, 0x738e948c8e79766fU,
  0x6765585b524a4667U, 0x9885917c7a6e7572U, 0xa697999d8d92899eU, 0x7c8ba0a0aa9fa595U,
  0x71737d8c8b8d8776U, 0x948a8079755e6c5eU, 0x92858c9693969697U, 0x8a93a9abb4aca086U,
  0xaba7a4a19e988b97U, 0x8c8b7e7b7994a7aaU, 0x6a788084858e8d9cU, 0xb29b888876766761U,
  0x8e959d9a9a9da8a9U, 0x7786837c82808a8aU, 0xaea6979e99898181U, 0x748ba6bfc4bcc2a9U,
  0xa99a8d827a6a6463U, 0xa7b4b5c2b8b3b9b9U, 0xaa9e96929aa4a2a2U, 0xa4abc2d2d3cbbdc5U,
  0x99858584878684a1U, 0xa1aab9bdb4b29f93U, 0x9795968c8b8c9091U, 0x8c8b7c7b7f869198U,
  0xa5bebeb0b9aaac9cU, 0x8c8d8c928d868ba1U, 0x9e8b816f74667789U, 0x889aa8b4bbb3a7a6U,
  0xa4aab0b3a2a89e8aU, 0xbba5a0887c838597U, 0x607a8ca3b3b6b6b6U, 0xbaab8d765447555bU,
  0xb3ab9f9da1a8a8c0U, 0x6b6f7c9c98a5b5a5U, 0xb3cbbcb298838076U, 0x8275787f879aa1b5U,
  0x9392989cb0a3a08dU, 0xa9b4b3c8d0b3a0a3U, 0x808b888a8d9a9aa8U, 0x4c4b5b757f919594U,
  0x8776674c49484d4bU, 0x867d7c7162687379U, 0x8d9492939d9f9194U, 0xa28968686c76777eU,
  0x978d8b95a8a8abb0U, 0x9b8584797a84868aU, 0x6e74918d97b1b294U, 0x906a4c353c354651U,
  0x6480939da8bbaca6U, 0x786f6471686b6a5bU, 0x8a76747b6f666471U, 0x565d5b6277807a88U,
  0x828987736c66625bU, 0x97a49da9a08c8780U, 0x79715f5758606979U, 0x8d8e939e918c9183U,
  0x8e9ca19991858791U, 0x99958478757d8582U, 0x989384898c889493U, 0x87959895a9ad9998U,
  0x84856a7363777b83U, 0x7c8d868896a08d99U, 0x7c6e66617667716fU, 0x83999e8a857d7c6fU,
  0x9f927b6b7968797fU, 0x8a939697a1b0aaa4U, 0x575b567174888d92U, 0x7b73544685736057U,
  0x747284887b767579U, 0x88716a5e59585f75U, 0x9ca5b1b5b8a09899U, 0x777c61757176777fU,
  0x687d807e81819079U, 0x606d7873616a616eU, 0x7b745b515344494fU, 0x6f6f7d6c7d77767dU,
  0x53526b727768697dU, 0x6e6b665e645a594bU, 0x79797a77756d696dU, 0x61666e767381957bU,
  0x9a8d888385777867U, 0x6d66686d687f8683U, 0x6d677374746f6462U, 0x696f777a8d7b7664U,
  0x988c787565585e6eU, 0x3c54657792929c97U, 0x5947413f29392e32U, 0x7d7d737b78797260U,
  0x6d7b767c7685807aU, 0x76797a858c837977U, 0x6663606a5b636775U, 0x38424546434d3b4cU,
  0x5f574b3b3b3b3c3cU, 0x998387858a7d716cU, 0x565c607b92a69c9dU, 0x6169636673676459U,
  0x7e8776817773655bU, 0x7a747767524e6c74U, 0x8696919595948480U, 0x91918e7a624e6081U,
  0x6761767486918e9bU, 0x8a847a6565605d68U, 0x585e5b6b7c889b9fU, 0x768483787c7c7d65U,
  0x53607a7d8b767c7dU, 0x878585825d54574aU, 0x776c73736f6a7574U, 0x95a3aa9b98897b78U,
  0x5e616c615d6c747fU, 0xa99f9086747b7b77U, 0x5c6d6f6a6d818b96U, 0x6b7366615b616774U,
  0x9995a29699828273U, 0x63776f7b8ba09ea3U, 0x8e928a8c7e766968U, 0x92978a7e8c969897U,
  0x616e76918b7f7182U, 0x74544e574e4f4a51U, 0x534f646b7d908b83U, 0x7d86928c8a847458U,
  0x63685f594e4f5e77U, 0xa5adad9d9d967f72U, 0x545e5c4d58627284U, 0x7676817e83767472U,
  0x5f5a5a4d5d697285U, 0x596e716d6766636dU, 0x8584807a625e5d63U, 0x5c676c7977799094U,
  0x7c775d655f5d5456U, 0x7877688387807c79U, 0x76746f68776a716eU, 0xa2999c857f82826cU,
  0x534f696b788ca8a7U, 0x6c5960776a74676cU, 0x7a7b7682907f7b66U, 0x878691898c7a7a7aU,
  0x60636464667c7a74U, 0x9397a7a7a3aa9879U, 0x6563686a797c8a85U, 0x9294a296938c8564U,
  0x816b71787d6f8085U, 0x93a4b6acb6a48d8dU, 0xa29496948a8b8980U, 0xa8a18c917f8e99a6U,
  0x9f9da2a8a7b3bdbcU, 0xa58a847c6a757d93U, 0x5d6b6b8d8c99aba8U, 0x6c676b6e76716564U,
  0x83766e6f765f555bU, 0xa09c9db1b9b7998cU, 0xc5cecad3bdb7a098U, 0x7d858a9da7adadc1U,
  0xa0929b8b8e8b7c76U, 0x83919f9dae969699U, 0xa5b6b1a698877e7dU, 0x5c53425164748298U,
  0xb9b7a9acb0a08860U, 0x78868a9ab0b3b3baU, 0x878385757a78737dU, 0x84696b6b7a839185U,
  0x5e5b606b7178877bU, 0x8d86829589898871U, 0xaca6a4a89c979698U, 0x71798d8c9aa4a9b2U,
  0x8a8ca7a298988074U, 0x9695948a8d889189U, 0x728680717b696c74U, 0x5f443a3d525b6f7fU,
  0xa1b5b4adb5968374U, 0x595c657583909ba7U, 0x7c676a6346574f59U, 0x776f6e76969f999bU,
  0x869d9b98a99a9187U, 0x7878767774647673U, 0x90817d6f575f5d6eU, 0x747d9aa8c0c9bda2U,
  0x6c5f585257595f65U, 0x7781869b877b765eU, 0x9c9e8d8c7c75697cU, 0x7d87939baab5a9b1U,
  0x6f90a0a19376697cU, 0x6b7a7b807360656cU, 0x66655257524c545bU, 0x6c6658625b6d6371U,
  0xa28e977f787a8283U, 0x949396a9a2aba2a3U, 0x9295827e8b7f8184U, 0x858ba1abb3bdaeadU,
  0x7d6f817a86869495U, 0x7967626e6e6a6471U, 0xbbb5ac9e9d9a7f83U, 0x9d8c95989faab4b4U,
  0x9f96919193908d92U, 0x89918d9d98a7aab4U, 0x898393918b9c8e8eU, 0xa69a96846f767886U,
  0x8b8a90858d9cbabcU, 0xb3c7d2dececdb99dU, 0x717677747a8a97a1U, 0x8b9ea3a9a68c807eU,
  0x787e8a929ca5968eU, 0xa1a493869185736eU, 0xc3c2b7b0a7b0b0b5U, 0x716873687b99a5bbU,
  0x7e7f747d76738575U, 0xa0a59d98907a7477U, 0x9a97a59c9ca8a2abU, 0x6967696d7e909a97U,
  0xbeaca49f8c7d8169U, 0x9996959fa0acb3bfU, 0x6174817f98a1b2acU, 0x97a3949081746769U,
  0x7382a1a6a2a49993U, 0x5c6a7883727a716dU, 0xdbd4c19988645557U, 0x9281777682a2c0d1U,
  0x5e677e9d9ba3b1a3U, 0xb2ae9a7f6a525845U, 0x655c5561647b99a8U, 0x758ba2abb0a09a78U,
  0x5d585a6456605b6fU, 0x737c6b7862686152U, 0x6c6b72767188857dU, 0x87888a9586767468U,
  0x878187848a807485U, 0x82818da2a79d9188U, 0xb2b8baaa97777575U, 0x6f7c828b8689a7a4U,
  0x534d566771717271U, 0xd1d8d2c4b69f916bU, 0x5f7d8cb0b8bcc6d2U, 0x978a82605b4a4849U,
  0x959191898480899fU, 0x7f7791969295a19bU, 0x6e6f66575e5c6068U, 0xbbbac3bfada4917eU,
  0x806f6e52646e84a1U, 0xa69892918a898881U, 0x7e8ba0bcbec0ab9fU, 0xa8a9a69490807c7aU,
  0xb7adaba6b0a0a0aaU, 0x55667a7f9d9ba3b7U, 0xaeb0a1977a765f58U, 0x91796d6a6478959fU,
  0x92aaacabb5a09ea3U, 0x75767c7a80848785U, 0x818181887e7c8979U, 0x7b898e8b95939b96U,
  0x535c647779727880U, 0x6569676455404d45U, 0x887d7464575c5e6bU, 0x8179757b7d8e8a98U,
  0x64818a8a93938676U, 0x78838a796b595d59U, 0x728686796c64767aU, 0x808c959b998a8978U,
  0x7582879b97928b8cU, 0x8b9185737564696cU, 0x978991979f9f9d91U, 0x748994949ba19998U,
  0x9891828377726d71U, 0x6c6f80887c8b9799U, 0xa5aab6bdb2a79083U, 0x9284736c6f818d9eU,
  0xa4b5b2aac4c2ad9eU, 0x6f76666678787ea2U, 0x60747877818b8e76U, 0x7b7468646f5d5c64U,
  0x8a97a0b0a69d9278U, 0x8688837b7d7f7186U, 0x8494969681756d7aU, 0x7679726562676068U,
  0x9f91898e86737c87U, 0x7489889698919ca0U, 0x847c665754526175U, 0x9290797b89809191U,
  0x75777e948e9e998eU, 0x6d616578787a8378U, 0x7d766c66655f595eU, 0x5769646f838b7c79U,
  0x968c7e7f76736866U, 0x7f827b888c859a97U, 0x7474737e858c8875U, 0x7c7e74625865766eU,
  0x6f57617b75887b87U, 0x9091838c8a8d877eU, 0x5d6173889795959bU, 0x787b6a635d615a62U,
  0x7f7d75595b6e6a7bU, 0x8d88929f9d9f989aU, 0x908c7f6e7576777cU, 0xb7b0bbb8b5a89296U,
  0x9893a18c99ababc0U, 0x656c8b89959fa7b5U, 0xa8a29c8d77777672U, 0x9ba2a4a2acb2bbacU,
  0x6d736b7e7e8998a3U, 0x7d8a8a92838e816cU, 0x9399aaa696838074U, 0x98796b69718c94a0U,
  0x979ca4a8a9a59c96U, 0x796c626c72767e8aU, 0x9686807676646f7aU, 0xcccac0c0bac3b2a4U,
  0x8585a1acaebad0d5U, 0x686b776671727982U, 0x80898669715c6762U, 0x857679746d7b7c84U,
  0xb5b6bcb7ae988686U, 0x69738795b0bab4b2U, 0xa5ab9d877d6c685bU, 0x737c888899a1a9aaU,
  0x7b7379727f6f6e6bU, 0x6e7176726d6b747dU, 0x8587888b8a7a7e76U, 0x64453f4243575879U,
  0x86787e7c87737565U, 0x9184777a757a8081U, 0x515958717c7c7d92U, 0x746e5552403f4045U,
  0x6678737575757876U, 0x757c90868178626bU, 0x8d8974615f5b6f73U, 0x2b3b43416179818aU,
  0x76685743393a343cU, 0x7e846f6a696b6f73U, 0x7c685e565b535b6bU, 0x5d596d7679909391U,
  0x84777569635f575cU, 0x4d43455166717f83U, 0x8b8c8a78745f5554U, 0x75796a5c5f6c7587U,
  0x7b7e76746c696e65U, 0x687c8a8c8e8e767cU, 0xa89e948158554c4eU, 0x7a85919eada7aa9fU,
  0x695c484a59615a73U, 0xb2a6b4ac9587856bU, 0x838978757c848d98U, 0x7880746d6e808184U,
  0xa7aab0b1a8a09490U, 0x8c837e6f8089a7acU, 0xa19aaaaca3b0a8a2U, 0x96858d898e91a091U,
  0xb9c1babac4ac9f90U, 0xa6aa9d9aa8a39ca8U, 0x7c778da5acb4b8b5U, 0x67748097937a7274U,
  0xa3ab9295817b776dU, 0x988980838b888b91U, 0x9a9c9fa0b0ada3a3U, 0xa69c93977f869290U,
  0x929ba09ba3b4aaa9U, 0x867576919c958985U, 0xabb7b9bdad96878bU, 0x95858b7d8a828497U,
  0x8585838b929aa89fU, 0x7473766768646878U, 0x9ea3b6b7bc9f958bU, 0x97897575667b7b8dU,
  0x6967686273809899U, 0x62656f7f9a93827dU, 0x97a5968e766e5a5cU, 0x7b747e788192a09fU,
  0xa394878478817f74U, 0x686b6b758497979aU, 0x8485757b80868b72U, 0xb4a69d9ba291978aU,
  0x7a827a958da3a9b7U, 0x786a7471616f6765U, 0x6160636578857876U, 0x75725d5956494b61U,
  0x90928ea09da1a081U, 0x80838b897f7b737fU, 0xa69d89887b828182U, 0x71827c897c7a8a93U,
  0x99899582716b7776U, 0x696b767b86959092U, 0x9691939893897b69U, 0x666d95aaa4aea8a9U,
  0x816f7871574e5363U, 0x8b8577736d7a6c71U, 0xa1b1a5aeac9f9688U, 0x62688086919da19eU,
  0x7a68544e474a594cU, 0x555d7c8e8e94908eU, 0x7873786a5d5b5f61U, 0x7c796d6f72647a76U,
  0x5e68686678767b7dU, 0x7b83827b6b75625cU, 0x6c6769766f73847eU, 0xa99c8d8e777a7a6eU,
  0x5268688694a0a0a3U, 0x9a8384806f6e615dU, 0x7982837d6972828bU, 0x6e6e62625f617a84U,
  0x6857646f675c656eU, 0x797d887b77797d6dU, 0x535d6d6e77738382U, 0xb6aea58a7d6b595aU,
  0x64646872656f8aa2U, 0x826255513f484e54U, 0x92969999a79d9a95U, 0x83899f99a28b818bU,
  0x755e483c444b5f7fU, 0x7687888483878577U, 0x737375635c647773U, 0x8788787a7466776fU,
  0x5a5b54555b757d8cU, 0x67798c8477716163U, 0x6a64666061636062U, 0x5d5e695f5d62797bU,
  0x847b71644c525f56U, 0x6f7c7b8a866f847bU, 0x576b6177786e7465U, 0x36405e696865615fU,
  0x7865584035293236U, 0x787a687c7f89827fU, 0x6c685752625f6a71U, 0x6f68625654637268U,
  0x8187a1a197a19a8bU, 0x8c716c5c535d6878U, 0x77717b8882909c97U, 0x555b74727372716aU,
  0x8c8e7a867a7c6362U, 0x927f7e8480928481U, 0x6762605b6e847d82U, 0x8583827d777f7568U,
  0x858d9ea3a49a9f98U, 0x6f5d4d42454e5a6fU, 0x465c7472787f8484U, 0x89817f756a573e4dU,
  0x89808b899199909aU, 0x71808a9a9a949193U, 0x999f9c92927e7677U, 0x8d8889828d958b95U,
  0x3f3e414e545c6c89U, 0x9d868073776d6351U, 0x7f8797a1aaa5a19fU, 0xcabcc0ab94837172U,
  0x59616065759aa4bbU, 0x61666a6a7c7b6561U, 0xa59fb2be957e6e6eU, 0xb4a9a99da7a2a0a2U,
  0x8a9894959fb3b3b4U, 0x98a0a5aeaca8938eU, 0x5e7473717671778aU, 0xa89784785e4d4a45U,
  0x8e8d819b9f9fa2a3U, 0x6d69768182788295U, 0x7b7b777360655761U, 0x9b87909d8d8b8475U,
  0x9ba29f9ea0a8a89cU, 0x7a6e7161607a8b8dU, 0x757469756e666e6cU, 0xbdc0a6959a92887aU,
  0x6a6a80929bb7bfbfU, 0x5b5e544854565c69U, 0x98a6a89d8a806862U, 0xaaa893807e736f8aU,
  0x524a616c7297abaaU, 0x6c61605a616e614eU, 0x616c726c7a838277U, 0x8688828078685f6dU,
  0x6b615e5560607273U, 0x4a5a566a6b687867U, 0x8b98857f785b493fU, 0x5567656266787586U,
  0x62444a474e535157U, 0x7b9cacbaad9b7e6dU, 0x8d8076727c76676fU, 0x5b60636a6c717f92U,
  0x94a1957a645d5e54U, 0x868a9db9b4b1a69dU, 0x2e1924354561666dU, 0x90a3a1918e6b5b32U,
  0x1f232e344f657295U, 0xcccac1997f513a36U, 0x595d5353617497bdU, 0x7d788582897f796dU,
  0x5f556167777c6f6dU, 0x7a76817a5b5e4857U, 0xa9b2beabab9f938bU, 0x7c8680817e8a939dU,
  0x6f736e7181777f7eU, 0x605a668a878e8786U, 0x83828076615e665cU, 0xa0b3beadb0a39885U,
  0x8b857d6c79799292U, 0x9db6c4b5bfaea7a3U, 0xaaaea1a1a395969eU, 0x887f797882a3a6a9U,
  0x898d859791978c85U, 0x646f7ea09fa7a295U, 0x919493978e867e6aU, 0x6a656a59515f738cU,
  0x938790837d6a695cU, 0x81938d8997979994U, 0x80757e6f77787982U, 0xa7b5a49d938b8082U,
  0x6e776e737b88a3a0U, 0xb8b09e949a9d947eU, 0xa39c98a19ba5b8aeU, 0x584f585c737e87a7U,
  0x9897988276716159U, 0x8d8b7f819f9c9fb1U, 0x8a88868388938d91U, 0x5b77787f81787988U,
  0xa68c7b7c84746f63U, 0x838687909a98a5abU, 0x9da29675765f7274U, 0x7179819297adaaa0U,
  0xc5d4ceccb290847cU, 0x7f7f80727f838bb3U, 0x53575e71747e8d88U, 0x6a757c8a8273785dU,
  0xb0c0ada788897e71U, 0x91999e959ca3aaa7U, 0xa1917f7b786c7d82U, 0x8ea3b4c5c4bec7b6U,
  0x846d7a615c687284U, 0x8273686973808085U, 0x6d849ba7b8b3a890U, 0x47433a3b2e3d424aU,
  0x53656666767a5e60U, 0xb0b6b58e5b3c3948U, 0x7c9cb3ab96899194U, 0x9387827d73726668U,
  0x6b74858d9196a0a1U, 0x7f898b7e717b7774U, 0x7f696c65716a726fU, 0xbac5ccc0bca79f85U,
  0x9a9d8a7b737fa0b2U, 0x4755496c77978e99U, 0x7a7d7172666b655fU, 0x795248474f627276U,
  0x484b677794918880U, 0x61514d35392e332bU, 0x91878e78787a7c64U, 0x8da0a7a1919a978bU,
  0x757c68776f766f81U, 0x737a8287776e7e7fU, 0x877c675f57696373U, 0x76857f929a939b82U,
  0x686b5b647574746cU, 0x5d6a7c736f5c5b64U, 0xa89a8b8a71635763U, 0x84949198a59bac9fU,
  0x8486867c6a7d777fU, 0x6771797c7d858788U, 0x62675f4f5a544c59U, 0x54717e858a987a5fU,
  0x917d79805e4b5359U, 0x8785939da2929195U, 0x4752667575778086U, 0x7e5e565e5f5a5143U,
  0x787f877e78888c79U, 0x96898579727c7d79U, 0x696b8288a29ea39bU, 0xa690928a797d8571U,
  0x7778949ba597a69aU, 0x858591917c6f6664U, 0xb0bbbaabaaa69f9bU, 0xa18b8188808599a7U,
  0x6f92959ca3a39b99U, 0x5c575d54575f5a63U, 0x6c7271756f5c5356U, 0x9c94a9ae94937568U,
  0x9987989e9b94a498U, 0x8c8e8c7c73737982U, 0xb6b0b4a7919c9991U, 0x7a797e7f7b90a4baU,
  0xa8897d685f61687eU, 0xa39d9fb2bab3bbb4U, 0x6f777c939a94aaa0U, 0x7a8478836f6a6264U,
  0x897a7a7380817f6fU, 0x879b919795979a8bU, 0x8a7e80787463627cU, 0x92939698958e8e7eU,
  0x8a787e736d6b8188U, 0x5a5e585b78808a95U, 0x8a727c7f7f84786dU, 0x605f746e8986858bU,
  0x856d605652495b5bU, 0x808c959d9c9c9387U, 0x565b676f74808e87U, 0x7489a79f8373675eU,
  0x78727971726e7472U, 0x99959392816c717cU, 0x92787261797d909cU, 0x8ea1a0978e98889dU,
  0x95978d7b797e8983U, 0x536867727c8d9e9dU, 0x807e71644b494f58U, 0x715a5745525b6f6dU,
  0x7a9097a697968779U, 0x716f75746c6a5e6eU, 0x6f71728686898581U, 0x57525d64776b7677U,
  0x959aa4b1ad9b8d71U, 0xa0b8b1a6a1a79499U, 0xb1b5b8bda89e9299U, 0x5e6469808b9fa3a3U,
  0x6e929f9e9493786eU, 0xa5a2a89d7f696766U, 0x9b907d73768da2a5U, 0xa8aba4a7aaa3a4a4U,
  0x7c7c87868899aaa9U, 0xb4adbaa9a086898cU, 0x7c77827d8c9fa8abU, 0x7f989aa493928a8dU,
  0xb8a69286726c847dU, 0x5d818a9ea9abbbc4U, 0x7a857d746f67535dU, 0x8489908a7b81848bU,
  0x80797a7569676971U, 0x95907d7a777b7776U, 0xb8b0b0a5a8a69b98U, 0xa6a3b2a7aca8b3b4U,
  0x79919eb7a5a09d9fU, 0x86816f6c62646b7fU, 0x88939c94909a999bU, 0x4d546062647a7a7eU,
  0x8c77543d2c233d48U, 0x6c7b7d9798a5a19fU, 0x7880807765606b74U, 0x757c80868a8e887dU,
  0x7169725f56566966U, 0x3255647371717978U, 0x989a99847d768488U, 0x8586888c8e908a90U,
  0x7e8a8c7b7d758276U, 0x62626c636278867aU, 0x7c7c7b8175747a76U, 0x98919d94927c7f85U,
  0x8a8b9092989a9292U, 0x7e6e7c8a9097999dU, 0x8b80807982798575U, 0x62655e65727d8988U,
  0xabb0a7b0b0a89b82U, 0xa39a9c8e918e8593U, 0x8e9aa7b9b7b2b5a0U, 0x858784717e857e87U,
  0x958a8e83817c7a82U, 0x8c8783888e929693U, 0x73837e737e7f898aU, 0x7f797d7d6e65696bU,
  0xb1b9b1a492948d92U, 0x676c837f91a9aec0U, 0x9892989288746d7aU, 0x8c9798989ba2a29dU,
  0x6571898ca4abaa9aU, 0x8c78796a5448584dU, 0xb2bcb7bac4bba59eU, 0x85766d786a6f7a97U,
  0x837c84818b768384U, 0x7c736e8290969395U, 0x97a3aab1b7aa8c84U, 0x7d7972646e7c828bU,
  0x78859591a99c9f88U, 0x8ea19d8a847e7171U, 0x84828471867d748eU, 0xc9c2c5b3a9a19f96U,
  0x6f79666e71819ca9U, 0x5a47556477718a79U, 0x949f9e989b8e6f65U, 0x91a6a79e9b998c7cU,
  0xa19c9b927e807f83U, 0xa1918b7d6a716c82U, 0x818d8ba1979da3a1U, 0x75787a7c86808380U,
  0xc8b89d8b79727173U, 0xa1a8b9b6b8bfc2dbU, 0x5d596d6371728d90U, 0x96917b6258666958U,
  0x9c9dadaabeb2baabU, 0xc9dccdcdbeb89c96U, 0x3344534e587190bdU, 0xa79c86806966422aU,
  0x9090898c9aaea9a4U, 0x8678787a88968e8bU, 0xaaacbbaeb1a39398U, 0xa4a8b5a59ba4979aU,
  0x797b6f66646b7487U, 0x907d7f7f8c87917aU, 0x97816f757c7e8286U, 0xbdccd4cdc2b6b09bU,
  0x988a7d7c86849aadU, 0x9095a194a5a5a999U, 0x9e9193958381807eU, 0x7572757d777e878bU,
  0x84848c83868a827bU, 0x6c7e807e898b878eU, 0x876e4e4d4a535d5fU, 0xa1a19da0a6a9a793U,
  0x7b8daac0c6b7b4a0U, 0x7b7b7a796a686464U, 0x9ca18c938a7c8078U, 0x697c7a8296a2aea6U,
  0x9190846668616b69U, 0x72756d78808e8391U, 0x9791899e93918282U, 0x425367899d96a098U,
  0x8a817b73624e4a44U, 0x818b797e839c968cU, 0x71686f6f6a767a78U, 0x9a8a87696b616066U,
  0x77867981827d8991U, 0x94a49a89817e797cU, 0x737774828a8e989fU, 0x86908ca2939b907cU,
  0x655b625b6483898eU, 0x73879da59fa7987aU, 0x807a6c757577776fU, 0x909d9e9c95979d8bU,
  0x6b6c7787808e8a97U, 0xb9b9c0b08a766f5fU, 0x5a516e797d969dacU, 0x58555961656a5c52U,
  0x917f846e6361634dU, 0x9d979b8996a8aba7U, 0x816e81777d94a799U, 0x9c989d9792917e8aU,
  0xa8a59b9e9d978989U, 0xa1988781838b9eb5U, 0x5e577d89a1a6aa9bU, 0x7d6f6c6c6e7a7358U,
  0x8892a5a295898b89U, 0x9a90909185868d81U, 0x79778b96b7b7bfb4U, 0x887b817c82837a7fU,
  0x9099acb4aa9e9c98U, 0x9e877b7b85818487U, 0x998b93a3a1aab2a1U, 0x607a8389909b96a1U,
  0x8e9289868a827c6dU, 0x523e47586a808094U, 0xd5dec6ada986725cU, 0x656f767e81a4b7d2U,
  0x90999998878c8572U, 0xa59e9f988e908e88U, 0x7f959683838e9499U, 0x9291a39f91808a89U,
  0xabb6b19785766f79U, 0x9993989686a0aaa4U, 0x7981847f829c99a8U, 0x5757626a66637974U,
  0x979990957f6e5f57U, 0x55566972718090a4U, 0x78666e5e4e565659U, 0x959da9998d87867bU,
  0x8376818486888399U, 0x625e5f5f687a8089U, 0x737d7875817a756bU, 0x98805d5e5c6c727eU,
  0x6e5c667b80979c96U, 0x6c7486989f948a74U, 0x78777156433c4754U, 0x5237414b667e787bU,
  0x7a889396a49a8967U, 0x4a4e4e454c5d6b76U, 0x8292958c6e5c5958U, 0x67808d8a9a9d8e8aU,
  0x534a5c5b61697375U, 0x5a49332b333b434aU, 0x868e9389a0949074U, 0x6e797675736b716cU,
  0x7b7866787f777e71U, 0x8d7c7d757b7d7f77U, 0x5453626773898486U, 0x7375694a52434b3fU,
  0x77666d5f67787c80U, 0x69686a7f7c6c7582U, 0x5f4e4945484d5c64U, 0x838d8583766f7d74U,
  0x99a7a9a9ab9a9388U, 0x835f5d4d5567697fU, 0x898e7b7585899c95U, 0xa4c1c6bbaca1a096U,
  0x65716560646d7597U, 0x6d4e514769606165U, 0xa2a4b6acb7ab8d7cU, 0x726c73828c93969cU,
  0x8a76727b787d6a6dU, 0x99a0aaa99fa19697U, 0x6a828b8c808b9498U, 0x7271787177635f6dU,
  0x7d78816b7f7b8274U, 0x4f555a54616c6279U, 0xa69a9a7c786a6a58U, 0x676f7b928e9b9ea7U,
  0x58433c4153736f6cU, 0x5c667d7c757a7d6cU, 0xa9a0907566624e4bU, 0x9d918187949194b0U,
  0x9b9c9ba8a59c9792U, 0x62615f696b757d8aU, 0x8176615251526065U, 0x5d65728590949a8dU,
  0x58574c59484f5455U, 0x5e72687a7a6f6a5dU, 0x636a69625a554d53U, 0x8e8686757c6b7168U,
  0x374e4c657f8d9485U, 0x8d7c625740313438U, 0x666f6e72857e8d94U, 0x8a96968571635d53U,
  0x6a64635d6f7a8082U, 0x4f424d5471726b73U, 0x85989e968574675dU, 0x8b86837b726f7386U,
  0x7c83909890978e84U, 0x776365655b616675U, 0x7b787c7e7f7c757aU, 0x777d757780697375U,
  0x6369716669756c6aU, 0x63534134716a6c64U, 0x999896969fbb997dU, 0x807a88868794a09fU,
  0x62789a999d9a9f91U, 0x8b8c747764616966U, 0x595769677a819a98U, 0x88897c735b59565cU,
  0x8d8a7b6d60615b6dU, 0x737c73756b7f868eU, 0x6c7a7f83876f676aU, 0x8b7d6760605d5b6dU,
  0x746e879d9a97a190U, 0x62656b676e747474U, 0x5f5e5e5e6a7c7469U, 0x4a4c677668716367U,
  0x7666605d56535747U, 0x424b5461757f6e69U, 0xadad9d817f756745U, 0x7477799aaaa9b0b3U,
  0x7286868c8b7c746dU, 0x6e7478645e626f6eU, 0x5b564f5e55607a79U, 0x6e97a79aa17e745eU,
  0x746c695359514f5bU, 0x90968477696e6d76U, 0x6d786f777f869991U, 0x7b78796d776c6973U,
  0x8a8289948d8a8e87U, 0x898980756f6e7987U, 0x6f818d809489918eU, 0xa594847573574863U,
  0x768698a6a8acbba5U, 0x686f5d6468687877U, 0x748789969397896fU, 0xbfaa9ea1a491857eU,
  0x54678aa2bcc0cbd2U, 0xd3ba996b5b3b3748U, 0x9ca9a0aec1d2d0c8U, 0x7f7f7f787d859aa6U,
  0x736f879792828779U, 0xb0b3b5beb2a3937eU, 0x849493a3938e9eb1U, 0x7e66494154526a72U,
  0xb3c5ccd3c5b6a596U, 0x8a968ba5abb4b9b0U, 0xa3a3968e8d87849bU, 0x747d888792989997U,
  0x7d7b826f6e58626eU, 0x787989938a8a8e92U, 0x8c7160534d5e606cU, 0xaaa0ad9f9f9a9489U,
  0x6f85969ca6a6b7b7U, 0x89868b829286797aU, 0x81887d8287898383U, 0x6c7c777c8c999a8dU,
  0xaa9c8a857b797977U, 0x91999da4a5a19fa3U, 0x928c716875828495U, 0x7b77737283758094U,
  0x999d9e9b8e86806eU, 0x6662586a6f7d8280U, 0x6d6877777b727f76U, 0x6059454956636266U,
  0xaaae9c8e8a788166U, 0x5a60627988899a9aU, 0xb4b1bbab977d665bU, 0xa19e877e918691a3U,
  0x565760768a9eaeb4U, 0x5c63797e76816e69U, 0x9d97918c71655e5fU, 0x9097a9bab9cab89cU,
  0x8e7e8d939d959190U, 0xb2a6aaa7aab1a7a1U, 0x8886929290859e9cU, 0x909288867e7e7f80U,
  0xb7b6b0ad9b8d8394U, 0x7c738393a2ada4b0U, 0x99a99ea09b957a7fU, 0x726878717a93a4a7U,
  0x8e8c90a8a69f8880U, 0x9aa2a29d9c9ba79aU, 0xc3d1cbd3c8bca3a1U, 0x979696aec6d1c9d1U,
  0xa7acb3c4b8b29b9eU, 0x748490878aa09ea2U, 0xb5b6bfbca9a29881U, 0x5f8398949c9598a8U,
  0xdfc4b08476675857U, 0x7b85abc8e8f5f4f2U, 0x7d816d6058535c69U, 0x8a837d8585857a7cU,
  0xb7cbb3aba29192a1U, 0x8280898a8e95a7baU, 0x979c98aeaa9a9787U, 0x8994909c97aaa8a4U,
  0x8d88918b929a988eU, 0x81888b99a4969b8aU, 0x8d9998968b797575U, 0xaaab9d8d83736f78U,
  0x9e94829591a0aab2U, 0x9696868877848a94U, 0xb4b2c4cbb1a6a59aU, 0x64595e7580a0b0b5U,
  0x8c8792827d737767U, 0x636577837980808cU, 0xb8b1a99a90756d59U, 0x878aaaadc0b5c7c2U,
  0x5d5f7a7e7d6e7184U, 0xb0a3a19177745b54U, 0x6f68737988a5a2adU, 0xbdb4b1b5998d8476U,
  0xa0a1b2ada79fabb0U, 0x63667e828b949289U, 0x92826e7a66736666U, 0x8792a0979ea499a4U,
  0x6b75717e84888d95U, 0xa89d938e7f766771U, 0x9ea5918a918b99a9U, 0x807e7e77798e9b96U,
  0x6d72737e84868c93U, 0x7f85868c85747d67U, 0xadb6b9b7b5a7b59bU, 0x7e779194b6b3bac1U,
  0x8991868d8a87747dU, 0x8b81737179797b80U, 0x62657b9ba3a8a495U, 0x8b8688777e746d6eU,
  0x9b979682797b7b85U, 0x836a636f8c8da1a1U, 0x92909899aba4a491U, 0xb7b8b5ac8e7f847eU,
  0x5f626f7994a195a4U, 0x8e858d9774594c4fU, 0x949e9facc1bbaaa7U, 0x96a18c877c807d93U,
  0x87847b807b818491U, 0x8c8a93827977878cU, 0x6f74696a75757180U, 0x9a837d858176836fU,
  0xa1a2b7b6b5969991U, 0x4d57596b787c828bU, 0x7d76787f78745d5bU, 0x58536e7590a39e99U,
  0x97858a8d876b6359U, 0x80787e82979d9291U, 0x5c5f7a7d7c8a7e84U, 0x896e664e41413a4bU,
  0x87958a8a938d9291U, 0x61657f797975848eU, 0x888098a59c968079U, 0x6e7f80808e98888aU,
  0x85785753534d5b5eU, 0xb4c9d6ddd5c2a49eU, 0x787c8a82839c9ea6U, 0x81736a605c5f626eU,
  0x867b8d7d7c7b767eU, 0x899593a2a49f8c80U, 0x6d6a4e5153596680U, 0x6a7986a8a6b1a486U,
  0x90a5b29d97826c6dU, 0x79827b79757f8081U, 0x879998949094807bU, 0x6383888681858a83U,
  0x73828b837d65474fU, 0x87605a4f494f5f6bU, 0x8e98a0adb4b6ab9bU, 0x7a7f72606e787585U,
  0x85898da49ca39789U, 0xa39ea1a4977c7a75U, 0x67677d8780949b9aU, 0x7a6b5e685b676a6cU,
  0x8a99958c91968372U, 0x4b5c5d6789949192U, 0x66686a4f524e5252U, 0x849497909b8d8177U,
  0x636a60565e616d78U, 0x676675615b514551U, 0x615e5767747a6b68U, 0x41575f78867f7a6fU,
  0x8b847e6a605e4849U, 0x413c323a2f47536dU, 0x7475656b645e554aU, 0xbfbebdae967c817fU,
  0x6f7d7c7c8093a4aeU, 0x3a3d545d6a687a77U, 0x7e7c6d756e6d5f4bU, 0x4d55687c7d91937fU,
  0x5c59535652444049U, 0x8b9c9e85755a453dU, 0x9c8c858590929a8eU, 0x5c67727f8a848092U,
  0x6e787a6f77715c68U, 0x564b4a3d3b3f4a66U, 0x86959d91908c7b65U, 0x7b8b8685806e6f72U,
  0x868b897179686879U, 0x77857a8694968a86U, 0xa491987e82767885U, 0x837c7d7c76858896U,
  0xa9a6a69e9f999485U, 0x484c475152596f8cU, 0x7476615a4a46464dU, 0x65696f7d8590877eU,
  0x878e7a6874696262U, 0x7f92a9b8b1bcb69dU, 0x6e7a73646f666066U, 0xa7b1a99d99897e74U,
  0xa1a9a8a9b6aea4a4U, 0x3f42545b6c837e98U, 0x8185605e484d3e2fU, 0x8a8a8a8b8b948394U,
  0x535c596178778185U, 0x8a928b7c62545255U, 0x88899c9d96928690U, 0x3f595e606a807f81U,
  0x9f93765a3c25292aU, 0x716c757f8e84938eU, 0x6b6f6152524f5d66U, 0x5b6b556253686462U,
  0x536364515b625762U, 0x66736d5e544a5e5bU, 0x646f747c87827d6eU, 0x879496948c7d716fU,
  0x5952605e6c77777bU, 0x7a6d63695e595153U, 0x7c9082857a7c7171U, 0x7671727784908481U,
  0x606e69635d66776bU, 0x51444238404e5c57U, 0xaa9ea79fa0a08668U, 0x5155585d656c86a1U,
  0x6d696e5a6654494aU, 0x7e8c8987836f7a7bU, 0x717a666f686e727bU, 0xad9e9d8a83776e6cU,
  0x465e617b92a0a2a4U, 0x675f626862534742U, 0x4e5f54655c6a7672U, 0xa2a9b3b29e74574dU,
  0x75645e61626a6c87U, 0x81645d5b5b767b78U, 0x6164635e74898485U, 0x7d907d7a68736465U,
  0x836f6d6d717a8380U, 0x5a585a5e685d6271U, 0xa6a296928b766e5fU, 0x788c93b1bcb6b9a9U,
  0x6264655f51626e67U, 0x83909c9a98937f6eU, 0x584f594954535f67U, 0x69736d6d64555352U,
  0x92a5989b90816f75U, 0x9b978b867d7e8292U, 0x646d68788b8a989cU, 0xb19a846558635759U,
  0x6b738c9db2c0c6b9U, 0x7a6d6f6b6463595dU, 0x73837f8686737876U, 0x6f666f75796a716cU,
  0x595554675f68796aU, 0x5f5a52544d4b474cU, 0xa2b8a99b94897e79U, 0x7573757b809797a8U,
  0x5b5459565d606f6fU, 0x6d777267716a686dU, 0x49484e5b6f7a7b83U, 0x766e5e675754555aU,
  0x7b887f8aa8b5aa9aU, 0x857c796d6e727a83U, 0x8c95a1a899999a92U, 0x746a6965686c6d7aU,
  0x675b666f7c95868dU, 0x687f7c8a8394876fU, 0x4842434c465f6061U, 0x676a656c5b4e453bU,
  0x7c978d8886887f78U, 0x685d54585c5f647cU, 0x6e646665545b6768U, 0x688093928290846dU,
  0x52546474626a5e65U, 0x897a727976664d5aU, 0x605b515c7a797f7bU, 0x695f6b7a7e806e6bU,
  0x6b647a727c745e5eU, 0x787469565c5a4e5cU, 0x958b8076645f6976U, 0x40556b7581898794U,
  0x5b4e2d2a2e352c2fU, 0x7b8b8d857a686b63U, 0x8a6e6c4b4e4c6568U, 0x7c7d6574788b8395U,
  0x63646d6d75737a79U, 0x7e8c847a7d81725aU, 0x6c616866636d7179U, 0x8a777b595153525eU,
  0x718a9caca6aaa289U, 0x41432e393e555867U, 0x5b53575240454e41U, 0x85a3a492866e6b65U,
  0x2a34333744425976U, 0x4959485745342f36U, 0xaea099898b795648U, 0x4e678494a8a6b3a8U,
  0x917677624e4d4a4fU, 0x1b1c2d59799b9896U, 0x827b6d64584d2722U, 0x6d8a8a90a0987e83U,
  0x656c6871605f635aU, 0x6c7882888c817373U, 0x8a85757773667565U, 0x6f7a7a7a91989f8bU,
  0x645b515254536769U, 0xa48e714947455b57U, 0x9595a2ada6b0a9abU, 0x65726d697b868196U,
  0x6d735a56565a6069U, 0x9fa7a293958c797cU, 0x9294aeb0b7b5a59cU, 0x7a67554f4e4c5e71U,
  0xb7c0c7c9c1c1b8a8U, 0x7b8695b2b2b7c1b4U, 0xd2d6d5cebeab8e82U, 0x676769676a82a2bcU,
  0x9f9a948e878a8175U, 0x90868c7e8b919a9dU, 0x94aba3a2a8969c89U, 0x5b757b6c6d797796U,
  0x7c7e838a85746d58U, 0xa0a5938b83768a89U, 0x687c7a8288818b9cU, 0x8e856f7b655b5f67U,
  0xb7bcb2bebaad9f98U, 0x5f6c74828595a0a4U, 0x6d616f5e6f737f76U, 0x7269655b60716976U,
  0x9d91898689777d7eU, 0x726f828397939d93U, 0x8c9b91a39d88727aU, 0x6560676d6e69687bU,
  0x82808d7f7e6f6c61U, 0x7f81888a82877b7cU, 0xc7c1c3c8a6979b8eU, 0xb9a8b5a3adb1b8b9U,
  0x565c556e6f809ab2U, 0x7e76646360626163U, 0x9095a191a1959f89U, 0x575a4b4e5e7b7d7fU,
  0x988c847d6f67756eU, 0x787461586b6e7f90U, 0x9ea19a93968a7e80U, 0x616274696f737e8dU,
  0x6273817d807f7369U, 0x84808d8b7b725a5eU, 0x8482807e7674756cU, 0x6a80868793929b98U,
  0xa6a9a49b987f756eU, 0x9293929b8d899da1U, 0x888d7e9185808592U, 0x8489807478747a7dU,
  0x9fa19da29c9e9e93U, 0x6a6e6e73808b9d9eU, 0x7263665d53686266U, 0xa5b0b5bfa9a2837cU,
  0x8880686e73768291U, 0x7386949089869583U, 0x73858c807c777c78U, 0x8a94848575687266U,
  0xa5877d6e7b717a8dU, 0x7874718797a3a3a7U, 0x7c9c999a908d807dU, 0x7e767879747d7381U,
  0x789191a69f818478U, 0x3e3632252f484854U, 0x93a39da8a4856c4eU, 0x8791938992848496U,
  0x9ba9968abda9a59dU, 0x676c757873778383U, 0x7f6e6d7d7f727368U, 0x7c757d8a7a807f7cU,
  0x84696a7173787c6bU, 0x4b60575b6c768894U, 0x656f696154445353U, 0x7b726159564e5e52U,
  0x6e605e60696a7c88U, 0x4548484e575a616fU, 0x6f67757476684a4eU, 0x767a7f817a6a736cU,
  0x847c7f6c79868c80U, 0x727d85867d929280U, 0x78787e73777a7b79U, 0x63544b5342494c59U,
  0x465b5e758a8a7e69U, 0x5a46564146474c4cU, 0x646b6c76776d6368U, 0x5c4745524c483f4cU,
  0x6f786f6c69665d58U, 0x9795898a86768585U, 0x4b687a8b90a19f99U, 0x857f6268514d4b4aU,
  0x374f4b58676b687fU, 0x7f857b5848423c34U, 0x9089857987797f86U, 0x4d5c6f7785878993U,
  0x5c5a5b565e5e5e54U, 0x96949a939386896dU, 0x323e3d3d4f576f77U, 0xa2a18967554f483bU,
  0xb0bec1ae9490989eU, 0x61715e5b6d77819eU, 0xa59a9a85847e6d6dU, 0x4859727e8aa8a797U,
  0x5f54544d544c594cU, 0x52495d646c606261U, 0x7674726460564843U, 0x9e9a908989838680U,
  0x535f58605f777c8bU, 0x78736965675a4c55U, 0x96908a8b8b9b968bU, 0x77746f6972869498U,
  0x8c8c80817f686773U, 0x95847877746b8192U, 0x5f605e7678777c96U, 0x6260777d7a676059U,
  0x73684f523a424e54U, 0x7677798d85796f72U, 0x4e494d59595e6576U, 0x7375626869616861U,
  0x7b80848e95848a7dU, 0x6d5e666564637680U, 0x81887d6d6875605cU, 0x4f4b54494c635d75U,
  0x8788867671687266U, 0x483f3f525e758383U, 0x5f635d5c62584b4cU, 0x9b93939283827165U,
  0x72747b73747e8793U, 0x837f79868a7b6e73U, 0x6d717a9189978482U, 0x7364626a656a6c72U,
  0x94959ca0978c857bU, 0x715f5760697e9097U, 0x596074828372727fU, 0x968e978d876e5857U,
  0x92899497a29fad9eU, 0x6463697377767f88U, 0x6a6579747b868180U, 0x6d677472736f6b64U,
  0x9faaa1a5ada8957aU, 0x6c5e5b5f63767b8aU, 0x7974807688767569U, 0x6b645a6072737176U,
  0x8576796d615d6a66U, 0x9ea09f908c7e747cU, 0x80857f79787e96a2U, 0x5f6f8a877f797878U,
  0xa8967c6f5f556264U, 0x9aa9abbebfb9b6b6U, 0x8a6d6f83808b9894U, 0x8299a3b2aea29d8eU,
  0x897d8b7a747e7c8aU, 0x8894918e8e909088U, 0x6e7c7d7b8b858b88U, 0x8a928c8c99877265U,
  0x9188856565646781U, 0x7c7e718c9d9598a0U, 0x8e7b868d95918e8aU, 0x9c958e929281928aU,
  0x6d5b68647c7e9ca1U, 0x51464a555c67736dU, 0xcac1b6a7977d6755U, 0x959faab4d1dde0daU,
  0x716d7b9591877b81U, 0x8d92a1a6929a8e83U, 0x7289827d787e8295U, 0x857a7d7d7a6c6669U,
  0x62585a6265686d7fU, 0x9aa6ac978e887672U, 0x958b7981788392a4U, 0x8c7a7c8a989d989dU,
  0x676f87889bae9988U, 0xac9c8c887f807c79U, 0x879c9794a0aba8a2U, 0x7b766d76766a7782U,
  0x7e89a0b0aab79790U, 0x9a8d765c3f4e5a6eU, 0x8d999eb4c0aba398U, 0xa198988b816f8090U,
  0x76675e797b889593U, 0x6f81948d94766f72U, 0x939a967a6c574d56U, 0x424951586a797989U,
  0x7d73767258565146U, 0x87746e696a747e83U, 0x78797b7179818a8cU, 0x837d716d6c7f6d77U,
  0x7f898c9fb1aea08cU, 0x7d726d726c60667bU, 0x938c8a7b85858978U, 0xa4b0a5a5aaa09c92U,
  0x848682758498a5b1U, 0x6d7d868e96908b94U, 0x8268686a726b6d6aU, 0x80767a9194969585U,
  0x929ea2a19186847dU, 0x747f73737d858a91U, 0xa3b7bed2bfbc9d91U, 0x695b5f55544b5f83U,
  0xb3b0b5c9b48b7773U, 0xa5a4b4bbc9c8b9bdU, 0xb8c9becbcbc2bca7U, 0x8c92887f9196a1b5U,
  0xa59e95858ea5aaa1U, 0xa9a3aeaea1b3ada3U, 0xb8b7b8aaa4a7979fU, 0xabb7b1b5b5adacb0U,
  0x8373728078888895U, 0xb9a49aa19b8d8981U, 0x9393aaabbbd1d7caU, 0x7f90a5a59e9fa9a2U,
  0xb3aea3958986897cU, 0xa59a898da0aeb4b0U, 0xb9b5b4acaaaea2a6U, 0xa9a59a9193959ca2U,
  0x7581788c82929ea3U, 0xa1a1a8949485817cU, 0xb5c5cbc8bdabaa9bU, 0xaaa08d85849da4abU,
  0x979cabb9d8dad4c1U, 0xa1b4b3c0c2c89fa3U, 0x907d7580818b959eU, 0xa09bb0b4b7aea087U,
  0x9487949089879f9bU, 0x8b8683827d778883U, 0x81848a93a3978d93U, 0x77859299968a8c89U,
  0x7585809295968780U, 0x847e8b88877f7d7eU, 0xaba5939c8b858584U, 0x69838d9eaea8b3b2U,
  0x85766d5b514a3f67U, 0x9783816e60626e83U, 0x8b9da1a9b8b0a9a1U, 0x7476777b8c94888aU,
  0x858d919488787c74U, 0x6d584e3d475d6679U, 0x8c98a1a595957d6dU, 0x7d727f8c8b8b8688U,
  0xac99a29b8b907c7aU, 0x96969692989aa0adU, 0x746c747a7684a0a5U, 0x93979d98a19f8c86U,
  0x76766661636e7d81U, 0x8e81837b88848c8dU, 0x8d9599959c978491U, 0x586c79788091968dU,
  0x907c737774745f64U, 0x8283839591949396U, 0x5f6e6e69726e6475U, 0x9494867b66616155U,
  0x756b6476788c9c94U, 0x574b58565765696cU, 0x7b828b818c866b5dU, 0x908d8b7968676a71U,
  0xada19783614e5173U, 0x6d7f8894999b919fU, 0x878064555f4d545fU, 0x6b61696a82919796U,
  0x807b735f5f6a6a68U, 0x9da3aeb4a8a19e92U, 0x676b6d7779867f95U, 0x797e7680888d787dU,
  0x9c90887f7171717eU, 0x757568717b7a958aU, 0x8d9e9aa0a49e978aU, 0x8080797a7c867f8cU,
  0x95a5948785717985U, 0x89999d9ea19c9199U, 0x7f87727c7564697eU, 0x72635a6f777b808eU,
  0x888c7872646b7874U, 0x6c7a7996939c9892U, 0x8b8a817c6f626569U, 0x5c5d5a667f838180U,
  0x8b8a8b8078726559U, 0x5f575c5f69768480U, 0x747a808d97929384U, 0x5b4c48544f606063U,
  0x7c838b94997e7671U, 0x525a5c54576b666dU, 0x8379767b6a6c5f5cU, 0x7468637a7e888588U,
  0x74888e999da19782U, 0x43342637414c576cU, 0x5c7581868b919167U, 0x7e718774604d5256U,
  0x777d6061646a6e77U, 0x8484807a7b838482U, 0x7a6b5b605d4b5e75U, 0x6e6e7782877d8983U,
  0x7b747a7e816e726cU, 0x8b8287887a7f8079U, 0x6c57535e6a616073U, 0xcbb5a9826f5e5d68U,
  0xa0a7babacad0e3e1U, 0x565a5f63738a8996U, 0xbdb4b09987806d62U, 0xa0ada1a49a9cb8bbU,
  0x6d766c78787d99a7U, 0x949a8c9081817f73U, 0xa5a09da8aca9a99fU, 0xdcdcdadad4c9b5a0U,
  0x53565e61687a9ecaU, 0x9c998c857e5c5238U, 0xa9abaab9a7a6a3a8U, 0x818080768095989eU,
  0x908c9992a9a39a88U, 0xc2b6a69284818481U, 0x7b878895a8b7c1bbU, 0x798072777b798373U,
  0xa0917b6b6c717971U, 0x878db1c2c5cec7aaU, 0x9b7b6a5d4b555f6eU, 0xa3aab1c6cac6bfb8U,
  0x9c85887c766b7a94U, 0x97998a7d88769188U, 0x9c9fa0a7bbc2b8b2U, 0x81878a918c998e8dU,
  0x897c716162636264U, 0x7d7881666e767c80U, 0x818e9fa69189827aU, 0x9c9495917d7e8181U,
  0xb0ab9891998e9c93U, 0x7d8579768488999fU, 0x97978581848d8388U, 0x71756d687b717f83U,
  0x8a857c958c868175U, 0x515a525f60768c84U, 0x918a97919a86786eU, 0x827e6c6b72738092U,
  0x7c80757f76829381U, 0x847e79736b767686U, 0x82919c8892839179U, 0x99ac988966646b79U,
  0x3c334643556a8592U, 0x9c937c6969565e48U, 0x76605a4855757f8cU, 0x8b839ca1bdb3b293U,
  0x745f5b6060697875U, 0x9384908a786f777dU, 0x787e8790a7aba2a7U, 0xb8c2baa698878786U,
  0x6d757f91949eadb2U, 0x6e827a89879c7f72U, 0x6a797e917e8a7776U, 0x6c756361665a6e6dU,
  0x878b95979d928772U, 0xa4a991988d858792U, 0x927b6c58606c7e94U, 0xa79da2aba39c9a9cU,
  0x6f7d92949cb09ba6U, 0x777475888484816fU, 0xc6b6aaa689877b7aU, 0xa6a6b2abc3c7d3d8U,
  0x5d64688590a5a8abU, 0x75715655646a595fU, 0x778993aba5a08c86U, 0x5a4e564b53606a74U,
  0xaba29e9091887a77U, 0x757a839897a9b8c1U, 0x6a6871827d84857cU, 0x6a635c5d63656162U,
  0xb2a9ae95856d6b61U, 0x5241465256667598U, 0x76747a726d5e584dU, 0x8287849380848079U,
  0x68766c5d625e6479U, 0x516574837c6e7578U, 0x9a7c6654472d3640U, 0x74767f9899a29b9aU,
  0x796d695555656177U, 0x55525f7484858777U, 0x776a695957483642U, 0x4f6a78717d858474U,
  0x534b4b4931344a47U, 0x7b8276757d676855U, 0x71715f6a6f7b8579U, 0x725a57465b636d6eU,
  0x788785847d84947cU, 0x8c8c7c6974697e81U, 0x434c49647e9f95a0U, 0x69808ea69f8b6d5eU,
  0x7f81856d6a4f545bU, 0x47413542696b8171U, 0x9bbcb8bbacab9272U, 0x5e68626e736f8088U,
  0x7a7264695b574e57U, 0x40585b695e716a66U, 0x827e837165625f47U, 0x4a3c4763788e959cU,
  0xa698a2927e6b6b5cU, 0x455a7882919b9e9bU, 0x8b838a888b766155U, 0x929c9b857c7b6b7cU,
  0x7a837c828387818bU, 0x82887e83736e6168U, 0x91837a73716e6e77U, 0x7582918d8486888eU,
  0xa48983765f677a72U, 0x535f727587a3adb0U, 0xa0ad9f8a7767635aU, 0x62646e6b7d7f9897U,
  0x7f6e7a6d6d69776dU, 0x9ca7a7a09985857aU, 0x6472748b87a19897U, 0x5944413b3f454654U,
  0x7e848d8e8482846cU, 0x7c948a9a9d979396U, 0x6a78737375867b84U, 0xa7a9a39392857d6fU,
  0x8d918e93829896a7U, 0x889fa7ada79c9d99U, 0x777779736d79878cU, 0x5c5c576e837c7876U,
  0x8992766c6065665dU, 0x645d5e57566f858eU, 0x7e68594f5e67747fU, 0x74868e98a09ba395U,
  0x9a887b806c6d6c6bU, 0x8d8b8b949d95929bU, 0x5f6675818897969aU, 0x6d675b58564d586dU,
  0x938788869190877cU, 0x6e596d6783869397U, 0x8b9f999f92877e75U, 0x424b444661727884U,
  0x636e75625b563e38U, 0x9292867979747273U, 0x646f7c869a9c9b9aU, 0xa5887c6847384d57U,
  0x898995a2aca5bcadU, 0x9b85837962627779U, 0x6a575c67797e8a93U, 0x4d66627a90897d6fU,
  0x7d7e745e5d56545cU, 0x4e59676983737278U, 0x9a9f8e928d7a6c57U, 0x7473595f5d698099U,
  0x868c8b97948b847cU, 0x6e6a6d6966748183U, 0x5667767f7f8a867bU, 0x54444e54474a4849U,
  0xacaa96a2aba0947dU, 0x4a3e4863727a909cU, 0x7f7c6c676156464fU, 0x4d5c6c5f797d8990U,
  0xa79d989393786054U, 0x726c5b78828098a7U, 0x9987888981827a76U, 0x7a73747374849690U,
  0x6e79748289858082U, 0x9592848e75848876U, 0x918c918a9ca5acabU, 0x676c738b8d928990U,
  0x646c6d5f5f6f6858U, 0x8a877b87837c7878U, 0x7e879d9c9c9c9c90U, 0x83717464595a556eU,
  0x8791a7a5a7a89384U, 0x887c7d6869747577U, 0x7a8286858c9c9796U, 0x8c8a7a7273696e77U,
  0x676567766d7d897fU, 0x9ca09e937b71686cU, 0x847c827680829f99U, 0xa1999a9e9a94938bU,
  0x8c87959289888c91U, 0x60675e72747c8991U, 0xaa95878b746c6254U, 0x8c8ca2a5a79f98a1U,
  0x444754626b6a6a79U, 0x959993755c3b3932U, 0x3a39494d5a767484U, 0x4347454f6f656449U,
  0xaeaca9ada9927356U, 0x484c45567a9293a0U, 0xc2bcaea37c6f5144U, 0x6674727980828ea8U,
  0x7a766c5e5f6d5c5fU, 0x72687579838e8385U, 0x71757b736d635960U, 0x9c989aa4a794836cU,
  0x75747c83889baca5U, 0x81767e6069645d5aU, 0x9fa2a0abac9b987bU, 0x647b85909ca3938eU,
  0x615f576155595967U, 0xa4a195716c74656dU, 0x806b76808394a5b4U, 0x645d5e6271777e75U,
  0x836d4e414e545d55U, 0x86879298a7938c92U, 0x909e9e96897f7a8cU, 0x969da39287919894U,
  0x788d97a2a69c9892U, 0x6e6f6a76756b6b80U, 0x9b94a4a8a291817aU, 0x5d736f6964737f8dU,
  0x87a1949c9785726cU, 0x4f5c615f696e7786U, 0x758b97957b745d59U, 0x8e795e644a5a5a65U,
  0x5666686d7b939c97U, 0x6b656c68645a5f55U, 0xa18380747a6d6b7eU, 0x7773747280889391U,
  0x7d979f9c89816f67U, 0x61585c6b7a75776dU, 0x989998847e6b6867U, 0x5e6d6d7b74858e91U,
  0x918c91a296947b66U, 0x61585b655d64736fU, 0x7381848b92887167U, 0x6f60473c4a495168U,
  0x8eb3b0adaea8948cU, 0x81655c4543616482U, 0x6c63738888818787U, 0x385368767374605eU,
  0x8390907b6454513eU, 0x66676f746b676f80U, 0x7a757d7b78747373U, 0x4a5d788b9e929d94U,
  0x978478614e3d4049U, 0x848a9399a79ea293U, 0x7e989493857f8587U, 0x6a80746d6c696b74U,
  0x5256565f6b637265U, 0x6657554952534f49U, 0x4a595f565e576a66U, 0x7287a4a2918c7464U,
  0x5c635149484d5868U, 0x6d63654b4e3e474fU, 0x3229324a585c7c7eU, 0x958177685b543b34U,
  0x899287838185898aU, 0x5e66727b83806b77U, 0x7e857866574f3e48U, 0x79756b5d67697a7dU,
  0x575c595c6b7a6b6fU, 0x7d5c5e6274686b5cU, 0x6c79908a8b959383U, 0x7b7d8792847c6b73U,
  0x3e393a3b46545c64U, 0x7171646561575741U, 0x4e677d6f75677875U, 0x7f7e5f5335352f3fU,
  0x857f7b7975757f89U, 0x524a586f83857480U, 0x626c787873736455U, 0x71756341432b3e43U,
  0x404052647a878477U, 0x79594a3b373b4842U, 0x514e596d92969382U, 0x394d535354575256U,
  0x675136292e494240U, 0x4a3b4d5a6e78897fU, 0x8890867a7d68644cU, 0x788985888e819390U,
  0x55565a6e797f7981U, 0x5b453f2e28223147U, 0x5261605b5f6a5661U, 0x413a343c2e353b49U,
  0x515c4c485a543e42U, 0x6d71685c57544851U, 0x3f39424e5569696fU, 0x6f6969766f574135U,
  0x80757f7d6673685fU, 0x5b62797269687c7bU, 0x887b616040404c47U, 0x49394d627e888e8aU,
